de 63002858
, 45538719
la 32982987
. 30103951
et 29085917
des 26965782
l&apos; 24060666
les 22804380
à 21421749
le 19402277
d&apos; 18036845
du 15851335
en 13515045
) 9948852
@-@ 9740942
que 8856377
pour 8826831
un 8801532
dans 8557045
( 8395063
une 8350960
au 7626472
a 7431498
sur 7293247
est 6597004
par 6577124
&quot; 6196343
qui 6159733
aux 5254696
/ 4893704
ou 4472629
: 4185076
Le 3745479
il 3374123
plus 3276813
qu&apos; 3258591
sont 3239875
ce 3120492
pas 3087947
; 3042706
ont 3017288
Les 2945071
été 2667774
avec 2603764
La 2572639
ne 2541473
- 2521255
être 2472745
s&apos; 2415700
se 2143133
Canada 2030573
n&apos; 1940193
L&apos; 1837488
autres 1760392
pays 1729717
leur 1700120
ces 1699393
Il 1598180
son 1588318
cette 1580130
• 1500446
nous 1460026
1 1423184
comme 1384554
entre 1382414
y 1378452
développement 1361182
En 1328934
fait 1289983
ses 1283947
Conseil 1258660
sa 1248640
États 1224874
droits 1187993
on 1160410
% 1157118
rapport 1152321
non 1149018
services 1148693
Commission 1146070
l 1135028
2 1124567
travail 1121545
elle 1118548
peut 1108996
ainsi 1097500
leurs 1083255
vous 1076614
tous 1051941
également 1032370
faire 994883
_ 993357
Comité 985768
si 958280
membres 948870
sécurité 946505
même 941649
deux 940596
article 911749
santé 908497
d 907584
mais 903557
cas 898401
activités 890860
Nations 888486
droit 886481
ils 872905
tout 869679
3 854552
projet 853306
programme 850711
dont 845678
sous 843981
aussi 838190
doit 836709
Unies 831703
mesures 829598
A 819030
cadre 814721
personnes 804342
contre 792748
é 781798
général 768123
partie 766149
Dans 766085
cours 750393
M. 750212
afin 743696
mise 731191
information 729092
soit 725962
était 724015
après 709944
nombre 703320
gestion 700959
données 692798
compte 691407
matière 690631
sans 684249
bien 676692
4 673037
système 669447
concernant 669442
demande 660335
2005 659720
questions 655545
femmes 653066
où 652015
enfants 651744
autre 650558
ci 648871
programmes 648459
politique 647556
2006 647147
question 644351
À 640382
5 634568
ressources 634160
recherche 631153
État 630999
produits 630198
Pour 628814
10 622653
toutes 622629
ée 619817
peuvent 619512
générale 618888
2004 617990
ées 616791
és 616582
notamment 615576
Nous 607626
gouvernement 605129
doivent 603634
ant 602413
&#91; 599543
politiques 597427
niveau 595943
protection 593162
moins 589671
er 584633
application 584001
internationale 583607
ans 579614
&#93; 578115
paragraphe 577165
jour 571698
point 571197
processus 570091
2007 568207
international 567064
elles 560745
résolution 558594
ait 558362
2003 558220
avoir 557078
? 546077
avait 543784
e 542490
homme 539963
européenne 537205
vue 536557
in@@ 535669
ent 528153
économique 524802
évaluation 524436
$ 522473
s 522182
session 520420
2002 518924
Convention 512327
sera 507822
&apos; 506641
6 498621
avant 496016
toute 495591
Assemblée 495517
année 494389
résultats 494215
2001 492761
cet 489086
examen 486016
je 484938
renseignements 483776
temps 483288
aide 483143
loi 482986
base 480581
situation 480421
décision 478928
selon 476838
très 476767
œuvre 476515
2000 475128
formation 469982
action 463086
secteur 461813
lui 461474
coopération 456861
Président 455321
15 453085
plan 452345
notre 448997
lieu 448384
période 447664
Un 446233
Ce 445870
Cette 443517
Loi 442465
accès 441590
groupe 440776
De 439685
Union 438840
mesure 438182
service 435831
b 435772
Une 434894
7 434825
chaque 434306
of 433836
titre 433688
trois 433159
Groupe 432383
votre 431893
particulier 431561
On 430006
&gt; 428464
façon 427599
tant 425679
parties 425295
dispositions 423074
assurer 422073
projets 420753
entreprises 419984
national 417997
devrait 415714
dollars 414702
utilisation 412959
aient 412509
années 410762
environnement 409725
Organisation 408910
personnel 408097
12 406386
Je 406062
ensemble 405598
Ces 404614
organisations 403895
mettre 403103
compris 403059
conditions 402950
dé@@ 402903
Secrétaire 402229
public 400998
vie 400030
place 399183
informations 399031
personne 398610
2008 398208
objectifs 398016
organismes 397957
certains 397164
encore 397061
égard 396852
Si 392510
exemple 392460
domaine 392317
S@@ 391835
étaient 390789
i 390498
emploi 389954
8 388878
B@@ 387439
prendre 387124
11 384796
société 383483
plusieurs 383047
30 382507
rôle 382300
marché 381076
fois 380794
qualité 380042
publique 379171
présent 376902
conformément 376109
taux 373665
groupes 368955
Au 368928
9 368131
part 367670
fin 367563
Europe 367385
nouveau 367104
nationale 366395
20 366259
Des 365818
nos 365567
paix 364489
ordre 363672
c 363545
travaux 363171
région 363065
ons 362813
Par 362675
document 362216
donc 360383
manière 359832
ceux 358517
ayant 355348
C 355064
visant 354941
fonction 354190
ré@@ 354045
and 353452
Programme 352220
vertu 350972
DE 348838
efforts 348634
contrôle 348127
re@@ 347806
affaires 347687
présente 347368
seront 347239
pendant 346560
000 345854
G@@ 345530
voir 344759
eau 344401
population 344235
règlement 343888
Unis 343560
décembre 343287
concerne 342801
lors 342308
effet 341566
millions 341518
République 341182
depuis 339977
M@@ 338656
première 337689
financement 335690
nom 334810
avons 333386
nouvelles 332902
laquelle 332551
o 331034
soient 329901
P@@ 329207
site 329009
date 328763
monde 328692
besoins 328547
relatives 328046
c&apos; 325895
in 325462
rapports 324716
D@@ 324646
documents 324347
Elle 323745
Bureau 322969
suite 322897
13 320795
possible 320630
n 317663
T@@ 317009
juin 316620
1999 314436
the 313886
grande 313855
14 313714
an 312638
mois 312428
problèmes 312216
18 311952
premier 309512
améliorer 308550
accord 308547
participation 308382
avis 307835
outre 305592
exercice 305484
production 305417
t 305244
important 304808
* 304185
faut 303881
R@@ 303543
savoir 302429
fonds 301361
nouveaux 300983
seulement 299895
terme 299891
sujet 299570
Gouvernement 298568
canadienne 298555
mis 297350
institutions 296416
L@@ 295039
administration 293561
canadien 292384
C@@ 291594
nouvelle 291427
pourrait 291223
état 290344
dépenses 290041
ministre 289519
s@@ 289370
appui 288685
eux 288411
éducation 286810
moyen 285065
Parlement 284749
déjà 284487
F@@ 283323
mars 282417
européen 282058
E 282034
certaines 281544
16 280604
© 280442
valeur 280381
I 278999
montant 278756
traitement 278485
internationales 278222
éléments 277695
Conférence 276922
Mme 276267
raison 275921
chez 275867
nécessaire 275510
prix 274704
H@@ 273608
25 273267
étude 272551
organisation 272372
commerce 271195
septembre 271171
activité 270320
objet 269859
nécessaires 269793
importance 269712
devraient 269432
Ministère 267082
systèmes 267025
A@@ 266702
obtenir 266442
C&apos; 266418
D&apos; 266400
eu 265372
serait 264652
sein 264084
celle 263227
annexe 263048
vers 262928
jeunes 262259
recommandations 261564
N@@ 261545
celui 261535
soutien 261189
normes 260986
31 260894
étant 260607
produit 260502
é@@ 260439
opérations 259903
pratiques 259267
réunion 259188
ai 258958
tenu 258707
17 258376
avaient 258126
= 257859
donné 257658
auprès 257601
social 257177
fins 256287
es 255928
études 255582
mondiale 255169
p. 254331
procédure 253174
entreprise 252847
peu 252845
S 252331
économiques 251601
juillet 251037
création 250217
transport 249810
pris 249569
moyens 249398
décisions 249284
risque 248476
heures 248269
type 247998
B 247857
21 247694
forme 247647
era 247136
besoin 246588
mai 246031
jusqu&apos; 245837
avril 245712
analyse 244757
domaines 244684
me 244481
octobre 244417
soins 243660
24 243621
objectif 243558
établissement 243178
intérêt 243020
liste 242279
effets 242273
lorsque 242266
déclaration 241595
durable 241313
renforcer 241055
lutte 240710
novembre 240387
age 239458
budget 239363
fournir 239360
communauté 239251
sociale 239155
celles 239088
E@@ 239034
capacité 238585
armes 238284
appel 237942
note 237841
moment 237651
autorités 236682
pouvoir 235008
spécial 234456
Ontario 233924
19 233777
7@@ 232950
cela 232798
janvier 232738
alors 232729
h 232581
p@@ 232468
dit 232206
représentants 231821
grand 231708
technique 231576
industrie 231571
long 231137
régions 230844
K@@ 230616
communication 230535
... 230450
ni 229940
Cour 229897
deuxième 229597
t@@ 229178
V@@ 229015
Afrique 228616
L 228533
élaboration 228279
mieux 228203
100 228030
nationales 227940
6@@ 227899
Centre 227351
1er 227338
aider 225946
d@@ 225809
hui 225532
nationaux 224586
5@@ 224493
progrès 224362
no 224317
ministère 223986
1998 223800
quatre 223683
croissance 223506
O@@ 223231
proposition 223195
autochtones 222765
toujours 222119
prises 221213
coûts 220823
mandat 219946
Ã 219407
techniques 218711
ale 218284
22 217877
b@@ 217736
aucune 217492
frais 217168
relative 216928
promotion 216328
jours 215905
responsabilité 215514
8@@ 215069
permis 214994
Office 214536
principes 214453
c@@ 214280
points 213848
vigueur 213807
employés 213609
D 213334
cinq 213319
23 213211
suivi 213190
risques 212700
&amp; 212416
stratégie 212057
établir 211411
total 211273
problème 210965
ici 210758
membre 210718
gouvernements 210703
tels 210389
justice 209836
règles 209238
déterminer 209228
procédures 209040
différents 208274
demandes 207675
discrimination 207450
R 207197
beaucoup 207162
nombreux 206469
experts 206230
Tribunal 206222
assistance 205745
50 205680
o@@ 205672
permettre 205274
dire 205270
g@@ 204992
k@@ 204769
Règlement 204658
intérieur 204391
promouvoir 203622
agit 203496
termes 202893
initiatives 202632
ailleurs 202502
car 201899
ONU 201402
délégation 201381
donner 201308
séance 201019
participants 200564
poste 200550
efficacité 200104
relations 200059
aire 199944
UE 199489
Nord 199289
internationaux 199171
ants 199140
enfant 198815
souvent 198029
Web 197014
cause 196833
revenu 196385
utiliser 196349
capacités 196320
particulièrement 196059
prévention 196024
but 195936
r@@ 195852
font 195742
Rapport 195734
coordination 194921
aucun 194841
° 194801
représentant 194632
&#124; 194498
famille 194409
économie 193604
régime 193581
respect 193501
ligne 193267
référence 192885
changements 192757
partir 192705
Québec 192486
exécution 192402
approche 192244
28 192145
devant 191975
environ 191305
aujourd&apos; 191279
secteurs 190850
partenaires 190793
n@@ 190567
26 190058
di@@ 188876
articles 188784
marchés 188616
adopté 188562
mondial 188469
législation 188054
exigences 187741
j&apos; 187633
suivants 187274
réduire 187263
permet 187252
pré@@ 187225
tel 186999
texte 186885
ante 186833
oeuvre 186650
collaboration 186315
lorsqu&apos; 186257
Canadiens 186252
te 186177
biens 185976
existe 185952
examiner 185909
exploitation 185908
dernier 185791
27 185449
efficace 185340
en@@ 185259
ez 185205
prise 184839
Fonds 184819
niveaux 184639
disposition 184579
février 184482
principe 184194
y@@ 183930
offre 183686
Comme 183530
tenir 183071
ations 182512
m@@ 182251
territoire 182095
nature 181968
expérience 181700
is 181483
an@@ 181369
enquête 181235
9@@ 181230
1997 180982
actuellement 180947
ine 180472
surveillance 180365
section 180326
financière 179674
plupart 179653
recours 179205
pratique 178631
certain 178543
énergie 178290
grâce 178153
adoption 177928
al@@ 177804
fédéral 177326
nécessité 177090
violence 176940
Agence 176509
Ils 176361
augmentation 176243
2009 175306
É@@ 175126
pourraient 174937
I@@ 174929
égalité 174741
sommes 174653
II 174600
davantage 174473
ch@@ 173994
comité 173967
Toutefois 173576
quelques 173353
publics 172750
importante 172438
divers 172302
contexte 172294
60 172241
réduction 172099
origine 171975
juridique 171651
to 171635
faveur 171497
présenté 171384
inter@@ 171117
sociaux 170983
intention 170863
i@@ 170698
l@@ 170534
aires 170371
Santé 170197
attention 170185
réponse 170151
créer 170106
http 169940
page 169757
demandé 169729
telles 169586
J@@ 168853
propriété 168655
! 168648
M 168573
indiqué 168282
conférence 168175
répondre 168011
plans 167905
mission 167789
civile 167680
différentes 167578
hommes 167455
président 167361
e@@ 166434
29 166424
maintenant 166376
initiative 166246
parce 166174
ar@@ 166174
0 165874
fonctions 165870
us 165853
alinéa 165837
enseignement 165710
F 165532
humaines 165261
4@@ 165118
présenter 165097
Sud 164956
v@@ 164843
principaux 164806
obligations 164516
réunions 164421
réseau 164355
possibilité 163909
quant 163798
is@@ 163667
marchandises 163506
Internet 163400
preuve 163277
direction 162761
financières 162277
compétences 162087
méthodes 162018
telle 161920
Parties 161880
août 161874
débat 161556
occasion 161540
bureau 161365
rendre 161175
1996 161118
intérêts 161044
lequel 160851
directive 160544
durée 160376
renforcement 160031
position 159987
haut 159837
milieu 159575
face 159482
maintien 159427
Vous 159338
sens 159175
Monsieur 159104
ales 159090
Secrétariat 159004
importants 158967
zones 158965
centre 158674
Amérique 158539
priorités 158492
ation 158479
constitue 158475
actions 158106
bonne 158046
u 157860
planification 157771
engagement 157518
vos 157477
police 157451
zone 157285
m 157244
participer 156903
Article 156657
.@@ 156378
0@@ 156366
régional 156343
canadiennes 156306
directeur 156209
diverses 155891
contribution 155878
00 155775
technologies 155736
antes 155654
postes 155622
traité 155621
culture 155574
Services 155323
propositions 155303
citoyens 154991
valeurs 154974
privé 154722
contrat 154708
instruments 154561
suivantes 154536
40 154433
financiers 154299
critères 154151
près 154098
changement 154044
T 153990
communautaire 153665
Selon 153611
travailleurs 153419
h@@ 153216
P 153085
pauvreté 152811
voie 152681
facteurs 152655
établi 152607
connaissances 152583
relatifs 152558
victimes 152392
lois 152300
portant 152235
évaluer 152077
W@@ 152007
vérification 151710
rendement 151647
début 151568
réserve 151407
disponibles 150981
suivant 150763
aspects 150684
co@@ 150645
matériel 150337
accords 150330
auteur 150162
sociétés 150066
technologie 149989
échelle 149950
ie 149869
aurait 149651
dernières 149640
durant 149428
Membres 149397
amélioration 149241
terrorisme 149163
able 149150
g 148887
f@@ 148845
mêmes 148344
a@@ 148146
assurance 148113
as 147815
principal 147628
électronique 147602
nombreuses 147559
anglais 147266
dernière 147238
ville 147016
commission 146973
liées 146927
directement 146905
liés 146497
émissions 146300
reçu 146266
ter 146095
organisme 145907
avantages 145777
langues 145733
Cela 145634
équipe 145545
supplémentaires 145443
CE 145292
J&apos; 144966
charge 144707
www.@@ 144675
f 144589
intégration 144393
ET 144381
modèle 144375
mer 144330
permettant 144180
actes 144143
langue 144124
conseil 143958
el 143954
contributions 143940
ques 143916
mécanismes 143861
conséquent 143377
troisième 143213
sorte 143008
stratégique 142681
organes 142595
appliquer 142443
réalisation 142206
relatif 141916
avenir 141692
entrée 141669
formes 141446
reste 141328
publiques 141258
bon 140871
sources 140647
am@@ 140604
Déclaration 140571
ro@@ 140497
clients 140419
chargé 140322
âge 140256
six 139788
protéger 139628
ministères 139469
suit 139466
ité 139357
coût 139138
01 139120
décidé 139095
prévoit 139042
réglementation 138941
responsable 138437
tes 138180
liberté 137828
tenue 137724
3@@ 137585
consultations 137571
commun 137391
ement 137317
parmi 137316
fonctionnement 137096
2@@ 136932
ti@@ 136931
u@@ 136921
canadiens 136880
1995 136622
atteindre 136442
financier 136247
établissements 135995
LA 135734
es@@ 135463
DES 134982
proposé 134920
al 134917
◦ 134907
secrétariat 134894
espèces 134809
communautés 134769
U@@ 134711
tiers 134648
faisant 134338
Protocole 134191
stratégies 133752
Service 133708
dessus 133564
possibilités 133476
délai 133358
élevé 133198
propre 133190
z@@ 133149
Bien 133120
mes 133112
conflits 132872
responsables 132777
VIH 132483
Code 132463
ag@@ 132341
agents 132218
aura 132147
mon 132141
eront 131962
Cependant 131877
faciliter 131817
N 131349
statut 131327
forces 131269
urgence 131214
or@@ 131212
construction 131061
chef 131049
convient 131035
faible 130969
médias 130872
gouvernementales 130810
ables 130751
toutefois 130661
vise 130599
élaborer 130500
porte 130493
trouver 130416
té 130299
régionales 130230
investissement 129902
défense 129843
importantes 129786
consultatif 129593
for 129398
fonctionnaires 129173
choix 129151
Direction 129151
modifications 129025
garantir 128573
vente 128546
communications 128232
propres 128192
collectivités 128143
er@@ 128083
par@@ 127933
populations 127902
continue 127804
avez 127672
déclaré 127343
faits 127342
juridiques 127255
transfert 127242
Ottawa 127241
tableau 127156
prévues 127156
présence 127115
grandes 126409
dialogue 126258
Accord 126255
définition 126155
Colombie 126135
observations 126042
succès 125951
plutôt 125664
absence 125504
conflit 125478
chapitre 125464
négociations 125434
série 125411
Date 125378
régionaux 125315
ère 125214
surtout 125134
estime 125078
im@@ 125075
utilisés 125058
adresse 125039
structure 124938
actuelle 124776
numéro 124739
+ 124708
large 124238
donne 124074
devons 123947
responsabilités 123935
relativement 123516
18@@ 123460
évolution 123356
1@@ 123281
utilisé 123222
G 123162
là 122979
interne 122640
Association 122428
candidats 122074
commune 122044
guerre 122019
France 121815
conseils 121626
liens 121453
obligation 121314
centres 121259
méthode 121223
unique 121194
@ 121175
erait 120918
j@@ 120884
eaux 120868
prévu 120837
version 120785
consultation 120743
continuer 120714
at 120677
moyenne 120554
Annexe 120548
sites 120445
demander 120432
transports 120161
vote 120136
réforme 120123
ad@@ 120052
accroître 119909
pêche 119906
spéciale 119906
sélection 119829
clairement 119811
Mais 119759
pu 119705
types 119705
Amendement 119684
comprend 119553
r 119432
étranger 119352
Royaume 119311
présentation 119252
échange 119220
Z@@ 119214
fédérale 119137
aliments 118971
matières 118624
caractère 118517
seul 118516
province 117899
ais 117778
Chine 117707
condition 117699
conclusions 117616
impact 117525
terres 117400
contenu 117398
it@@ 117385
ateur 117328
locaux 117257
catégorie 117097
soumis 117039
sociales 116605
militaires 116569
militaire 116486
55 116339
comptes 116329
Sous 116235
enregistrement 116169
crédit 116100
V 115789
1994 115753
ens 115709
concurrence 115500
centrale 115423
permanent 115158
raisons 115102
priorité 115083
▪ 115058
réfugiés 114914
lignes 114867
trait 114593
solution 114474
Plan 114462
installations 114374
essentiel 114332
ac@@ 114295
dès 114209
comment 114165
élément 114158
etc. 114102
Etats 113948
Institut 113878
comprendre 113644
modification 113502
sida 113460
spécifiques 113263
démocratique 113232
élimination 113190
affaire 113109
lesquelles 113084
créé 113084
provisoire 113037
02 113020
suis 112901
adopter 112883
trouve 112850
03 112836
autorité 112733
rapidement 112619
statistiques 112497
consommation 112407
lettre 112312
on@@ 111846
locales 111845
usage 111823
chacun 111562
nucléaires 111551
intervention 111322
nations 111074
Haut 111072
ou@@ 110963
lesquels 110852
engagements 110565
veiller 110527
ap@@ 110479
publication 110444
eur 110153
source 110124
ite 110113
examiné 109986
semble 109963
maladies 109731
applique 109539
peuples 109425
at@@ 109367
consommateurs 109239
appuyer 109234
recherches 109184
pleinement 109183
contribuer 109172
Université 109167
généralement 109145
x 109007
gaz 108988
traités 108913
Banque 108848
partenariat 108841
prestations 108736
importe 108617
90 108606
k 108509
tr@@ 108452
annuel 108088
Uni 107950
seule 107935
provenant 107894
offrir 107797
Re@@ 107581
S&apos; 107455
investissements 107448
licence 107433
missions 107425
directives 107363
35 107351
Depuis 107277
air 107036
véhicules 107014
quelque 106887
représente 106878
The 106840
va 106825
poursuivre 106795
majorité 106543
DU 106439
éviter 106431
espace 106352
Russie 106317
grands 106281
Ouest 106049
-@@ 105936
distribution 105843
− 105776
substances 105627
humanitaire 105624
déclarations 105474
Ministre 105467
pourquoi 105283
paiement 104842
Division 104835
Mission 104830
45 104816
-- 104809
Y@@ 104730
li@@ 104581
pouvoirs 104556
compétence 104397
maladie 104268
impôt 104213
pouvez 104022
provinces 103938
Après 103934
Ch@@ 103903
outils 103894
femme 103890
suivre 103847
apporter 103688
O 103506
enne 103192
force 103137
revenus 103116
règlements 103107
meilleure 103050
04 103014
conséquences 102915
ab@@ 102850
solutions 102843
agent 102806
familles 102544
intervenants 102520
terrain 102517
ministres 102402
fond 102359
salle 102281
mécanisme 102247
trop 102245
el@@ 102082
indique 102069
Nouvelle 102040
ri@@ 102032
ma 101955
judiciaire 101932
principales 101921
suivante 101889
étrangères 101883
élections 101877
om@@ 101830
difficile 101814
seraient 101793
eurs 101743
résolutions 101473
efficaces 101217
as@@ 101175
communautaires 101123
gens 101042
recommandation 100991
Département 100706
Britannique 100677
naturelles 100598
prestation 100587
autorisation 100479
scientifiques 100432
ements 100430
propos 100174
ur@@ 100173
territoires 100105
Asie 100086
Lorsque 100074
bureaux 100065
Tout 100011
professionnels 99977
Communauté 99854
régionale 99848
1990 99767
passé 99687
phase 99401
Charte 99122
constituent 99094
05 99039
dispose 98929
difficultés 98906
rapide 98897
con@@ 98863
L.@@ 98848
connaissance 98694
Partie 98482
traite 98293
80 98284
officielles 98214
diffusion 98197
respecter 98011
puisse 97998
jamais 97800
voudrais 97658
travailler 97566
extérieur 97510
ages 97474
nord 97370
Est 97352
portée 97327
ités 97310
Tous 97235
au@@ 97050
employé 97037
ér@@ 97018
ES 96988
Voir 96961
or 96947
New 96913
agissant 96767
sur@@ 96572
hôtel 96571
In@@ 96454
ent@@ 96319
humains 96313
supérieur 96289
clés 96273
06 96241
autant 96217
disponible 96184
trans@@ 96042
ic@@ 96006
LE 95991
favoriser 95966
ensuite 95908
ét@@ 95900
crise 95861
étrangers 95795
58 95773
principalement 95739
convention 95653
quand 95641
pénale 95541
commerciales 95510
re 95485
qu@@ 95406
délégations 95142
médicaments 95108
intellectuelle 95103
personnels 95098
Ainsi 95019
français 94762
mises 94749
p 94654
stratégiques 94653
bi@@ 94643
32 94611
op@@ 94609
encourager 94589
incidence 94535
conformité 94531
ers 94482
libre 94428
dossier 94395
Allemagne 94369
cependant 94236
désarmement 94200
particuliers 94063
marque 94014
33 93944
diversité 93905
lien 93851
réseaux 93833
instrument 93813
Directeur 93791
propose 93744
III 93686
défis 93567
compter 93562
faite 93532
Ré@@ 93506
anti@@ 93486
tard 93397
teur 93354
indicateurs 93328
teurs 93154
uniquement 93075
10@@ 93069
chercheurs 92934
préparation 92894
actuel 92829
classe 92826
Al@@ 92708
prend 92666
parents 92660
ateurs 92644
caractéristiques 92642
vi@@ 92447
connaître 92374
abord 92355
réaliser 92305
réponses 92239
communiquer 92144
56 92102
alimentaire 92098
confiance 92082
soutenir 91980
59 91967
X 91928
heure 91879
paragraphes 91717
rendu 91705
apprentissage 91704
puis 91619
Sur 91617
petites 91591
contient 91505
catégories 91352
emplois 91315
milliards 91293
si@@ 91283
règle 91225
publié 91114
écrit 91087
per@@ 91071
il@@ 91042
ts 90998
transition 90988
2010 90750
dix 90739
Alberta 90725
privée 90584
ites 90538
déposé 90510
57 90093
récemment 90061
av@@ 90005
générales 90001
étudiants 89993
fondée 89939
entente 89777
acte 89761
directrices 89755
prévue 89678
agriculture 89650
innovation 89542
administratives 89390
0,@@ 89263
unité 89246
capital 89152
rer 89145
permettent 89132
H 89113
intitulé 89110
1993 89087
souligné 89077
CEE 89054
stabilité 89016
scientifique 88991
61 88905
juste 88817
maintenir 88798
développer 88714
satisfaction 88709
manque 88697
adoptée 88682
70 88677
résultat 88636
juge 88545
sud 88531
Israël 88495
modifier 88494
Autres 88446
quelle 88413
circonstances 88294
sou@@ 88285
auteurs 88254
2.@@ 88209
ure 88132
Rapporteur 88108
1.@@ 88029
tribunal 87973
servir 87959
ouverture 87928
faites 87795
essai 87692
Enfin 87605
orientation 87381
peuple 87324
us@@ 87218
connexes 87216
utile 87139
partenariats 87131
EN 87059
venir 87051
drogues 86798
commentaires 86770
environnementale 86592
chimiques 86550
esprit 86479
figure 86478
Cet 86335
limites 86220
Inc 86209
consiste 86132
situations 86131
1992 85978
peine 85888
ente 85853
conséquence 85847
histoire 85846
Premières 85785
pertinentes 85783
limite 85766
34 85684
sciences 85618
pl@@ 85558
complète 85486
Toronto 85459
500 85367
Réunion 85359
Environnement 85275
OMPI 85247
approbation 85237
Fédération 85145
étape 85087
enquêtes 85033
recommande 84943
vu 84928
ii 84898
applicables 84871
Accueil 84856
physique 84853
mener 84817
porter 84772
plein 84657
fondamentaux 84643
globale 84427
utilisées 84419
petits 84286
po@@ 84238
généraux 84210
expression 84196
participé 84102
IN@@ 84072
approuvé 84050
prévenir 84036
3.@@ 83897
quatrième 83868
figurant 83868
local 83833
exposition 83809
conclu 83803
Pacte 83691
ique 83662
els 83626
code 83569
permettra 83481
sauf 83274
dépôt 83248
modèles 83177
sexes 83141
semaine 83028
effectuer 83019
particulière 82877
cent 82840
puissent 82806
conception 82738
pied 82658
ères 82631
existence 82547
utilisateurs 82518
main 82482
International 82479
qu 82467
AC@@ 82383
civils 82369
fabrication 82242
Point 82133
Représentant 81998
route 81991
présentée 81965
Saint 81965
écoles 81871
infrastructure 81746
interprétation 81666
tient 81659
37 81596
préoccupations 81374
Dé@@ 81369
5.@@ 81273
conservation 81236
Traité 81202
Conformément 81194
Elles 81139
36 81096
1991 81026
commerciaux 81019
déchets 80951
derniers 80920
Projet 80919
trafic 80712
final 80706
Constitution 80705
fourni 80691
ol@@ 80685
professionnelle 80665
modalités 80604
devait 80590
Montréal 80499
essais 80487
dessous 80466
volonté 80445
fournisseurs 80418
européens 80405
accueil 80339
jouer 80144
accent 80054
événements 80044
presse 80043
concours 80032
st@@ 80008
mo@@ 79859
recevoir 79778
200 79741
traiter 79587
sensibilisation 79563
agricoles 79557
07 79519
adhésion 79413
crime 79336
taille 79320
producteurs 79253
ue 79234
Genève 79092
révision 79068
dossiers 79056
75 79048
espèce 79037
donnée 78963
ot@@ 78946
York 78942
ir@@ 78935
organisé 78885
principale 78782
graves 78777
A. 78713
forte 78604
gouvernance 78603
réalisés 78407
intermédiaire 78312
petit 78302
conférences 78278
exportation 78133
39 78123
crédits 78019
produire 78004
12@@ 78004
parle 77989
ex. 77821
RE@@ 77818
humaine 77777
Section 77741
Commissaire 77698
fournit 77690
alisation 77634
parti 77593
13@@ 77370
cycle 77345
parvenir 77308
rémunération 77291
62 77285
&lt; 77283
Japon 77187
41 77170
m&apos; 77067
direct 77045
échanges 77020
agricole 76935
ul@@ 76852
totale 76842
08 76836
haute 76827
recommandé 76804
tâches 76776
it 76740
et@@ 76730
chefs 76730
animaux 76704
relation 76667
Et 76607
No 76466
ph@@ 76411
ver@@ 76337
idée 76310
em@@ 76298
supplémentaire 76258
conduite 76240
613 76211
formulaire 76202
définir 76178
reconnaissance 76088
ines 76045
argent 76032
menées 75999
pro@@ 75983
FC 75977
63 75929
lieux 75897
tions 75777
voyage 75687
09 75663
spéciales 75576
traitements 75525
recettes 75376
destinés 75257
fournis 75223
tandis 75214
contrats 75167
Sommet 75136
z 75117
ONG 75053
38 75046
1,@@ 75014
susceptibles 75007
alité 74960
w@@ 74881
représentent 74862
fédéraux 74847
Affaires 74803
suffisamment 74787
nucléaire 74784
conclusion 74744
taxe 74693
permanente 74639
conforme 74617
17@@ 74606
violations 74580
contact 74527
démocratie 74509
Avis 74499
54 74443
car@@ 74442
tu@@ 74388
44 74368
ob@@ 74240
procéder 74237
pense 74160
exécutif 74070
pouvant 74017
présentés 73949
contenant 73922
départ 73789
Pays 73768
école 73734
communes 73730
semaines 73718
48 73716
quel 73713
répartition 73645
Forum 73573
logement 73536
tribunaux 73535
textes 73446
4.@@ 73419
passer 73386
atteint 73211
x@@ 73159
pourcentage 73129
violation 73087
transparence 73026
pourra 73009
véhicule 73001
équipement 72959
ins 72899
Plus 72767
institution 72720
augmenté 72702
commerciale 72677
obstacles 72641
ennes 72590
moi 72470
perte 72442
sujets 72400
fort 72395
sexe 72170
genre 72162
considéré 72139
augmenter 72114
ar 72092
Description 72070
dû 72069
obtenu 72031
opinion 72009
réserves 71999
prêts 71996
culturels 71984
campagne 71958
identité 71884
associés 71861
éliminer 71856
accorder 71820
souhaite 71772
Tableau 71766
terre 71731
lumière 71695
sept 71687
structures 71681
auxquels 71675
européennes 71662
consulter 71659
utilisée 71647
LES 71639
évaluations 71566
14@@ 71566
tenant 71551
filles 71518
minorités 71511
retour 71510
Afin 71457
adoptées 71440
met 71437
discussions 71433
dis@@ 71430
res 71371
42 71309
considération 71293
15@@ 71285
plainte 71262
présidence 71222
visées 71092
mode 71064
procès 71016
Numéro 70991
garde 70845
oc@@ 70822
gu@@ 70736
considérée 70728
un@@ 70682
meilleur 70676
simple 70665
collectivité 70612
détention 70597
rien 70429
Trésor 70381
paiements 70296
travers 70291
exception 70284
élèves 70249
affectation 70220
man@@ 70194
premiers 70149
acteurs 70127
circulation 69991
49 69991
cinquante 69975
ci@@ 69932
opération 69902
dés@@ 69884
complet 69853
Con@@ 69763
exige 69748
effectué 69700
sol 69654
visés 69647
Certains 69645
Air 69643
ni@@ 69587
indiquer 69514
devra 69469
quantité 69442
internes 69432
20@@ 69404
ex@@ 69390
commercial 69379
auront 69346
CO@@ 69339
comprennent 69323
exercer 69285
partage 69216
parole 69125
félicite 69071
v 69063
euros 69056
menace 69048
Q@@ 69021
subventions 68997
considère 68971
installation 68909
échéant 68831
délais 68800
collecte 68792
ette 68772
alimentation 68757
vaste 68756
gouvernementaux 68726
budgétaires 68646
prochaine 68631
Mar@@ 68626
vingt 68618
pièces 68614
bois 68556
feu 68526
torture 68481
reconnu 68325
00@@ 68300
associations 68205
appliquent 68175
longue 68169
PNUD 68162
demeure 68125
mon@@ 68115
volume 67993
tri@@ 67970
pression 67915
IS@@ 67887
amendements 67865
minimum 67863
prévus 67841
concernés 67798
Note 67748
Notre 67747
bas 67739
Nouveau 67725
X@@ 67717
6.@@ 67627
parc 67576
puisque 67521
inclure 67520
poids 67488
95 67403
Manitoba 67370
hors 67298
C. 67275
Pacifique 67245
16@@ 67217
active 67216
um 67176
applicable 67146
le@@ 67141
immédiatement 67044
norme 67024
19@@ 66998
patients 66989
Document 66989
télé@@ 66913
tés 66898
Ressources 66886
ures 66877
retraite 66877
unités 66829
actifs 66808
lo@@ 66760
51 66737
auquel 66608
global 66580
répercussions 66524
th@@ 66505
ton 66465
infrastructures 66460
Afghanistan 66394
provinciaux 66361
pouvait 66358
chambres 66349
‑ 66341
publications 66330
association 66296
nomination 66257
potentiel 66246
étudier 66160
Chaque 66146
cadres 66138
siècle 66076
devenir 66059
be 66004
présentées 65999
thème 65997
K 65984
43 65922
pertinents 65907
Co@@ 65893
istes 65883
lutter 65823
éc@@ 65776
souligne 65768
ach@@ 65697
comités 65695
ance 65692
montre 65677
Italie 65667
agir 65638
carte 65635
annuelle 65628
è@@ 65591
achat 65555
électroniques 65543
historique 65535
cou@@ 65530
côté 65487
maximum 65487
observation 65398
interventions 65390
chargée 65335
biais 65325
Même 65313
53 65250
faudrait 65245
discussion 65218
ologie 65188
employeur 65171
intégrée 65150
Aux 65044
interdiction 64909
\ 64899
culturelles 64853
64 64840
tendance 64836
court 64814
séances 64813
contraire 64790
premières 64748
plaintes 64693
description 64658
visite 64657
assez 64641
essentiellement 64619
Total 64589
actif 64459
Stratégie 64435
Compte 64346
Forces 64274
modifié 64270
su@@ 64231
comportement 64132
parfois 64128
motifs 64120
exportations 64105
atteinte 64061
nouvel 64053
dette 64041
art. 64037
IRSC 64032
champ 64012
ille 63974
Société 63892
ec@@ 63891
tirer 63773
approvisionnement 63715
établie 63663
précise 63610
possibles 63609
ouvert 63582
65 63527
cher 63503
gérer 63499
commissaire 63475
organisée 63474
infraction 63394
inscription 63392
différences 63373
composition 63261
brevets 63261
Iraq 63259
préalable 63244
spéciaux 63180
équitable 63158
com@@ 63114
facteur 63111
Saskatchewan 63055
doute 63037
intégrer 62998
empêcher 62962
respectivement 62950
52 62933
47 62932
arrêt 62923
mé@@ 62914
ate 62912
élevés 62877
vision 62870
sanctions 62867
ence 62788
tique 62779
siège 62752
ents 62741
entendu 62737
ex 62700
degré 62657
remboursement 62629
limitée 62589
détail 62551
efficacement 62548
simplement 62488
patrimoine 62456
utilisant 62414
décrit 62341
établis 62310
villes 62302
entretien 62211
dirigeants 62205
garantie 62078
largement 61990
appropriées 61963
chacune 61956
noté 61937
huit 61835
auraient 61817
46 61756
pension 61739
frontières 61731
iste 61697
delà 61695
biennal 61686
voix 61664
use 61623
fourniture 61596
locale 61590
régulièrement 61486
commencé 61444
U 61439
ch 61296
fondé 61283
climatiques 61256
officielle 61243
jusqu 61225
humain 61161
documentation 61156
Mexique 61123
entités 61066
Terre 61062
arabe 61043
proportion 61009
donateurs 60998
alement 60986
ge 60954
mar@@ 60948
signifie 60946
adressée 60938
inspection 60913
raisonnable 60863
ill@@ 60852
Ar@@ 60784
presque 60736
terroristes 60726
br@@ 60708
amendement 60707
pénal 60679
alimentaires 60648
fer 60607
soumettre 60578
onn@@ 60541
Espagne 60481
pouvons 60469
réception 60467
mort 60457
détermination 60441
élaboré 60430
pourront 60352
requis 60338
Bas 60314
rue 60294
signé 60288
informer 60277
titulaire 60248
sûreté 60223
maison 60222
CE@@ 60182
ren@@ 60170
Inde 60116
recrutement 60111
hausse 60059
cré@@ 60050
adjoint 60049
rée 60035
individus 59973
Millénaire 59928
veut 59903
immigration 59874
débats 59847
chose 59828
surface 59816
Lorsqu&apos; 59803
passage 59782
bo@@ 59777
spécifique 59733
ai@@ 59715
ir 59714
régimes 59647
petite 59642
Turquie 59630
obtenus 59408
indépendance 59319
mettant 59316
situé 59296
moitié 59260
forêts 59244
to@@ 59241
nation 59227
estimé 59210
AR@@ 59204
commis 59177
Dépenses 59177
idées 59147
budgétaire 59132
appuie 59128
lancé 59121
préparer 59092
consensus 59065
Premier 59057
gamme 59045
Chambre 59034
contribué 58990
calcul 58973
Première 58970
signature 58969
criminalité 58941
iser 58929
envisager 58907
visée 58906
Administration 58902
Avec 58875
options 58860
figurent 58859
montants 58789
gestionnaires 58784
Son 58783
compréhension 58770
Irlande 58736
ER 58706
aller 58579
98 58574
médicaux 58539
CH@@ 58475
informé 58452
marques 58449
activement 58402
ise 58402
300 58396
concentration 58392
euse 58387
ouest 58365
africaine 58351
acquisition 58339
tâche 58323
déterminé 58297
IV 58290
CI@@ 58279
Toutes 58252
Car@@ 58206
datée 58167
professionnel 58152
due 58088
US 58086
organe 57988
déployés 57955
neuf 57888
can@@ 57885
ajouter 57883
man 57875
admissibles 57864
micro@@ 57863
accrue 57859
minutes 57841
habitat 57822
AN@@ 57799
essentiels 57740
rurales 57723
relevant 57662
infractions 57642
cr@@ 57620
adultes 57485
garanties 57466
chemin 57463
En@@ 57460
crimes 57459
vis 57425
Salle 57409
vues 57399
Parmi 57370
devront 57365
Etat 57363
ra 57333
issue 57258
chômage 57248
libertés 57231
99 57217
profit 57213
identification 57184
remplir 57156
jury 57085
de@@ 57068
cinquième 57047
cl@@ 57044
résoudre 57036
77 57026
représentation 57020
identifier 57003
convenu 56952
payer 56935
étapes 56921
mots 56901
relève 56896
exemples 56890
obligatoire 56879
prolifération 56875
intégrité 56861
cultures 56845
trouvent 56828
présentes 56827
Plusieurs 56794
rées 56775
Force 56745
êtes 56715
détails 56710
Autochtones 56650
entier 56634
pauvres 56612
pertes 56590
baisse 56572
réformes 56537
régler 56522
invite 56482
télévision 56459
Politique 56449
endroit 56426
Développement 56316
culturelle 56297
Initiative 56293
bord 56272
destruction 56261
corruption 56235
désormais 56213
conventions 56205
iques 56189
S. 56152
souligner 56120
précis 56095
officiel 56049
probablement 56046
atif 56040
établies 56017
ves 56003
protocole 55974
économies 55957
entend 55956
ard 55916
réalité 55873
culturel 55872
élection 55858
der 55809
vérifier 55793
ouverte 55768
envers 55743
vient 55724
déc@@ 55702
ter@@ 55701
accomplis 55677
pollution 55669
tendances 55637
connu 55586
Système 55576
grave 55558
Australie 55558
téléphone 55553
armés 55522
noter 55427
ATION 55362
indépendant 55358
end@@ 55355
chiffres 55345
bou@@ 55344
somme 55327
appropriée 55312
Guide 55292
certaine 55286
meilleures 55281
Ex@@ 55267
atelier 55262
handicapées 55246
préoccupation 55218
avantage 55210
J 55209
existants 55202
choses 55187
sexuelle 55134
annoncé 55133
banques 55095
7.@@ 55092
allant 55066
acquis 55052
euses 55036
importations 54972
all@@ 54953
actuelles 54942
différence 54930
no@@ 54915
guide 54903
sub@@ 54894
loin 54888
organiser 54850
table 54821
observer 54801
Gestion 54801
rés 54798
Nombre 54791
relever 54784
atifs 54773
AM@@ 54751
entièrement 54692
commissions 54672
Corée 54640
85 54619
Congo 54618
veuillez 54612
législatives 54578
exposé 54529
imposition 54461
PDF 54451
outil 54413
bénéficier 54410
entrepris 54397
maritime 54380
2,@@ 54371
97 54361
équilibre 54342
transmission 54302
Y 54274
destinées 54244
inscrit 54213
courant 54188
incidences 54176
che 54133
migrants 54076
OMC 54062
administratif 54060
Présidente 54042
transformation 53989
Par@@ 53986
tiendra 53981
Divulgation 53945
supérieure 53944
décès 53937
B. 53915
multi@@ 53912
tent 53895
candidat 53878
poursuite 53863
Examen 53863
communs 53842
offerts 53832
découlant 53789
fondamentales 53772
Kosovo 53752
encontre 53714
bonnes 53628
ma@@ 53607
environnementales 53600
utiles 53548
financer 53526
bases 53500
conclure 53435
c. 53405
entes 53373
AL@@ 53353
instance 53335
Suisse 53327
directeurs 53324
bande 53320
concentrations 53309
os 53262
procédé 53233
opposition 53233
7,@@ 53233
intitulée 53226
touchant 53218
Vancouver 53180
mineurs 53167
accordée 53154
mines 53153
corps 53138
restrictions 53128
PME 53110
Recherche 53109
do@@ 53099
espère 53060
SI@@ 53054
auxquelles 53043
approprié 53006
Ro@@ 53004
diminution 53003
chambre 52985
Avant 52920
ancien 52887
rec@@ 52873
ad 52703
vulnérables 52673
passe 52670
ordonnance 52657
offrent 52655
négociation 52653
présentent 52650
UNICEF 52642
aine 52635
proactive 52632
isation 52591
appelant 52529
comporte 52527
J. 52514
portent 52484
image 52450
fier 52435
Comment 52408
certificat 52400
énoncés 52368
continuent 52254
influence 52237
concernées 52173
participant 52129
tabac 52060
prévoir 52053
humanitaires 52040
John 52031
tourisme 52015
reconnaît 52002
appareils 51986
Commissariat 51976
correspondant 51970
év@@ 51963
navires 51962
naturel 51950
liée 51934
résidence 51906
vol 51905
adaptation 51866
familiale 51865
cellules 51830
Mise 51812
climat 51798
précédent 51780
spécialistes 51755
enregistré 51721
extraordinaire 51706
800 51676
longtemps 51658
importation 51648
particulières 51632
équipes 51611
enfance 51602
double 51601
so@@ 51596
effort 51588
AC 51572
Paris 51569
juges 51563
rapporteur 51557
prêt 51548
collègues 51481
An@@ 51449
ang@@ 51404
pages 51397
ène 51384
gi@@ 51383
Orient 51339
ment 51337
valoir 51328
Industrie 51328
gr@@ 51307
pi@@ 51301
dispositif 51286
client 51243
bénéficiaires 51196
mal 51180
mentionné 51176
perspectives 51168
9,@@ 51139
IM@@ 51139
fut 51111
actuels 51101
résidents 51066
environnementaux 51053
ass@@ 51014
St 51011
ser@@ 51008
jeu 50989
central 50977
our@@ 50974
Écosse 50970
ordinaire 50948
Brunswick 50931
fin@@ 50927
proposée 50921
lis@@ 50916
Dr 50900
engager 50898
96 50890
appels 50862
stocks 50856
ventes 50829
prennent 50824
ative 50804
mettent 50752
conformes 50746
Lors 50745
constituer 50709
meilleurs 50703
accessible 50682
Mo@@ 50665
intéressés 50663
Demande 50660
menée 50649
précédente 50636
états 50587
analyses 50569
explique 50568
effectuées 50547
sessions 50492
effectif 50449
by 50449
� 50439
honorable 50421
populaire 50414
statistique 50364
élevée 50354
âgées 50346
ats 50273
secondaire 50263
Brésil 50261
inscrire 50258
8,@@ 50248
science 50245
détenus 50243
Atlantique 50196
te@@ 50190
ier 50188
conjoint 50187
él@@ 50168
complexe 50131
expériences 50125
chargés 50107
existantes 50099
causes 50087
multiples 50053
perspective 50049
autorisé 50047
prochain 50042
Téléphone 50007
Mesures 50006
palestinien 49998
Di@@ 49980
effectivement 49891
raciale 49861
température 49851
ane 49830
introduction 49813
Étant 49804
étroite 49803
94 49761
atrice 49749
préciser 49745
rez 49744
St@@ 49727
soutenu 49668
énergétique 49666
consolidation 49657
extrêmement 49656
atives 49652
ème 49643
sé@@ 49633
encourage 49632
Veuillez 49604
isme 49602
habitants 49598
mor@@ 49577
partout 49573
considérablement 49551
anciens 49533
proposées 49532
compagnie 49524
porté 49513
CON@@ 49402
E. 49374
requérant 49356
sûr 49350
parlementaire 49336
indiquent 49330
Version 49313
aérien 49312
EN@@ 49298
Non 49277
applications 49273
art 49270
visent 49238
Table 49233
tiques 49230
universités 49216
reconnaître 49190
Suède 49186
ateliers 49146
finances 49143
effectuée 49139
concept 49135
invité 49130
appartenant 49093
fera 49073
1989 49061
copie 49052
destiné 49044
privés 49036
officiels 49032
78 49029
classification 49023
acquitter 48988
Jean 48932
exposés 48930
liaison 48895
milliers 48892
IC@@ 48890
ori@@ 48828
éthique 48823
scolaire 48812
én@@ 48781
remplacement 48754
compétentes 48725
limiter 48716
intégré 48626
formule 48566
traditionnels 48558
ON 48551
mal@@ 48540
continuera 48529
cor@@ 48519
satisfaire 48505
temporaire 48486
abilité 48477
utilise 48466
visé 48450
Rappelant 48405
voies 48341
malgré 48310
sixième 48299
net 48297
dommages 48283
vivant 48269
instamment 48242
devaient 48228
Madame 48192
instruction 48124
privées 48083
dispositifs 48054
accéder 48033
consentement 48005
véritable 47980
eraient 47937
contrôles 47912
américain 47908
noms 47873
directe 47870
200@@ 47859
poly@@ 47840
récente 47839
km 47836
Br@@ 47814
pleine 47799
Décision 47788
septième 47757
réduit 47704
effectués 47691
Toute 47690
CR@@ 47672
exprimé 47666
ellement 47666
accordé 47652
audience 47619
répondants 47618
euro 47605
fil 47599
az@@ 47593
and@@ 47570
constaté 47555
réalisé 47501
Nom 47494
choisir 47486
LI@@ 47465
composé 47452
démarche 47448
remercier 47441
civil 47441
exclusion 47434
remise 47420
congé 47416
travaillent 47396
É 47325
appelle 47289
cartes 47255
menaces 47219
71 47210
géographique 47177
calendrier 47060
bis 47056
Paragraphe 46996
défi 46990
radio 46975
D. 46930
radiodiffusion 46923
accepter 46888
administrative 46886
Pendant 46852
93 46834
industries 46830
1987 46828
invités 46744
tion 46706
masse 46696
époque 46695
plénière 46692
Le@@ 46683
périodes 46653
équité 46651
est@@ 46599
92 46597
Grâce 46595
iii 46583
enseignants 46576
indispensable 46507
um@@ 46507
réaction 46497
danger 46493
distance 46483
Information 46474
Défense 46464
facilement 46415
chances 46386
futures 46364
Liens 46340
IT@@ 46338
considérer 46295
participent 46252
séjour 46225
91 46209
PE 46193
dynamique 46180
train 46178
ON@@ 46176
clair 46164
consacré 46158
# 46154
tor@@ 46144
1988 46140
titres 46097
poissons 46079
TE 46044
val@@ 46028
fs 45989
fixe 45979
bio@@ 45967
.ca 45930
se@@ 45885
courriel 45884
AP@@ 45878
ay@@ 45874
change 45873
prenant 45870
disponibilité 45835
cancer 45789
entendre 45786
prochaines 45760
Budget 45756
quement 45747
one 45730
pu@@ 45710
sport 45701
stade 45701
soixante 45693
mot 45663
drogue 45654
66 45646
inscrits 45599
ologique 45598
exprimer 45569
gé@@ 45567
catastrophes 45534
Moyen 45516
option 45503
Ukraine 45501
thèmes 45497
tées 45492
message 45480
émission 45478
préliminaire 45437
éri@@ 45435
journée 45401
Questions 45400
requises 45391
demandeur 45383
mortalité 45377
office 45366
mondialisation 45344
mouvement 45329
illicite 45279
69 45271
formulées 45253
traduction 45207
72 45206
harmonisation 45168
Justice 45153
sert 45119
étrangère 45119
spécialisées 45092
issant 45086
substance 45068
èrent 45065
programmation 45019
limité 44965
autour 44907
400 44882
rend 44866
lié 44860
76 44855
tête 44823
fédérales 44789
perfectionnement 44767
Yukon 44760
équipements 44730
orientations 44724
Mc@@ 44720
rappelle 44709
habituellement 44698
ain 44695
modifiée 44695
format 44690
fi@@ 44678
moteur 44670
81 44665
assure 44659
der@@ 44635
AS 44634
its 44630
lac 44630
publicité 44621
racisme 44608
Se 44606
octroi 44604
édition 44604
maximale 44547
administrations 44542
approches 44530
évidence 44497
CC@@ 44484
88 44473
provincial 44471
pos@@ 44447
biologique 44438
R. 44420
dimension 44397
3,@@ 44384
ig@@ 44379
Belgique 44359
res@@ 44335
pe 44313
aliser 44311
mené 44289
commercialisation 44283
députés 44257
douanes 44242
appelé 44214
vraiment 44212
judiciaires 44209
établit 44171
informatique 44154
73 44137
TI@@ 44128
déclare 44121
enc@@ 44096
tenus 44077
Caraïbes 44055
tres 44048
professionnelles 44047
institutionnels 44046
monétaire 44039
améliorations 44035
êtres 44033
port 44030
considérés 44027
parler 43998
Renseignements 43996
avancés 43956
prioritaires 43933
devez 43932
française 43910
89 43909
appareil 43901
énoncées 43897
axée 43887
Pro@@ 43883
complexes 43873
j 43865
intéressées 43846
quoi 43834
tée 43825
partis 43814
ententes 43767
eu@@ 43765
échantillons 43765
anc@@ 43752
contribue 43720
.1 43702
numérique 43679
aspect 43641
1985 43637
biologiques 43624
estimations 43613
domicile 43573
erreur 43549
sommet 43520
C.@@ 43519
clé 43490
collective 43487
Prie 43477
vice 43476
commencer 43471
al. 43453
initiale 43437
teneur 43434
honneur 43431
primaire 43414
83 43408
ST@@ 43406
Journal 43400
pêches 43382
min@@ 43367
télécommunications 43332
lu@@ 43328
électricité 43280
industrielle 43277
favorable 43272
quelles 43267
carrière 43248
pétrole 43223
papier 43222
tiens 43210
inférieur 43188
facile 43182
matériaux 43177
entre@@ 43170
réel 43167
quer 43165
vont 43161
Archives 43136
Liste 43135
Évaluation 43131
ire 43125
84 43101
réglementaires 43068
résumé 43061
fl@@ 43060
employeurs 43019
contribuent 42988
essentielle 42980
68 42974
témoins 42961
Chapitre 42923
kg 42917
événement 42916
fournies 42908
PIB 42902
enjeux 42898
Bo@@ 42862
University 42838
entité 42829
aise 42828
abus 42809
RÉ@@ 42800
engagé 42796
82 42794
Neuve 42787
positions 42783
législatif 42759
prévisions 42756
Or. 42755
vitesse 42746
éd@@ 42744
€ 42743
Bosnie 42728
facultatif 42726
fr@@ 42701
am 42662
expliquer 42657
seconde 42649
reçues 42639
frontière 42636
similaires 42618
poisson 42612
préjudice 42600
examine 42581
AUX 42581
mère 42549
américains 42546
tôt 42543
fortement 42542
asile 42531
adapter 42521
effectifs 42516
effective 42495
notification 42491
île 42482
Page 42477
positive 42464
opérationnelles 42457
poser 42441
Siège 42440
administratifs 42436
AD@@ 42436
Norvège 42431
occupation 42368
récentes 42365
élargissement 42364
aérienne 42356
essentielles 42347
cap@@ 42347
armée 42304
médecins 42276
climatique 42266
finale 42245
Com@@ 42242
annuels 42239
pé@@ 42229
mentale 42212
pilote 42211
compétitivité 42201
Iran 42149
huitième 42135
Soudan 42122
faibles 42115
regard 42104
gros 42091
brevet 42082
ampleur 42080
rait 42079
nationalité 42075
Deux 42043
rou@@ 42031
ler 42023
naissance 41990
possède 41973
lecture 41968
million 41952
pièce 41922
Documents 41911
preuves 41909
destination 41901
ER@@ 41891
énoncé 41887
constitué 41884
SC@@ 41874
cour@@ 41856
musique 41832
soutient 41813
flux 41787
échantillon 41776
Cadre 41772
Réseau 41763
montrent 41760
ak@@ 41735
devient 41732
8.@@ 41722
67 41719
supérieurs 41715
couverture 41697
fondées 41692
concrètes 41689
appropriés 41684
dés 41682
puissance 41660
PR@@ 41660
Activités 41657
L. 41654
are 41652
Am@@ 41643
latine 41628
jeunesse 41624
isés 41607
ains 41602
parlementaires 41599
milieux 41588
autochtone 41588
montré 41585
.com 41563
amples 41560
décider 41535
considérable 41533
ss@@ 41524
ratification 41511
défini 41503
EC 41496
vivent 41489
Roumanie 41469
ministérielle 41449
lettres 41445
Transports 41432
rédaction 41430
annonce 41398
régissant 41373
qués 41371
dée 41362
Courriel 41361
déterminée 41352
désigné 41334
Cuba 41327
conserver 41325
location 41298
fournissent 41262
taxes 41225
licences 41192
Grande 41169
exemplaires 41165
6,@@ 41142
accepté 41122
Autriche 41121
physiques 41117
voyages 41115
préserver 41113
observateurs 41078
neuvième 41069
quée 41048
Certaines 41044
remplacer 41031
fixé 41030
combattre 40993
Vice 40973
puisqu&apos; 40955
objets 40955
répondu 40949
da 40948
retard 40927
rivière 40905
inclus 40866
emplacement 40858
visiteurs 40851
www.un.org 40848
Sh@@ 40831
rural 40826
suprême 40820
arrivée 40799
développés 40797
conçu 40786
allégations 40775
Rapports 40764
ess@@ 40758
précisément 40752
dou@@ 40748
donnent 40741
registre 40699
tera 40684
bal@@ 40674
indépendants 40672
éventail 40658
interdit 40646
motif 40646
ates 40643
images 40614
apportées 40603
AG@@ 40587
TR@@ 40584
fichier 40554
chaîne 40551
indiquant 40527
joue 40525
Canadiennes 40493
Pré@@ 40474
initial 40469
issent 40463
déploiement 40443
génér@@ 40437
ari@@ 40429
Voici 40416
Q 40415
autonomie 40408
fournisseur 40398
productivité 40398
capitaux 40377
laboratoire 40365
Pologne 40358
exploiter 40345
TPS 40332
mg 40329
Qu@@ 40313
tre 40292
dues 40291
faudra 40284
Parcs 40259
Vienne 40249
complémentaires 40237
AT@@ 40202
requête 40187
résultant 40187
religion 40164
salaire 40128
carbone 40124
conjointement 40108
pose 40096
volontaires 40095
livraison 40095
du@@ 40089
accroissement 40086
¨ 40085
des@@ 40071
tonnes 40056
ethnique 40050
défaut 40049
constate 40049
cro@@ 40033
traditionnelles 40029
servent 40014
conscience 39981
mi@@ 39976
mesurer 39957
verser 39920
ologiques 39900
correspond 39892
utilisent 39888
reprise 39854
sc@@ 39835
provenance 39823
rapportant 39809
86 39785
SE 39769
CNRC 39755
livre 39739
accessibles 39709
Que 39680
placement 39677
charges 39672
tour 39652
Lettre 39647
formuler 39629
sup@@ 39620
officieuses 39607
uses 39598
détaillée 39589
offres 39577
former 39568
technologique 39555
disposer 39502
avocat 39499
travaille 39489
sections 39476
coordonner 39446
ettes 39440
mm 39427
résident 39425
gar@@ 39423
gén@@ 39407
médecine 39390
offert 39388
74 39381
GRC 39378
Canadian 39377
ell@@ 39367
américaine 39365
soldats 39328
personnelles 39321
ences 39314
examens 39312
ances 39304
dus 39283
présents 39279
exigence 39270
National 39263
ies 39256
futurs 39250
expansion 39212
armées 39188
appliquées 39169
pouvaient 39163
révisé 39143
instructions 39122
dangereuses 39117
tifs 39086
W 39082
conseiller 39081
notes 39073
prescriptions 38999
bl@@ 38995
Finlande 38988
Malgré 38987
rappeler 38975
néanmoins 38958
définis 38954
présentant 38943
gouvernementale 38934
contrôler 38917
AT 38914
mérite 38894
250 38874
reçus 38874
enfin 38860
ions 38850
OCDE 38827
bu@@ 38811
ati@@ 38807
affirme 38806
Site 38796
buts 38789
adolescents 38781
crois 38777
Du 38741
jou@@ 38730
Ad@@ 38721
Gu@@ 38712
visites 38707
critique 38681
réussite 38659
modes 38656
industriels 38652
nommé 38649
discuter 38630
ant@@ 38606
PC 38585
radi@@ 38578
Patrimoine 38569
fournie 38567
trente 38562
OR@@ 38558
dépend 38556
pr@@ 38553
indemnité 38542
vis@@ 38540
continué 38538
impossible 38488
électorale 38485
performance 38425
79 38402
acc@@ 38382
Pakistan 38365
étroitement 38348
duquel 38344
autorisée 38342
islamique 38311
totalité 38254
écart 38231
constitution 38227
intervenir 38208
Herzégovine 38208
résistance 38202
Health 38186
TRANS 38183
associé 38177
virus 38172
réalisations 38160
durables 38116
expertise 38111
proche 38088
industriel 38076
Aucune 38071
4,@@ 38069
seuls 38052
tur@@ 38048
hé@@ 38038
23@@ 38034
Fondation 38013
sions 38008
passagers 38005
lacunes 38004
ront 38003
aides 37996
cher@@ 37971
d. 37970
navigation 37960
versement 37957
29@@ 37937
pensions 37932
joué 37926
division 37926
proposer 37889
ches 37872
phénomène 37861
souhaitent 37849
EUR 37844
aéronefs 37840
entrer 37798
retrait 37791
solidarité 37779
indépendante 37770
juridiction 37769
ethniques 37765
CNUCED 37741
leadership 37710
réglementaire 37695
reconstruction 37692
moyennes 37668
handicapés 37664
titulaires 37649
ressort 37641
expert 37614
Bar@@ 37584
jugement 37584
permettrait 37567
proposés 37559
AP 37556
soi 37547
tchèque 37541
co 37532
disposent 37496
jugé 37486
tenues 37484
me@@ 37478
distinction 37474
cal@@ 37472
comparaison 37468
AR 37468
cliniques 37453
admissible 37450
Commerce 37450
ju@@ 37431
ajouté 37430
proximité 37376
banque 37352
entreprendre 37345
SP@@ 37315
Bruxelles 37314
aff@@ 37307
ouvrir 37306
libération 37304
engagés 37293
âgés 37275
enregistrés 37268
attendre 37264
concernent 37243
historiques 37240
opérationnel 37226
fonctionnaire 37207
rencontre 37197
Aide 37179
212 37173
différends 37112
semblent 37105
incombe 37097
oiseaux 37082
ley 37076
go@@ 37016
tests 37011
isé 37006
â@@ 36990
avance 36984
ase 36978
Sch@@ 36971
volet 36969
achats 36948
décret 36944
vidéo 36941
issus 36940
livres 36936
87 36930
listes 36915
Or 36913
att@@ 36912
Statistique 36912
contacts 36909
cu@@ 36905
arabes 36891
P. 36852
solide 36839
étendue 36838
qualités 36818
manifestations 36812
.gc.ca 36810
choisi 36783
dûment 36781
AL 36733
SUR 36710
permettront 36687
Nos 36684
Deuxième 36680
peines 36678
id@@ 36661
cœur 36625
De@@ 36615
rang 36610
poursuites 36606
commande 36596
acquérir 36594
ka 36579
questionnaire 36570
EX@@ 36570
ten@@ 36567
lancement 36566
moderne 36554
externes 36531
intérimaire 36503
For@@ 36480
Al 36475
secours 36465
capitale 36461
GR@@ 36433
reproduction 36406
publiés 36404
mauvais 36402
mention 36402
600 36399
PCT 36388
penser 36362
périodique 36359
notion 36353
PRO@@ 36346
Add.1 36334
fié 36333
Sa 36327
surveiller 36324
mouvements 36277
existant 36276
cohérence 36276
VI 36247
rester 36225
Adoption 36222
Équipe 36220
expressément 36199
alisé 36192
réparation 36184
signalé 36154
Chef 36147
considérées 36136
Portugal 36135
ana 36129
1.1 36119
Z 36109
fallait 36099
Ltd 36095
transactions 36075
iss@@ 36068
Ceci 36067
constater 36039
dehors 36037
ve@@ 36032
reçoivent 36004
secrétaire 35999
erie 35990
naturels 35981
occuper 35947
comprenant 35917
second 35900
potentiels 35899
ta 35891
bénéficiaire 35887
Recommandation 35885
précises 35883
plantes 35881
fréquence 35865
déplacement 35811
ing 35804
Mon@@ 35799
quels 35792
îles 35782
messages 35774
Communications 35771
DP 35762
engage 35745
servant 35705
recueillir 35694
ordinateur 35679
Résultats 35673
soumises 35670
aborder 35668
ais@@ 35661
ne@@ 35653
africains 35642
analyser 35633
paramètres 35626
saisi 35605
restent 35591
propriétaire 35583
vivre 35579
logiciel 35579
tif 35543
scolaires 35543
ist@@ 35539
situés 35529
compétents 35515
spécialisés 35507
médecin 35502
Tr@@ 35498
positif 35495
Grèce 35493
utilisateur 35489
ve 35488
apporté 35478
arts 35463
24@@ 35455
som@@ 35443
fichiers 35427
rôles 35423
devoir 35414
obstacle 35412
dr@@ 35407
Danemark 35406
réelle 35402
aménagement 35400
saisie 35365
composante 35357
Per@@ 35341
Liban 35332
attentes 35331
accidents 35319
devenu 35286
ES@@ 35273
repose 35240
150 35227
Prince 35211
positifs 35206
voisins 35203
Man@@ 35195
existent 35189
qué 35160
TPSGC 35156
ah@@ 35155
Pl@@ 35143
provinciales 35124
rétablissement 35095
nuit 35073
prié 35055
fondamental 35047
fer@@ 35037
Ap@@ 35033
reçoit 35015
occupé 35008
Région 34990
conduit 34981
envoyer 34977
CANADA 34965
arrangements 34954
subvention 34951
transferts 34941
isée 34941
accorde 34917
.. 34888
déplacées 34882
cer@@ 34858
vols 34835
conseillers 34830
itaires 34813
Labrador 34807
bâtiment 34800
quantités 34800
dangereux 34779
illes 34777
répond 34759
transmettre 34752
Source 34751
ing@@ 34741
AI@@ 34741
changer 34740
artistes 34734
AU 34733
excellence 34727
5,@@ 34719
auto@@ 34711
TIC 34692
refus 34680
ner 34672
agences 34666
sait 34657
endroits 34653
Proposition 34648
susceptible 34643
CN 34636
médical 34630
1986 34617
ager 34611
codes 34604
25@@ 34604
vent 34602
bar@@ 34594
organisées 34588
Inter@@ 34586
critère 34568
indemnisation 34567
Croatie 34552
conc@@ 34549
servi 34530
RE 34505
Th@@ 34494
assumer 34489
composantes 34487
appliquée 34469
A.@@ 34454
associée 34444
mobilité 34416
compagnies 34410
technologiques 34408
réussi 34407
vol. 34392
.org 34390
clientèle 34378
normalement 34376
mi 34361
erons 34333
AS@@ 34303
vo@@ 34280
voyageurs 34273
confirmé 34258
attente 34254
district 34225
ru@@ 34216
coopérer 34206
mondiaux 34196
Can@@ 34193
la@@ 34186
renseignement 34181
offrant 34180
inférieure 34176
administrateurs 34165
définies 34150
1980 34137
incluant 34127
PO@@ 34118
approfondie 34116
ép@@ 34114
acier 34099
ber@@ 34096
attend 34081
Chypre 34059
universitaires 34056
Outre 34044
communiqué 34032
victime 34026
formulation 33996
ST 33942
POUR 33932
cohésion 33930
touchés 33929
bons 33922
passant 33922
Protection 33911
mariage 33908
Justification 33883
26@@ 33850
campagnes 33847
sols 33821
intéressant 33794
nécessairement 33785
demandeurs 33727
ég@@ 33700
Finances 33700
remercie 33699
suivent 33698
renouvellement 33692
inc@@ 33691
intégrés 33680
salaires 33679
revue 33670
profiter 33668
fo@@ 33647
Publications 33628
œuvres 33619
Néanmoins 33618
brut 33614
continu 33611
3.1 33610
Im@@ 33579
stockage 33573
décide 33564
mètres 33562
ia 33558
OMS 33557
secondaires 33514
vol@@ 33494
hiver 33494
Droits 33480
routes 33476
int@@ 33469
Sécurité 33463
exclusivement 33462
désignés 33462
fruits 33461
mémoire 33456
FI@@ 33440
rendus 33438
futur 33424
pres@@ 33404
Résolution 33392
consacrée 33381
occasions 33379
claire 33378
cont@@ 33377
systématique 33369
fu@@ 33362
fiscale 33357
permanents 33344
écrite 33328
personnelle 33327
2.1 33327
ressource 33322
HCR 33304
prestataire 33302
infection 33301
diminué 33293
vez 33282
Cor@@ 33274
Bulgarie 33256
autrement 33254
imposer 33252
rappelé 33250
web 33241
expiration 33228
opérationnelle 33198
élevées 33181
stable 33177
entremise 33176
sal@@ 33174
trouvé 33168
ajoutée 33159
ladite 33139
test 33130
DI@@ 33113
PE@@ 33110
attirer 33106
04@@ 33098
automne 33095
échelon 33094
couvrir 33076
reprises 33068
Timor 33067
Serbie 33056
Résumé 33043
réelles 33029
rent 33027
rap@@ 33011
QUE 33007
appliqué 33006
anniversaire 33006
considérables 32923
30@@ 32923
ff@@ 32922
tendant 32919
solides 32917
9.@@ 32908
bénéficient 32907
scène 32896
observé 32889
tin@@ 32874
Autorité 32873
préoccupé 32869
tissus 32846
hydro@@ 32842
ferme 32830
réalisées 32811
légères 32791
scrutin 32768
Sans 32767
Jeux 32765
40@@ 32762
indications 32746
Guinée 32732
semblables 32731
située 32730
Pêches 32728
for@@ 32724
Alors 32716
cotisations 32714
payé 32705
externe 32705
aéroport 32703
dépit 32701
Inc. 32701
adoptés 32700
majeure 32680
difficulté 32674
requise 32664
Statut 32663
rendue 32651
navire 32650
logiciels 32639
quarante 32636
transporteur 32633
rechange 32633
compétente 32616
ré 32616
associées 32615
50@@ 32611
accélérer 32597
sondage 32590
with 32582
égale 32579
Li@@ 32563
bâtiments 32555
opinions 32551
universelle 32549
exécuter 32523
PC@@ 32512
faisait 32508
hi@@ 32499
prenantes 32496
instances 32490
critiques 32480
ê@@ 32476
budgets 32457
entière 32454
alcool 32446
Indonésie 32432
remédier 32425
tive 32424
ra@@ 32424
Ab@@ 32407
Égypte 32401
donnant 32387
définit 32374
OSCE 32374
appar@@ 32367
humanité 32301
provinciale 32286
ira 32281
onne 32276
admissibilité 32251
préparatoire 32248
impose 32242
dotation 32227
COM 32218
pointe 32217
examinées 32198
enti@@ 32194
touche 32183
El@@ 32181
opérationnels 32175
avions 32171
lire 32164
form@@ 32145
occupe 32137
EC@@ 32132
Agriculture 32128
sh@@ 32127
ep@@ 32119
couleur 32099
constante 32079
homologation 32077
concert 32048
élargir 32045
sensibiliser 32035
pe@@ 32013
bourses 32005
Hongrie 31982
Océans 31980
autorisés 31962
cible 31946
affirmé 31944
foi 31933
agriculteurs 31924
Vi@@ 31905
not@@ 31896
Sierra 31832
clinique 31830
indication 31817
yl@@ 31811
propriétaires 31807
ur 31780
partenaire 31778
totalement 31773
relevé 31760
tiennent 31750
démontré 31748
uns 31737
Lisbonne 31706
demeurent 31686
Musée 31678
gains 31672
éro@@ 31671
quelconque 31667
extérieure 31666
BC 31654
chiffre 31646
arrêté 31607
émis 31595
difficiles 31576
partiel 31552
adéquate 31552
AD 31547
classes 31540
certification 31533
attribution 31516
Or@@ 31496
veulent 31493
Argentine 31479
reconnus 31478
partager 31476
EM@@ 31467
Hotel 31464
vrai 31463
· 31458
nes 31450
allocation 31421
Ma@@ 31413
Ac@@ 31407
SE@@ 31402
lancer 31395
Yougoslavie 31395
voire 31384
classement 31377
impression 31361
déposée 31354
gestionnaire 31351
apprendre 31334
adresser 31322
audit 31304
linguistique 31302
TION 31291
ina 31289
heureux 31281
do 31273
précédemment 31268
IS 31266
transit 31258
Aujourd&apos; 31254
extérieures 31249
détaillées 31247
recouvrement 31239
EMENT 31230
désignation 31209
plaignant 31208
Entre 31205
ACDI 31202
nette 31193
28@@ 31185
répression 31183
suffisant 31179
mandats 31177
MPO 31164
AM 31151
participe 31149
blanc 31141
AN 31127
tienne 31123
rement 31105
joint 31096
27@@ 31092
logique 31071
estimation 31064
solde 31064
3.2 31063
progresser 31043
avancement 31034
façons 31023
ke 31022
définitive 31018
ablement 31017
TVH 31017
entraîner 31016
fixés 31000
fabricant 30981
isant 30979
primaires 30975
AIRE 30965
volontaire 30961
réflexion 30959
auparavant 30959
ban@@ 30958
TO@@ 30941
hauteur 30920
Procureur 30914
ins@@ 30910
voulons 30900
Congrès 30886
tableaux 30869
af@@ 30861
suffisante 30838
Cabinet 30825
Chili 30816
ronde 30816
responsabilisation 30812
agence 30808
logements 30800
Suite 30797
IE 30797
financés 30785
pressions 30774
côte 30755
viennent 30752
tarifaire 30739
jouent 30730
diffuser 30726
accru 30709
conformer 30708
précédentes 30705
ds 30696
Aucun 30691
Po@@ 30684
vendredi 30683
versées 30683
dignité 30665
électrique 30663
from 30648
signe 30647
concerné 30640
pan@@ 30639
VI@@ 30636
ven@@ 30636
compromis 30632
IP@@ 30624
britannique 30615
transmis 30601
OTAN 30598
génération 30594
discours 30593
linguistiques 30593
marge 30592
CN@@ 30588
significative 30573
tarifs 30552
réalisée 30551
my@@ 30547
Corporation 30539
sion 30529
ore 30526
bassin 30525
changé 30519
correctement 30518
municipalités 30512
aperçu 30503
ATIONS 30496
issement 30488
David 30488
versé 30465
pri@@ 30461
subi 30451
fr 30434
DE@@ 30424
sanitaires 30405
2.2 30400
territoriaux 30399
seuil 30392
avocats 30372
printemps 30368
probable 30359
SCT 30358
migrations 30356
collaborer 30346
survie 30339
Zélande 30337
né 30334
marins 30328
laisser 30319
Introduction 30307
acceptation 30304
ho@@ 30302
trimestre 30296
ade 30294
lundi 30280
espoir 30267
synthèse 30264
investisseurs 30262
écosystèmes 30256
composés 30254
matériels 30251
ANT 30241
aériens 30228
courrier 30227
Winnipeg 30223
Géorgie 30215
tro@@ 30204
TC 30178
rem@@ 30173
espagnol 30158
supprimer 30135
PS 30132
cote 30126
profil 30108
out 30106
orateurs 30102
spatiales 30095
traitées 30089
appelante 30088
modernisation 30079
travaillé 30072
commence 30051
anglaise 30041
égal 30031
future 30026
QU@@ 30003
révélé 30000
immigrants 29996
station 29988
venant 29987
longueur 29976
exiger 29973
ours 29973
Se@@ 29971
PN@@ 29965
ib@@ 29961
Tél 29947
destinée 29940
dommage 29937
sp@@ 29937
croire 29931
700 29930
fiées 29924
fiables 29916
Maroc 29915
alisme 29910
1.2 29897
Financement 29847
Bretagne 29844
pilotes 29844
120 29843
fiés 29840
bes 29840
alinéas 29835
saison 29831
aéro@@ 29828
détection 29826
spécialement 29814
autoriser 29813
onnés 29813
fication 29808
posé 29804
ancienne 29794
4.1 29793
acceptable 29788
bilan 29779
né@@ 29777
963 29777
ière 29770
mentionnés 29767
moindre 29723
Cl@@ 29717
ti 29707
administrateur 29704
universitaire 29704
rubrique 29701
Quand 29672
post@@ 29656
utilité 29646
Commentaires 29631
terminé 29606
Leone 29606
Adresse 29600
remis 29584
civiles 29580
Nunavut 29574
men@@ 29565
erreurs 29564
CD 29558
conjointe 29555
ressortissants 29537
alisée 29514
définitions 29500
R.@@ 29498
intergouvernementales 29496
bénéfices 29481
fils 29475
antérieure 29459
os@@ 29454
chimique 29451
ément 29442
russe 29431
soumise 29430
tis@@ 29410
génétiques 29395
créés 29375
Su@@ 29371
obtention 29363
LE@@ 29356
Action 29342
sang 29332
fixer 29330
yeux 29318
intérieure 29299
fabricants 29271
ménages 29267
instaurer 29264
fondamentale 29256
Ministres 29245
contraintes 29236
métaux 29229
compléter 29224
révisée 29216
antérieures 29203
divulgation 29197
cli@@ 29190
médicale 29188
jeune 29173
Ver@@ 29169
Research 29166
DÉ@@ 29154
formé 29147
réellement 29142
périodiques 29141
polluants 29137
logistique 29133
loc@@ 29132
amis 29130
génétique 29123
cibles 29122
ﬁ@@ 29092
English 29086
Gr@@ 29082
mat@@ 29077
équivalent 29068
communiqués 29064
approuvés 29062
satisfait 29060
film 29058
décideurs 29054
adi@@ 29038
modifiant 29034
engagées 29029
aines 29028
Programmes 29016
favorables 29000
SP 28995
croissante 28993
potable 28993
examinés 28981
démocratiques 28957
ministériel 28951
remettre 28930
étendre 28928
s.@@ 28927
per 28891
augmente 28881
lement 28849
MO@@ 28845
satellite 28819
variables 28801
ues 28792
comportements 28785
ed@@ 28782
législative 28780
mis@@ 28780
individuels 28779
via 28764
créée 28758
port@@ 28747
contre@@ 28731
Bi@@ 28717
séminaires 28715
BCE 28713
déf@@ 28704
viol@@ 28699
parcs 28698
assurant 28693
suspension 28687
montrer 28679
be@@ 28673
implique 28670
PA 28665
Télécopieur 28663
migration 28662
G. 28648
raisonnables 28630
exercices 28627
attaquer 28618
DC 28609
Sommaire 28589
limitées 28588
IC 28587
Directive 28581
JO 28567
Quant 28552
levée 28547
Au@@ 28542
imposées 28540
arriver 28540
dose 28517
expliqué 28516
souveraineté 28515
Coopération 28508
maritimes 28492
quent 28487
assuré 28485
ment@@ 28474
Ambassadeur 28467
carburant 28466
trouvera 28463
isées 28443
Indiens 28432
préparé 28430
optique 28418
violences 28418
directs 28409
lin 28409
cop@@ 28404
produisent 28400
compar@@ 28378
recensement 28371
iter 28369
relèvent 28365
Limited 28350
nés 28348
troubles 28344
urbain 28324
crises 28324
retenue 28317
attaques 28308
délivrance 28306
éré 28293
tarif 28288
atteints 28287
lucratif 28276
stations 28262
cul@@ 28249
di 28241
évident 28237
Me@@ 28233
ich@@ 28203
Luxembourg 28202
Grand 28196
voté 28188
université 28176
éventuellement 28162
connaît 28150
considérations 28135
prioritaire 28128
aqu@@ 28127
officiellement 28110
tives 28103
fiducie 28101
col@@ 28095
arrière 28086
Communication 28059
forum 28054
renvoi 28053
démontrer 28042
apport 28033
sérieux 28031
tez 28029
pertinence 28022
UN@@ 28012
dic@@ 28011
Côte 28007
acheter 28006
ris@@ 28005
orientale 28004
envoyé 28004
avion 28000
TI 27992
Durant 27991
annuelles 27990
intégrante 27989
mou@@ 27980
Lake 27976
Be@@ 27972
So@@ 27969
IT 27964
protocoles 27957
axé 27943
différente 27935
serre 27918
établissant 27914
invitation 27905
atmosphère 27903
CRTC 27899
contiennent 27896
entrepreneurs 27889
complètement 27887
mixte 27886
tic@@ 27879
continent 27873
défendre 27868
colonne 27857
sièges 27853
viabilité 27844
Palestine 27840
consommateur 27824
publiée 27820
mobilisation 27819
précision 27815
ber 27793
EE 27790
bateaux 27789
AF@@ 27781
détaillé 27779
poursuit 27776
Lo@@ 27768
délinquants 27752
fondement 27747
trouverez 27747
signaler 27721
Cinquième 27708
affectés 27700
ajoute 27698
ici@@ 27692
aises 27688
acide 27662
assainissement 27660
ouverts 27648
recourir 27648
maîtrise 27632
déposer 27624
finales 27618
onner 27605
quartier 27600
ain@@ 27596
accompli 27594
I. 27594
don 27588
Décide 27588
Pr@@ 27586
33@@ 27584
jurisprudence 27583
Sou@@ 27578
lou@@ 27551
blessures 27551
mondiales 27550
super@@ 27549
inventaire 27544
travaillant 27540
feuilles 27537
ens@@ 27536
territoriale 27490
couvre 27487
saisir 27486
évalué 27463
gl@@ 27448
lit 27428
convaincu 27415
espérons 27384
atoire 27375
conduire 27372
justifier 27369
entraîne 27363
constitu@@ 27361
comptabilité 27358
K1A 27352
garder 27339
remplacé 27336
propriétés 27336
unies 27322
savoirs 27313
maisons 27308
remarquer 27307
écologique 27302
Ne 27286
SC 27262
reflète 27254
centrales 27252
décrites 27217
Consultations 27204
comp@@ 27203
ev@@ 27181
accomplir 27178
Durée 27175
illicites 27166
financé 27155
fournissant 27155
régulière 27154
unième 27140
dates 27117
conclut 27117
possession 27114
pertinente 27113
prie 27105
candidature 27097
récents 27094
ports 27088
village 27076
MDN 27057
bout 27023
construire 27020
renouvelables 27008
fiscales 26989
numéros 26989
MC 26983
répondent 26971
mentionnées 26970
sortie 26954
combler 26950
marche 26949
déplacements 26947
ule 26941
ge@@ 26939
fiscal 26930
normale 26922
ferroviaire 26920
clôture 26915
ind@@ 26913
rel@@ 26894
respectifs 26889
dépistage 26884
CN.4 26874
indice 26865
dez 26863
Alliance 26849
bilatéraux 26809
Année 26807
définie 26805
dimensions 26788
exigent 26770
gauche 26759
suivie 26758
Rome 26751
Calgary 26734
ski 26733
posent 26727
pacifique 26723
US@@ 26718
milliard 26717
ay 26715
uniforme 26711
arbitrage 26695
voulu 26694
ac 26693
dépôts 26690
éventuels 26688
Oui 26683
capable 26682
out@@ 26676
hauts 26671
inclusion 26667
onné 26667
coup 26664
occupent 26625
combinaison 26616
bulletin 26613
tables 26604
examinée 26603
suppression 26600
Slovénie 26582
El 26575
vieillissement 26568
chercher 26561
PD@@ 26557
particules 26555
arg@@ 26552
combattants 26542
lé@@ 26521
CM@@ 26518
fournitures 26516
intéressé 26494
répondant 26489
réconciliation 26487
® 26478
pour@@ 26477
ECE 26473
bro@@ 26457
autonome 26456
sentiment 26452
Rwanda 26451
déb@@ 26436
graphique 26420
Paul 26415
croissant 26413
adopte 26407
Autre 26406
w 26403
comportant 26401
géographiques 26399
entraîné 26389
SM@@ 26387
ann@@ 26386
faune 26380
Dès 26377
prati@@ 26377
inclut 26373
Application 26369
hôpitaux 26364
Robert 26358
ALE 26352
chargées 26339
individu 26335
appuyé 26330
ste 26324
SA 26324
incidents 26317
Troisième 26305
atténuer 26298
fie 26289
ble 26288
citoyenneté 26278
élu 26275
exploration 26274
support 26272
indiquées 26265
débit 26263
quées 26260
ordinaires 26250
suffisantes 26236
dons 26230
ger 26214
tolérance 26214
signes 26206
revanche 26205
Membre 26198
prévoient 26196
pay@@ 26192
interaction 26186
dépendance 26184
séminaire 26179
conçus 26173
organiques 26157
certainement 26153
index 26153
fiée 26151
atmosphérique 26151
déficience 26150
seurs 26148
iv 26148
03@@ 26145
contingents 26135
royale 26129
portées 26127
plaisir 26122
TS 26115
emballage 26107
2011 26102
fon@@ 26100
approuver 26099
admission 26081
péril 26070
exerce 26067
validité 26063
appartient 26058
CRDI 26041
vérifications 26033
manuel 26017
territoriales 26012
bienfaisance 26002
qualifiés 25992
seur 25990
descriptif 25988
Somalie 25978
agissait 25968
procédés 25967
q@@ 25944
rÃ 25923
sexuels 25921
10.@@ 25905
effectue 25901
autonomes 25882
apporte 25878
Prix 25872
Koweït 25868
utilisations 25865
aw@@ 25849
présidente 25837
complexité 25836
MAR@@ 25832
Val@@ 25830
SO@@ 25828
publiées 25813
2e 25810
Mal@@ 25795
intégrées 25783
our 25782
veille 25781
FNUAP 25771
jeux 25768
ion 25751
massive 25730
Journée 25719
blanchiment 25710
commissaires 25708
modernes 25695
organisés 25687
voit 25677
bénévoles 25669
suggestions 25661
AV@@ 25660
parcours 25657
réduite 25654
catastrophe 25650
Droit 25634
dégradation 25631
bandes 25631
représenter 25623
midi 25618
désigne 25615
directrice 25615
impôts 25600
dépasse 25593
UR@@ 25589
Jo@@ 25582
ets 25564
soin 25556
exemplaire 25551
Régime 25551
arrive 25549
file 25544
comptables 25543
ozone 25541
actives 25537
apparaît 25523
11@@ 25519
IR@@ 25516
retirer 25499
intérim 25475
étudié 25473
sensible 25462
cam@@ 25462
plan@@ 25435
fasse 25430
générations 25417
matin 25406
chinois 25402
fil@@ 25402
pen@@ 25400
annexes 25392
appréciation 25386
naturelle 25385
majeur 25371
prof@@ 25366
présentations 25366
comparativement 25365
Ber@@ 25362
positives 25361
électeurs 25352
rythme 25345
Ses 25343
nourriture 25339
ko 25337
alisés 25332
précisé 25331
Grands 25330
RO@@ 25330
semblable 25325
Halifax 25325
sensibles 25320
maternelle 25310
AU@@ 25306
No@@ 25299
tirés 25296
tures 25292
Tel 25286
Du@@ 25282
combat 25280
contenus 25277
universel 25273
1982 25271
Territoires 25265
industrielles 25255
Azerbaïdjan 25245
10,@@ 25237
déclarer 25230
automobile 25223
™ 25207
ame 25199
consacrés 25191
UNESCO 25191
dées 25186
religieuses 25178
atteintes 25173
supérieures 25171
Votre 25165
signer 25157
Nouvelles 25156
attitude 25152
ARC 25136
patient 25128
élus 25127
cm 25124
Secteur 25124
voter 25121
38@@ 25118
domin@@ 25117
Retour 25113
médicament 25108
sensiblement 25102
ASFC 25102
adressées 25098
ah 25096
introduire 25087
Sal@@ 25068
aidé 25064
pal@@ 25061
anti 25059
RI@@ 25056
demi 25050
jo@@ 25043
FP 25043
libéralisation 25042
éventuelle 25034
ed 25021
4.2 25021
confirmer 25018
35@@ 25014
références 25013
champs 25011
spécifiquement 25009
diagnostic 25009
présidents 24998
Objectifs 24997
uni@@ 24988
familiales 24987
munitions 24983
atlantique 24977
por@@ 24972
esse 24968
ak 24968
dési@@ 24961
revendications 24945
CA 24942
Institute 24935
ordinateurs 24934
monnaie 24917
CP 24917
religieux 24907
phrase 24904
Philippines 24904
américaines 24900
PNUE 24899
investir 24898
emb@@ 24894
Valeur 24894
avancer 24869
réinsertion 24869
ker 24866
fusion 24856
déficit 24851
CO2 24849
ani@@ 24844
Lignes 24835
formulaires 24830
og@@ 24825
hôte 24808
angle 24803
ot 24794
çant 24776
féliciter 24771
réactions 24757
alités 24755
atténuation 24755
supervision 24751
oui 24744
AB@@ 24736
har@@ 24733
excellent 24725
opportun 24724
totales 24721
vouloir 24720
prison 24710
seules 24707
terrestres 24670
salles 24666
emprisonnement 24652
ché 24639
uc@@ 24634
Ma 24627
Kenya 24613
centr@@ 24607
Type 24603
2,5 24600
Enquête 24592
extension 24583
Cas@@ 24575
UN 24575
tra@@ 24574
toxiques 24574
restructuration 24570
conf@@ 24550
accessibilité 24549
officiers 24538
ographie 24537
indiqués 24535
peux 24523
réclamations 24504
NO@@ 24500
offices 24489
père 24481
Pe@@ 24480
arguments 24472
libres 24471
Titre 24468
commandes 24463
admis 24449
Qu&apos; 24435
Lu@@ 24433
Development 24431
courte 24425
1984 24420
mène 24413
témoin 24411
multilatéraux 24407
nu@@ 24405
lier 24391
approuvée 24389
spéci@@ 24387
dotés 24380
88@@ 24363
traduit 24358
Lituanie 24355
blé 24350
protégés 24348
î@@ 24337
usine 24335
étiquetage 24327
concevoir 24316
2.3 24316
indiennes 24316
surmonter 24311
simples 24306
basée 24306
Algérie 24299
rejeté 24298
Mac@@ 24291
c.-à 24285
devenue 24281
accueillir 24278
á@@ 24278
Télé@@ 24271
enseignements 24262
pes 24260
Bay 24259
± 24254
correspondent 24230
automatiquement 24227
Add.@@ 24226
Haïti 24220
droite 24199
12.@@ 24191
cour 24186
Travaux 24172
complémentaire 24169
machines 24158
légèrement 24153
DG@@ 24145
Revenu 24142
dumping 24124
ération 24124
Deuxièmement 24113
Edmonton 24109
appuyant 24092
ser 24090
précisions 24090
annulation 24084
voy@@ 24066
Trois 24060
Bibliothèque 24035
char@@ 24033
pénales 24029
Company 24018
Ag@@ 24016
précédents 24015
fonctionne 24009
registres 24007
profondeur 24002
Conseiller 23997
Bu@@ 23996
moteurs 23994
Darfour 23980
mauvaise 23977
réductions 23969
EL 23958
Mor@@ 23957
ÉS 23947
francophones 23946
accident 23936
absolument 23933
Ayant 23932
cesse 23931
variations 23925
FAO 23922
librement 23914
Washington 23903
savons 23900
réels 23893
vêtements 23888
variété 23881
instauration 23874
appliquant 23869
similaire 23868
Slovaquie 23866
ça 23859
individuelles 23854
génie 23851
vendre 23850
touchées 23846
résulte 23838
concentrer 23834
gie 23830
déposant 23830
0.@@ 23828
favorise 23825
mobiliser 23815
contractantes 23815
décrire 23812
chap. 23806
Ordre 23799
H. 23788
causé 23781
Costa 23771
libér@@ 23769
approuve 23755
minimale 23751
verbal 23750
mu@@ 23747
sent 23740
exprimées 23722
canada.gc.ca 23716
consistant 23687
morale 23680
lie 23674
ceci 23673
intergouvernemental 23671
indemnités 23671
CL@@ 23669
ministériels 23667
ress@@ 23666
terminer 23662
Partenariat 23662
obligatoires 23659
décennie 23658
suffit 23643
mettra 23643
connus 23643
douane 23642
standard 23641
fonctionner 23639
ades 23639
Règles 23633
Gaza 23620
Considérant 23620
36@@ 23618
EP@@ 23617
éli@@ 23611
bénéfice 23610
laisse 23608
stupéfiants 23608
stipule 23605
portefeuille 23603
exportateurs 23592
suggéré 23588
vert 23583
constitutionnelle 23557
repas 23556
progressivement 23544
crée 23531
syndicats 23530
EL@@ 23526
achèvement 23522
confidentialité 23521
institutionnel 23511
prendra 23506
alisées 23494
perdu 23486
bénéficié 23485
race 23482
conclus 23478
engagée 23476
chance 23473
architecture 23473
Burundi 23473
dangers 23470
fondés 23466
ID@@ 23466
inscrites 23460
électriques 23455
immédiate 23452
ther@@ 23452
kilomètres 23446
prospérité 23441
Pierre 23433
indiquée 23415
hom@@ 23413
introduit 23406
stabilisation 23406
écologiques 23405
Processus 23393
nominations 23392
RS 23391
placé 23385
couche 23371
ey 23371
envergure 23367
attaque 23359
marine 23355
arbres 23353
aï@@ 23353
onnement 23352
assu@@ 23324
CC 23322
versés 23319
fraude 23316
ars 23309
Île 23306
Messieurs 23302
clause 23299
urbaines 23297
menés 23294
favorisant 23282
contribuable 23280
Contact 23273
ol 23272
INC 23271
éventuelles 23264
Macédoine 23255
légitime 23248
renforcé 23234
iner 23216
découvrir 23207
normal 23201
hypothèse 23200
mine 23194
venu 23190
he@@ 23190
saurait 23187
mélange 23187
Compagnie 23183
Pérou 23174
assister 23171
SS@@ 23168
possèdent 23167
ang 23160
transporteurs 23159
ratifié 23152
ux 23151
situées 23151
VII 23139
gène 23130
refuser 23126
1,5 23115
ice 23102
nommés 23101
suppose 23100
appréci@@ 23099
unes 23098
lic@@ 23089
allégation 23083
Monténégro 23075
joindre 23072
occidentale 23072
style 23062
indicateur 23060
réexamen 23051
PL@@ 23048
11.@@ 23031
bre 23024
gn@@ 23008
étage 23001
restriction 22995
TA 22994
tons 22993
Mu@@ 22993
bri@@ 22988
océans 22978
anim@@ 22965
parts 22951
différent 22951
ènes 22936
journal 22933
pou@@ 22933
Lacs 22933
autorise 22925
palestinienne 22917
négatifs 22906
environnemental 22905
Ju@@ 22899
Supplément 22894
intérieures 22892
intolérance 22891
additionnels 22885
autorisées 22883
incapacité 22865
pol@@ 22863
Travail 22862
intensi@@ 22857
1. 22853
lot 22851
fermement 22846
nettement 22842
gouverneur 22820
fac@@ 22820
Thaïlande 22820
Em@@ 22816
obtenues 22814
législatifs 22811
contenues 22804
élève 22804
grandement 22800
Nigéria 22790
commandant 22789
bles 22784
posées 22780
posés 22777
reçue 22770
Mesdames 22767
familial 22765
itaire 22757
Fr@@ 22756
aidera 22752
envisage 22750
souplesse 22744
connaissent 22737
poursuivi 22737
NE 22737
versée 22713
gravité 22712
délibérations 22710
sol@@ 22693
pont 22679
hôpital 22677
tation 22668
vulnérabilité 22665
extrême 22659
ï@@ 22655
préservation 22653
hautement 22650
courants 22632
forment 22631
atrices 22630
Principes 22626
appelée 22625
mercure 22622
journaux 22620
marketing 22620
visiter 22617
37@@ 22616
CT 22613
ises 22606
adaptés 22599
feront 22590
IP 22588
garçons 22588
compétent 22564
assur@@ 22563
garantit 22551
jeudi 22548
vivement 22538
fréquemment 22536
estiment 22536
Arctique 22535
dessins 22531
mobile 22512
ya 22511
discu@@ 22508
libellé 22499
médiation 22498
photos 22495
06@@ 22494
produite 22487
reconnue 22486
Bro@@ 22484
collection 22481
PMA 22471
§ 22471
compl@@ 22468
restaurant 22468
coeur 22455
Qui 22454
marin 22453
eté 22445
dur@@ 22441
député 22430
prime 22426
évalu@@ 22418
offertes 22415
hab@@ 22402
pratiquement 22400
distribuer 22393
accepte 22387
1981 22387
diplomatique 22381
issait 22379
Ivoire 22377
cherche 22367
concepts 22361
certificats 22360
policiers 22360
palestiniens 22355
déterminés 22349
rendent 22348
land 22341
tien 22338
he 22335
axés 22324
F. 22322
rejet 22321
oni@@ 22316
essence 22315
prévoyant 22311
émanant 22310
12,@@ 22302
provisoires 22297
représenté 22297
souci 22293
mer@@ 22284
concrets 22282
médicales 22282
SI 22278
consultatifs 22274
laboratoires 22265
Bell 22260
SS 22257
LO@@ 22257
constamment 22253
systématiquement 22246
log@@ 22244
consacrées 22237
rattach@@ 22233
impacts 22227
PI 22221
érer 22209
informatiques 22207
capables 22203
amélioré 22194
extérieurs 22194
visibles 22191
entr@@ 22190
superficie 22186
Ko@@ 22182
insolvabilité 22163
citoyen 22155
disparition 22153
réadaptation 22146
sexuelles 22145
écran 22132
tu 22127
déroul@@ 22123
requérante 22115
irait 22114
quotidienne 22104
bas@@ 22102
protégées 22100
CD@@ 22097
itation 22093
5.1 22093
ax@@ 22092
déci@@ 22077
occupés 22077
attache 22073
véri@@ 22073
enter 22072
nécessite 22069
Pi@@ 22069
ajustement 22068
Projets 22062
producteur 22055
eant 22051
constituée 22041
allemand 22034
Lettonie 22023
Bélarus 22016
correspondance 22015
constatations 22012
mains 22006
URL 22005
fiable 21982
Relations 21982
Londres 21980
exceptions 21978
CS@@ 21976
deviennent 21974
médi@@ 21965
cit@@ 21961
major 21957
cas@@ 21955
insulaires 21948
fardeau 21946
rés@@ 21943
armé 21939
sauvetage 21937
décennies 21936
conversion 21933
syn@@ 21929
habitats 21915
dépasser 21896
désignée 21890
recher@@ 21889
CFP 21886
ut@@ 21884
acides 21849
rétro@@ 21846
litige 21846
varie 21844
Mon 21840
risquent 21840
Ville 21840
Madrid 21829
publier 21825
Éthiopie 21821
films 21820
aviation 21820
gènes 21808
OIT 21779
pon@@ 21773
aériennes 21771
concernée 21769
Malaisie 21768
Ser@@ 21766
déjeuner 21765
Formation 21763
régulier 21762
idé@@ 21755
pairs 21751
45@@ 21751
limitation 21750
combien 21750
accueilli 21745
récent 21744
recueillies 21742
conver@@ 21734
portés 21732
classiques 21724
intensité 21723
bancaire 21715
Do@@ 21713
Act 21704
revoir 21694
calculer 21690
prê@@ 21686
spatiale 21684
Estonie 21682
39@@ 21665
1.3 21662
placés 21661
forêt 21649
soumission 21635
réunir 21632
autorisations 21626
communiquées 21624
recommander 21620
th 21620
UL@@ 21617
doter 21615
cohérente 21608
accise 21601
archives 21593
lacs 21591
3.3 21591
té@@ 21590
chasse 21588
900 21579
asse 21569
ète 21569
parfaitement 21557
approuvées 21556
procurer 21554
multilatéral 21547
variation 21544
utilis@@ 21541
déterminées 21535
Taux 21535
V. 21526
end 21525
épreuve 21518
développé 21511
finalement 21505
Leur 21502
vacances 21495
Victoria 21494
Frais 21494
respecte 21481
vot@@ 21472
restauration 21468
Figure 21459
aimerais 21446
blo@@ 21442
énergétiques 21437
arrêter 21436
fermeture 21435
Faire 21435
affecté 21434
pa@@ 21425
mutuelle 21422
M.@@ 21417
appuient 21416
ET@@ 21411
imposent 21410
Cal@@ 21406
ture 21402
dollar 21398
pourrez 21397
Kyoto 21389
Analyse 21389
biotechnologie 21387
juger 21386
préparatifs 21382
intensifier 21368
préalables 21367
Trans@@ 21363
École 21361
incident 21360
commises 21355
ulaire 21353
Paiements 21350
revient 21348
fondant 21345
perception 21341
géné@@ 21340
stimuler 21337
ÉE 21337
consolider 21335
voient 21329
Aussi 21319
entraînement 21312
Ouganda 21311
copies 21307
rapides 21302
isse 21300
Her@@ 21291
cin@@ 21291
COM@@ 21291
gratuitement 21289
ITÉ 21288
individuelle 21287
tal@@ 21282
pertinent 21277
soci@@ 21264
160 21257
ly@@ 21256
appeler 21251
feux 21250
touchent 21246
délégués 21232
connue 21217
inscrite 21211
prononcer 21205
menu 21202
vement 21188
Ho@@ 21184
ulation 21181
Palestiniens 21181
stress 21179
Col@@ 21174
pén@@ 21172
assurances 21164
détec@@ 21164
érée 21163
trice 21162
impu@@ 21161
informés 21156
Registre 21156
fixée 21152
diminuer 21150
informel 21147
invalidité 21141
Directrice 21139
pêcheurs 21137
post 21136
TRE 21127
N&apos; 21124
ta@@ 21122
Inuits 21121
Mi@@ 21117
axées 21117
vir@@ 21113
viable 21112
1970 21109
profession 21106
additionnel 21106
PAR@@ 21106
feuille 21105
sollic@@ 21104
salariés 21099
revenir 21097
chiff@@ 21087
del 21086
adéquat 21083
payés 21072
figurer 21071
Peter 21063
détermine 21061
accusé 21056
auto 21055
gagner 21053
issons 21052
observateur 21048
e.@@ 21012
Contactez 21009
nutrition 21006
ans@@ 21005
caractères 21005
rares 20992
Promotion 20961
reprendre 20960
audi@@ 20955
Manuel 20947
demandent 20944
expressions 20942
2. 20937
attribuable 20931
aînés 20921
instituts 20918
bar 20913
cessation 20912
Guatemala 20912
qualifications 20907
grossesse 20905
alistes 20903
ultérieurement 20903
tionn@@ 20894
S.@@ 20891
WP.29 20878
envoi 20874
traditionnelle 20873
gh@@ 20869
incertitude 20866
Produits 20862
refusé 20860
centaines 20845
Premièrement 20836
mari@@ 20836
T. 20836
harcèlement 20835
alli@@ 20834
demeur@@ 20832
inflation 20831
respectent 20828
èse 20818
Bangladesh 20815
viande 20813
ga 20806
iz@@ 20795
argument 20786
ell 20776
FR@@ 20773
illage 20771
OM@@ 20756
sanitaire 20751
commandement 20739
représentés 20738
assemblée 20734
prête 20731
enn@@ 20730
cuisine 20729
réclamation 20720
dis 20713
Quelles 20710
exposées 20706
tre@@ 20705
traduire 20703
Arménie 20702
PS@@ 20702
leçons 20695
aver@@ 20693
plani@@ 20690
Laurent 20674
désigner 20661
département 20657
acquise 20655
viv@@ 20652
détaillés 20642
ail@@ 20636
enté 20633
mercredi 20626
Libéria 20617
réguliers 20605
bibliothèques 20602
avoirs 20600
ouvertes 20599
donn@@ 20590
hygiène 20590
accessoires 20569
véritablement 20568
mères 20559
DS 20558
complément 20554
Go@@ 20547
ç@@ 20545
journalistes 20541
exemption 20537
constitutionnel 20531
rencontrer 20523
rons 20522
bancaires 20516
identiques 20514
venus 20507
fiscaux 20507
ières 20505
bénéficie 20504
mp@@ 20502
lég@@ 20499
intermédiaires 20497
105 20487
situe 20487
Recommandations 20486
conserv@@ 20485
thématiques 20484
iv@@ 20475
plage 20468
1983 20465
22@@ 20462
entrevues 20455
pensons 20454
che@@ 20449
négocier 20447
reporter 20444
liv@@ 20439
aident 20438
négoci@@ 20436
Sénat 20424
cy@@ 20424
dirigé 20421
longues 20419
contractante 20406
all 20400
module 20398
discipline 20392
professeur 20389
érées 20389
Michael 20388
planète 20387
échanger 20384
prostitution 20381
ordres 20380
demain 20379
avancées 20376
Mouvement 20365
xénophobie 20364
écarts 20351
préférence 20351
rant 20345
ali@@ 20339
soulevées 20338
institutionnelles 20335
décrits 20323
prouver 20322
819 20319
ISO 20315
causés 20313
bref 20307
CP@@ 20304
La@@ 20299
candidates 20289
inviter 20284
légale 20279
dixième 20279
TH@@ 20278
achevé 20274
permanentes 20274
proviennent 20273
DA 20269
that 20269
onnée 20262
Mots 20262
asi@@ 20253
rouge 20252
encourageant 20250
appliqués 20249
clos 20246
ouv@@ 20243
continu@@ 20234
ole 20228
temporaires 20226
CT@@ 20223
q 20223
saine 20216
armements 20214
imprimable 20211
OU 20209
normalisation 20204
tom@@ 20203
faute 20192
mardi 20188
101 20187
North 20182
consulté 20177
tis 20175
Données 20172
voiture 20157
tionnelle 20152
Présentation 20152
TIONS 20151
qualifié 20146
raient 20144
Society 20142
contribuera 20139
James 20139
expositions 20138
oph@@ 20137
CR 20128
coordonnées 20127
Rouge 20126
Ni@@ 20122
retrouve 20122
ano 20115
34@@ 20105
fortes 20103
vin 20096
pacifiques 20092
rati@@ 20083
alis@@ 20083
teront 20078
compensation 20078
consacrer 20075
her@@ 20075
numériques 20072
terrains 20070
Médiateur 20070
rétablir 20069
tabagisme 20064
compens@@ 20061
ouvrage 20061
allons 20047
calculé 20042
préliminaires 20040
mér@@ 20037
portes 20025
quotidien 20023
Objectif 20019
sem@@ 20014
convenus 20013
11,@@ 20007
basé 19998
contenir 19995
reconnaissant 19994
off@@ 19994
née 19992
garanti 19992
ation@@ 19988
échantillonnage 19986
informe 19982
encouragé 19982
réagir 19973
circonscription 19973
considérant 19971
agisse 19967
s. 19966
troupes 19951
minimales 19949
isent 19947
Malheureusement 19941
spécialisée 19930
Ren@@ 19925
crucial 19917
hal@@ 19917
chauffage 19914
PM@@ 19910
Bou@@ 19905
écrites 19900
azote 19897
biodiversité 19895
accueille 19894
inqui@@ 19890
entrevue 19878
échec 19877
IL@@ 19874
illégale 19872
minim@@ 19870
doté 19868
eg@@ 19865
promoteur 19864
déposés 19862
rejets 19854
fixées 19851
composée 19847
ADN 19845
trait@@ 19842
chemins 19841
110 19839
densité 19839
installer 19838
assurée 19827
séparation 19816
séparément 19808
affecter 19806
orateur 19805
légal 19802
employer 19785
adapté 19784
subventionn@@ 19783
identifiés 19776
représentante 19763
profonde 19760
bibliothèque 19759
définitif 19750
électorales 19748
Statistiques 19738
régul@@ 19737
85@@ 19734
traver@@ 19729
socio 19720
orienter 19719
trices 19716
1373 19707
í@@ 19706
partiellement 19699
hor@@ 19699
marqué 19690
durabilité 19684
age@@ 19674
vic@@ 19673
devrions 19665
original 19663
main@@ 19660
hébergement 19660
1978 19655
urbaine 19653
versions 19648
tionnel 19646
assisté 19644
Albanie 19644
ME 19642
parti@@ 19638
phases 19630
africain 19629
camps 19628
élimin@@ 19627
manifeste 19621
atoires 19610
hum@@ 19609
dép@@ 19606
Communautés 19604
acquit@@ 19601
immeuble 19599
pourtant 19593
micro 19592
subsistance 19589
02@@ 19584
automatique 19574
radio@@ 19570
criminels 19568
irs 19568
Bulletin 19567
CN.9 19563
ford 19558
corriger 19557
vastes 19556
couverts 19554
qui@@ 19552
vit@@ 19550
complets 19545
Marie 19533
rest@@ 19532
agrément 19528
composants 19527
appartenance 19525
bat@@ 19524
tradition 19523
billets 19518
lib@@ 19513
sy@@ 19511
American 19511
traditions 19510
routière 19507
facilité 19506
Fort 19506
idéal 19501
nettoyage 19487
FMI 19486
protéines 19481
tirées 19480
apportée 19478
souhaitable 19470
coll@@ 19470
Malte 19459
EM 19454
produites 19453
législations 19446
interdire 19446
George 19445
terrestre 19444
crédibilité 19436
GE 19435
Dieu 19432
combustible 19431
Cro@@ 19427
tiré 19423
apparition 19420
Fabrication 19416
apparaître 19415
renforcée 19410
explosifs 19405
individuel 19404
contr@@ 19397
lang 19397
ord@@ 19395
multilatérales 19394
usées 19390
River 19382
volets 19380
P.@@ 19379
Singapour 19363
100@@ 19354
progressive 19350
électro@@ 19350
nie 19346
contamination 19344
conviction 19343
impliquant 19335
minorité 19332
Si@@ 19331
formations 19325
inform@@ 19322
recyclage 19321
immobiliers 19320
courante 19320
esti@@ 19316
Parti 19315
mentionner 19309
éth@@ 19309
sauvegarde 19306
chers 19305
formulé 19305
e. 19305
huile 19304
Gazette 19304
électoral 19303
déposées 19299
inv@@ 19298
normales 19296
insuffisance 19293
course 19278
cessé 19277
théâtre 19270
Rica 19270
élaborés 19268
assurés 19264
son@@ 19260
ouvre 19260
baie 19258
gravement 19257
rurale 19255
Myanmar 19255
fiant 19249
Conn@@ 19242
innocuité 19242
occupant 19237
puits 19236
rencontré 19230
épargne 19228
passation 19220
immobilisations 19219
cerner 19218
ATI@@ 19215
rechercher 19213
05@@ 19211
AIEA 19208
quitter 19207
mobiles 19202
inspections 19199
pharmaceutiques 19193
collectives 19191
conviendrait 19189
identi@@ 19189
rencontres 19187
invention 19184
3e 19183
Venezuela 19182
tourn@@ 19176
nécess@@ 19171
emploie 19167
échéance 19167
fumeurs 19165
PM 19165
dois 19159
terait 19151
procède 19141
provo@@ 19137
abri 19135
Coût 19133
Tunisie 19125
matique 19124
internet 19107
Ter@@ 19105
ards 19104
exerçant 19098
peau 19097
inciter 19096
expulsion 19092
bientôt 19084
CO 19076
tt@@ 19075
imprimer 19069
constituant 19069
È@@ 19069
C.3 19066
écl@@ 19065
riches 19064
AI 19056
issues 19049
personn@@ 19046
extradition 19045
harmoniser 19036
Participation 19035
coordonnateur 19033
id 19030
Beijing 19030
quasi 19027
traditionnel 19021
Accès 19017
He@@ 19011
Har@@ 19003
sor@@ 18997
1979 18996
prescrit 18993
transaction 18982
KO 18982
Réponse 18979
diplôme 18973
offerte 18968
dÃ 18967
ajout 18959
israéliennes 18956
Éducation 18954
particip@@ 18942
maternité 18941
IF@@ 18933
profondément 18930
World 18926
dépense 18924
ong@@ 18920
union 18918
variable 18918
yougoslave 18918
Quels 18916
équipage 18905
travailleur 18904
bateau 18900
évidemment 18896
13,@@ 18896
causer 18893
st 18890
adhérer 18870
ü@@ 18870
adaptées 18869
choisis 18869
1967 18867
Unité 18865
Hor@@ 18863
décrite 18861
Moldova 18853
automobiles 18850
United 18850
apportés 18847
proches 18845
scolarité 18842
négatives 18840
tier 18836
évaluées 18832
urbains 18827
Édouard 18824
prisonniers 18822
ô@@ 18815
rédigé 18813
Sciences 18811
concertation 18804
W. 18797
pesticides 18791
ONUDI 18790
croit 18776
Ri@@ 18775
vari@@ 18774
vaccins 18770
abandon 18766
modifiés 18764
littoral 18763
dérogation 18758
li 18758
pli@@ 18753
aquatiques 18751
130 18747
hommage 18744
probabilité 18741
onnées 18737
Index 18736
0,5 18732
VO@@ 18730
itées 18719
augment@@ 18716
conjoints 18716
Sénégal 18712
opérateurs 18709
distinct 18709
attribué 18704
www.c@@ 18703
ha 18695
Group 18693
enregistrées 18686
Hôtel 18686
PR 18686
demandant 18680
observe 18679
Martin 18668
unanimité 18667
arri@@ 18663
réaffirmé 18657
hyper@@ 18656
photo 18654
soir 18651
élargi 18645
Ceux 18640
retombées 18636
empêche 18635
retenues 18632
fiabilité 18631
commentaire 18631
découlent 18622
reconnues 18616
glace 18616
aci@@ 18611
Ne@@ 18611
sort 18602
transférer 18601
correspondants 18599
soutenue 18588
appendice 18584
assurent 18583
sélecti@@ 18578
prestataires 18578
tension 18576
ides 18566
ecti@@ 18561
existait 18552
religieuse 18551
adéquates 18549
PAR 18549
indi@@ 18546
2.4 18539
nutri@@ 18538
infections 18536
SU@@ 18535
érant 18533
autodétermination 18533
ouvrages 18527
gaz@@ 18527
ratifier 18524
125 18522
usagers 18513
comportent 18512
Quoi 18511
rési@@ 18507
perdre 18504
occidental 18499
atiques 18490
marines 18488
coopératives 18487
fou@@ 18479
allocations 18473
Kazakhstan 18465
ANCE 18461
compos@@ 18460
exactitude 18456
47@@ 18456
originaires 18453
Organe 18447
C.2 18447
charbon 18446
amende 18444
placements 18440
secret 18435
transnationale 18433
distribué 18431
discriminatoire 18430
amen@@ 18424
lait 18423
ov@@ 18421
ges 18420
iers 18418
sommaire 18415
réalis@@ 18411
den 18405
cad@@ 18404
appris 18403
suggère 18402
DANS 18402
usines 18401
courantes 18399
atique 18397
sk@@ 18397
AE 18397
140 18394
chi@@ 18390
parlé 18387
fassent 18385
méthodologie 18384
symptômes 18380
enregistrer 18375
lis 18373
récupération 18371
çons 18359
ica 18352
N. 18347
chés 18346
reflètent 18346
sauvages 18345
retourn@@ 18335
J.@@ 18335
abouti@@ 18332
révèle 18332
Maurice 18332
créant 18328
juridictions 18327
ém@@ 18327
versements 18323
met@@ 18319
nat@@ 18296
revêt 18293
distincts 18290
illi@@ 18289
ub@@ 18287
recev@@ 18278
eff@@ 18272
sti@@ 18269
PPE 18267
sin@@ 18265
yle 18262
plafond 18250
accordés 18246
alerte 18245
soulign@@ 18241
Pal@@ 18236
Notant 18235
ED@@ 18231
Hu@@ 18229
AB 18225
douze 18220
cité 18215
XX@@ 18215
tél. 18211
visait 18210
efficience 18209
fixation 18208
oblig@@ 18191
considèrent 18190
divisions 18188
subsidiaires 18185
exercent 18162
Art 18162
indépendamment 18161
démographiques 18158
b. 18150
sé 18148
ENT 18148
subir 18141
Sri 18140
Jordanie 18137
Un@@ 18129
thématique 18128
officier 18122
confusion 18121
Pourquoi 18120
témoignage 18117
ones 18110
télécopieur 18097
ministérielles 18095
CS 18094
60@@ 18091
formés 18088
signée 18084
dispos@@ 18083
passée 18081
contacter 18074
Gar@@ 18062
amb@@ 18059
Notes 18059
Décisions 18055
étal@@ 18054
Jusqu&apos; 18053
cesser 18049
termin@@ 18047
valable 18042
sortir 18039
éch@@ 18036
décisionnel 18034
sécuritaire 18029
eng@@ 18021
itant 18019
adop@@ 18018
orale 18014
éco@@ 18014
Ann@@ 18007
Aperçu 18006
procureur 18001
aéroports 18000
associer 17999
rassembl@@ 17993
sif 17992
Dis@@ 17989
tentative 17984
coordonnée 17981
formulée 17977
financées 17971
ö@@ 17971
faisaient 17967
na 17965
municipalité 17962
enregistrée 17960
sant 17957
maximal 17957
examinera 17953
parallèle 17953
déclarés 17945
disciplinaires 17943
déterminant 17937
lever 17934
ton@@ 17930
audiences 17928
furent 17927
rend@@ 17925
exploitants 17917
condamné 17914
départements 17914
complètes 17913
souches 17913
confirme 17908
habitant 17907
concentr@@ 17905
ic 17904
exprime 17903
ED 17895
vendeur 17892
tab@@ 17891
Étude 17891
interactions 17890
négative 17888
attendant 17887
infirmières 17887
Conclusions 17884
indispensables 17881
prévision 17879
phot@@ 17879
plas@@ 17875
tim@@ 17871
infectieuses 17870
démontre 17867
ry 17865
TIR 17861
progression 17860
affectées 17858
découverte 17855
restreint 17848
pieds 17834
succ@@ 17833
compatible 17831
EX 17831
demandée 17828
structurels 17824
excellente 17819
Prend 17813
démographique 17812
expédition 17811
za 17808
cot@@ 17805
cons@@ 17798
obtenue 17792
berg 17783
Doha 17780
Co 17777
inflig@@ 17775
SERVICES 17771
arité 17768
tenter 17768
SM 17766
off 17765
SG@@ 17761
ANNEXE 17761
éventuel 17759
spectre 17756
résidus 17755
citer 17742
Lanka 17734
5.2 17733
comptent 17724
Environ 17724
stipul@@ 17722
gare 17718
déduction 17717
Ibid 17715
gratuit 17713
sais 17712
impunité 17708
San 17696
acheteur 17693
intégrale 17692
esp@@ 17688
retenu 17672
foyer 17672
guère 17671
riche 17671
effor@@ 17665
améliorée 17664
.2 17661
négatif 17658
claires 17657
intergouvernementale 17648
incluent 17646
combustibles 17642
intimé 17641
souhaitez 17638
compose 17636
visibilité 17633
explication 17631
graphie 17625
ultérieure 17624
aptitude 17619
report 17618
respecté 17616
précieux 17616
marquée 17613
déroulement 17611
minoritaires 17611
cycles 17610
comparables 17592
indépendantes 17590
Cinquante 17590
loisirs 17589
rav@@ 17581
MINU@@ 17581
initialement 17579
profondes 17574
voulues 17571
Réserve 17568
classés 17566
graphiques 17566
dera 17565
ailles 17564
fibres 17557
élevage 17553
cérémonie 17553
placer 17550
varient 17550
enceintes 17546
sch@@ 17540
chaleur 17533
reliés 17531
tran@@ 17526
15,@@ 17526
énumérés 17526
Guerre 17525
B.@@ 17525
tement 17524
lat@@ 17520
ami 17518
précoce 17517
Min@@ 17517
villages 17513
44@@ 17510
oriental 17508
couvert 17507
tour@@ 17503
tir 17496
exc@@ 17495
CF@@ 17495
Arabie 17484
Islande 17481
rev@@ 17468
ty@@ 17465
sectorielles 17462
oppos@@ 17460
assi@@ 17455
prévalence 17449
pel@@ 17442
Renforcement 17442
indirectement 17440
Er@@ 17440
entreposage 17433
cession 17431
évalués 17427
British 17425
AIRES 17424
voitures 17423
Base 17423
104 17420
so 17420
inf@@ 17418
Quelques 17417
sexuel 17414
correction 17409
GI 17408
manifestation 17405
sports 17405
additionnelles 17402
vite 17397
signal 17394
Bur@@ 17391
IN 17384
Rev.1 17379
chaînes 17375
Public 17375
planifier 17374
bran@@ 17371
invo@@ 17365
Invite 17363
conviennent 17362
int 17357
Devis 17354
DG 17353
inégalités 17350
diabète 17350
Jérusalem 17347
demandés 17345
sec@@ 17344
lin@@ 17335
Contexte 17334
demeurer 17331
météorologiques 17328
AGE 17328
Sur@@ 17326
Law 17323
essi@@ 17322
dég@@ 17317
distinctes 17314
Équateur 17313
spécifications 17308
institutionnelle 17305
légitimes 17301
2013 17297
surveill@@ 17296
ix 17281
hypo@@ 17277
plomb 17276
Armée 17276
habitation 17272
routier 17267
tensions 17263
Haye 17261
étudiant 17254
enquêter 17249
ko@@ 17249
étiquette 17243
14,@@ 17242
Excellence 17236
.-@@ 17234
arme 17232
viser 17230
théorie 17228
ps 17226
efforce 17224
enregistrements 17223
Council 17221
Bl@@ 17220
objection 17216
néglig@@ 17212
DO@@ 17212
redevances 17212
spiritu@@ 17203
trouvant 17191
arbitral 17185
retards 17178
satisfaisante 17175
continuité 17175
intervenant 17175
journ@@ 17175
ath@@ 17173
analogues 17172
confirmation 17170
confrontés 17169
prononcé 17168
spécialiste 17167
collectif 17159
immeubles 17159
exploitant 17158
valide 17157
vérité 17155
lam@@ 17154
toxicité 17151
syrienne 17147
signification 17146
signalés 17145
constituait 17144
15.@@ 17135
réputation 17134
RH 17132
espaces 17131
Situation 17130
quelqu&apos; 17129
dépend@@ 17125
07@@ 17119
places 17119
délivré 17115
67@@ 17110
Angola 17105
Utilisation 17102
Port 17095
WP.@@ 17088
ner@@ 17071
contractant 17067
PI@@ 17062
excédent 17058
ard@@ 17055
agression 17049
rapporteurs 17046
Quelle 17043
Signé 17043
explications 17039
cri@@ 17037
chapitres 17034
fient 17033
mique 17033
couleurs 17029
liquide 17029
nommer 17028
avancée 17022
tine 17022
transformer 17015
mén@@ 17011
tax@@ 17011
reconnaissent 17010
ENCE 17006
consultez 17006
inhumains 17005
portait 17004
touristique 17001
199@@ 16997
vérificateur 16997
féminine 16990
machine 16984
récolte 16984
spécialisé 16981
pharmac@@ 16981
découle 16980
aéronef 16978
Ph@@ 16966
TES 16956
chauff@@ 16953
horaire 16952
Royal 16947
réside 16938
aill@@ 16936
tarifaires 16932
sérieusement 16925
ault 16925
user 16910
municipales 16904
boissons 16900
Normes 16900
distincte 16891
ly 16881
vit 16880
dépendent 16879
minière 16878
érique 16877
aband@@ 16864
XXIe 16863
ave 16858
acteur 16854
nets 16854
accordées 16848
ä@@ 16844
str@@ 16841
foyers 16840
énergies 16838
parent 16834
GC 16828
morts 16822
Personne 16821
a. 16821
signaux 16817
immédiat 16813
0,00 16795
athlètes 16793
repris 16789
créanciers 16786
existante 16775
Montant 16775
respectives 16774
indésirables 16768
estimer 16763
RES 16760
MD 16757
adap@@ 16754
fonde 16750
essayer 16749
SCIAN 16746
tendent 16745
un.org 16743
souscrit 16738
Fonction 16736
éducatif 16734
validation 16734
fications 16733
entrepreneur 16723
raisonnablement 16721
favorisent 16721
envisagé 16715
Décennie 16714
justification 16713
télécopie 16713
aboutir 16709
ilité 16709
lique 16706
prom@@ 16700
branche 16698
ze 16697
démarches 16695
handicap 16694
don@@ 16693
K. 16693
températures 16684
entré 16676
1977 16674
erai 16672
observée 16671
saumon 16670
chargement 16669
envisagées 16669
révél@@ 16666
agré@@ 16664
Quel 16661
inquiétude 16655
englobe 16654
Cou@@ 16645
rie 16644
Croix 16643
orient@@ 16641
guer 16640
habil@@ 16639
stes 16638
tuberculose 16638
propice 16636
accréditation 16634
portera 16630
Tanzanie 16627
vité 16625
profils 16619
traitant 16617
absolue 16616
exactement 16611
côtière 16611
We@@ 16607
Ghana 16603
Communiqués 16602
Lieu 16601
desquelles 16600
entrées 16596
contrepartie 16594
D.@@ 16593
UM@@ 16590
facilitation 16590
réuni 16587
retenir 16587
compli@@ 16586
réglementations 16584
faisons 16584
illustre 16577
FM 16575
itent 16569
Ru@@ 16569
dégradants 16568
ès 16567
signi@@ 16567
déclarée 16566
construit 16566
compatibles 16564
expédi@@ 16558
Radio 16558
sucre 16553
discriminatoires 16550
Corps 16548
vou@@ 16543
identifié 16541
NON 16541
Parallèlement 16540
Nor@@ 16538
rentabilité 16536
Ê@@ 16531
Réaffirmant 16523
flexibilité 16521
traitée 16519
PP@@ 16516
diplômés 16512
semi 16506
occasi@@ 16505
configuration 16505
Roms 16504
001 16500
témoigne 16497
fic@@ 16496
Concernant 16494
sensibilité 16489
Uruguay 16482
importés 16482
exécutive 16481
intégralement 16480
manifestement 16477
précède 16472
Fin@@ 16466
ver 16462
eries 16458
bilatérales 16449
convergence 16448
oublier 16445
satisfaits 16444
zéro 16441
Question 16441
Canadien 16436
devenus 16434
ae 16427
strictement 16425
comparer 16423
Chez 16419
gras 16411
exercé 16406
emprun@@ 16402
éti@@ 16399
tisme 16398
directions 16396
dessin 16396
permanence 16395
entrent 16388
v01 16388
limités 16383
lancée 16368
1,2 16367
aig@@ 16366
Habitat 16366
ose 16364
amener 16360
deur 16350
importateur 16348
respectées 16336
intérieurs 16331
arm@@ 16324
psychologique 16324
attitudes 16323
As@@ 16320
als 16318
cotisation 16318
dre 16317
taient 16316
Texte 16311
Hong 16309
Strasbourg 16307
jointe 16306
ret@@ 16305
accompagné 16302
légales 16300
2015 16296
atti@@ 16287
barre 16285
VE 16284
Por@@ 16281
concrète 16276
DR@@ 16271
arb@@ 16265
erg@@ 16263
CI 16260
innovations 16259
coup@@ 16257
.htm 16255
analy@@ 16251
PA@@ 16246
rempli 16235
4.3 16234
pass@@ 16233
extraction 16227
6.1 16221
connues 16220
sanction 16217
parité 16216
criminel 16209
Niveau 16209
coll 16206
Rapporteuse 16202
diriger 16198
mineur 16198
ENT@@ 16196
ce@@ 16194
emment 16193
confort 16190
collègue 16185
vaccination 16185
musées 16184
TV 16179
attribuer 16178
amp@@ 16176
originale 16173
usement 16172
démarrage 16170
ètes 16170
régulières 16165
arr@@ 16162
chute 16159
ête 16158
DIS@@ 16158
55@@ 16155
majeurs 16150
consom@@ 16146
posée 16145
ums 16144
Soixante 16142
cre@@ 16141
canal 16136
énonce 16132
Smith 16124
Fer@@ 16121
201 16120
C.P. 16117
survenus 16111
directes 16110
relevés 16109
Conditions 16109
donnés 16108
ection 16107
antiterroriste 16105
mentionnée 16104
Ont 16104
réservé 16100
gouvernemental 16095
remarquable 16093
m3 16091
étoiles 16090
Kar@@ 16088
sie 16080
certes 16079
Management 16079
mentionne 16076
civilisations 16073
Engagements 16072
anes 16069
vendus 16068
urgent 16066
VER@@ 16061
chroniques 16060
soupç@@ 16056
59@@ 16054
SR@@ 16050
comptable 16048
antérieurs 16044
votes 16040
stock 16032
entretenir 16028
parlements 16027
ata 16027
dérivés 16027
quez 16026
mur 16026
uniques 16022
propagation 16022
compatibilité 16019
élargie 16013
arrestation 16010
ments 16004
contrôleur 16002
pdf 16002
Déc@@ 15998
importateurs 15998
Vérification 15996
desquels 15992
visa 15988
conciliation 15986
GU@@ 15986
axe 15979
saoudite 15979
continueront 15977
relèvement 15977
fum@@ 15975
ACIA 15973
arbitre 15969
ile 15967
Fournir 15960
command@@ 15952
cho@@ 15950
israélien 15943
Cap 15942
prenne 15939
débu@@ 15937
lig@@ 15936
accro@@ 15934
vraisemblablement 15934
Informations 15932
Communiqué 15928
bul@@ 15927
Report 15924
vaccin 15923
ajustements 15921
côtés 15915
sédiments 15915
tissu 15912
IX 15912
vel@@ 15909
p.@@ 15908
déclin 15904
vaut 15897
Columbia 15896
réaffirme 15883
mées 15877
I.@@ 15877
OB@@ 15870
DEO 15864
vallée 15862
téléphonique 15859
employées 15858
engag@@ 15852
humides 15852
ut 15850
Oc@@ 15850
motion 15849
doses 15848
fournira 15845
Rem@@ 15841
génocide 15839
ingrédients 15830
‰ 15830
époux 15827
TM 15827
Sp@@ 15819
contaminés 15817
adressé 15816
minéraux 15812
Richard 15804
PH@@ 15803
Instance 15800
quotas 15799
ew@@ 15798
ala 15795
escomptés 15794
interpré@@ 15792
aj@@ 15790
coordonnateurs 15787
Sainte 15786
INTER@@ 15784
180 15783
Actuellement 15782
différend 15781
formats 15780
HTML 15777
clauses 15771
collections 15771
malheureusement 15766
contrairement 15759
vies 15753
Gi@@ 15752
Cliquez 15750
imposée 15748
globales 15747
Passer 15744
Mil@@ 15740
E.@@ 15739
Quatre 15734
Mag@@ 15731
unis 15724
sen 15718
ong 15717
conna@@ 15713
condamnation 15711
Entente 15709
prière 15707
Nairobi 15704
denrées 15697
~ 15691
Mont@@ 15684
acti@@ 15681
48@@ 15675
adaptée 15674
susciter 15674
Tri@@ 15667
0,1 15663
noir 15661
aut@@ 15657
h00 15654
opportunité 15653
appr@@ 15653
To@@ 15653
bus 15652
désertification 15648
urs 15641
peur 15640
OC@@ 15635
Kong 15633
gique 15631
Politiques 15625
exclus 15614
hier 15594
vocation 15591
mail 15590
Souligne 15590
répertoire 15585
néfastes 15578
108 15577
O&apos; 15576
ace 15573
consultants 15569
17,@@ 15568
icul@@ 15563
aliste 15561
servira 15556
accumul@@ 15553
bourse 15551
Népal 15551
charg@@ 15550
Des@@ 15544
aille 15543
réunit 15527
08@@ 15522
mobil@@ 15520
installé 15519
privilégi@@ 15518
mutuellement 15518
satellites 15513
Mettre 15510
ada 15509
veux 15508
rats 15503
1971 15500
Puis 15499
èrement 15498
suff@@ 15495
agement 15490
1973 15487
respectant 15481
licenciée 15477
régie 15470
acceptables 15463
qualifiée 15461
oubli@@ 15453
infantile 15453
{ 15452
QUES 15452
mémorandum 15444
1975 15439
appelés 15437
détenu 15437
éditeurs 15428
dite 15425
douce 15418
étend 15416
annonces 15415
86@@ 15415
ationn@@ 15414
colonies 15410
facilite 15406
Agroalimentaire 15404
femelles 15401
16,@@ 15400
C.5 15400
détient 15399
détérioration 15397
C.1 15396
neuro@@ 15395
bour@@ 15394
Fr 15394
primes 15389
soutiennent 15388
PRE@@ 15384
pollu@@ 15383
Corr.1 15381
érés 15379
hy@@ 15377
Euro@@ 15373
tie 15372
airement 15364
attach@@ 15361
couvrant 15359
avancé 15358
a.@@ 15357
pluri@@ 15355
Sk@@ 15353
Européens 15348
modules 15346
illustr@@ 15345
ki 15345
épreuves 15345
pierre 15341
classique 15334
maintenu 15331
assujettis 15329
Présidence 15328
APECA 15328
annuler 15321
congés 15314
susmentionnées 15313
faim 15308
retourner 15299
tent@@ 15296
approfondi 15296
représent@@ 15292
chlor@@ 15292
115 15290
conducteur 15283
aisse 15282
rég@@ 15282
phénomènes 15280
disciplines 15280
audition 15278
territorial 15277
énorme 15268
exclure 15264
basse 15263
calibre 15262
ena 15261
richesse 15255
Articles 15255
nation@@ 15254
min 15254
Human 15252
PRÉ@@ 15250
accompagnée 15247
99@@ 15246
regroupement 15244
102 15236
précédant 15234
adoptant 15221
OTTAWA 15220
augmentations 15206
disparités 15202
inclu@@ 15200
transmises 15200
tait 15198
épidémie 15198
municipaux 15196
exigé 15195
iront 15193
itr@@ 15191
amor@@ 15189
renvoy@@ 15188
novatrices 15186
intervalle 15185
program@@ 15183
MON@@ 15183
incitation 15178
rit@@ 15176
félicitons 15169
1976 15168
meur@@ 15168
CAN 15167
souris 15156
uvre 15155
desc@@ 15155
conçues 15155
103 15154
106 15152
flot@@ 15151
gel 15151
affirmer 15147
die 15145
pré 15142
GES 15141
élaborées 15137
chronique 15137
AA 15135
perc@@ 15131
32@@ 15131
Dou@@ 15121
phy@@ 15121
légumes 15119
com 15118
intéressent 15116
concurrents 15116
111 15115
clarifier 15112
refléter 15112
retrouver 15110
rarement 15109
ous@@ 15108
Observations 15104
blessés 15102
raff@@ 15095
reti@@ 15087
ram@@ 15086
inférieurs 15084
éclairage 15080
Leste 15079
réviser 15078
contribu@@ 15074
créances 15072
Coordonnateur 15071
assign@@ 15070
initi@@ 15068
dé 15064
MAN@@ 15064
manuels 15058
observées 15056
iné@@ 15052
ome 15051
prononcée 15050
ADRC 15049
performances 15047
camp 15046
endrait 15041
ine@@ 15039
Bel@@ 15039
renferme 15038
107 15036
accumulation 15036
plate 15035
trac@@ 15035
litiges 15032
1.4 15031
résid@@ 15029
présentement 15023
ressortir 15019
lecteur 15019
scénario 15013
DEMANDE 15012
imposé 15003
paysage 15000
dér@@ 14999
conscients 14995
demandons 14992
emp@@ 14991
Salvador 14989
forts 14987
} 14987
ign@@ 14986
déployer 14982
naturellement 14980
Sol@@ 14974
Angleterre 14974
salue 14972
mé 14971
vais 14963
dev@@ 14963
Vis@@ 14963
ron@@ 14962
bil@@ 14961
régulation 14959
évo@@ 14957
appartiennent 14957
gérés 14956
cles 14955
innov@@ 14953
désignées 14952
mont@@ 14951
moral 14948
rique 14948
éducatifs 14946
référendum 14944
conçue 14943
chercheur 14942
signale 14936
intéresse 14928
É.-U. 14924
miques 14922
glis@@ 14922
verre 14921
issez 14918
jet@@ 14917
réfléchir 14915
Ste@@ 14915
aval 14908
candidatures 14906
fé@@ 14902
PER@@ 14902
ÉR@@ 14900
Pourtant 14897
Couronne 14897
rédiger 14896
Collège 14894
rectifications 14893
Ligne 14892
43@@ 14890
terminée 14889
renouvelable 14889
désign@@ 14887
brièvement 14886
inst@@ 14883
rendues 14882
jugée 14881
faux 14880
insisté 14879
Wil@@ 14876
conclu@@ 14875
caractéristique 14874
partielle 14870
diminu@@ 14870
dudit 14869
bienvenue 14866
explo@@ 14862
paludisme 14862
Rec@@ 14861
combustion 14857
oxygène 14856
abouti 14854
West 14854
comm@@ 14853
default.asp 14853
heur@@ 14852
dant 14849
laiss@@ 14845
cruels 14845
Ass@@ 14844
Cameroun 14844
équilibrée 14842
fruit 14840
dor@@ 14840
ors 14837
contribuant 14837
implication 14835
fre@@ 14823
observés 14823
publi@@ 14820
ani 14819
voulez 14816
cau@@ 14815
exprimée 14812
57@@ 14811
comporter 14805
insuffisant 14804
redressement 14801
franch@@ 14796
sez 14790
liquides 14790
mati@@ 14789
faisabilité 14785
passés 14785
ativement 14784
c.gc.ca 14784
reliées 14783
Définition 14783
britanniques 14782
are@@ 14782
su 14781
démonstration 14778
reux 14775
yl 14775
vé@@ 14769
attentats 14766
problématique 14766
adéquats 14764
répartis 14762
renforçant 14760
Entre@@ 14757
significatif 14750
félicité 14747
connexion 14745
protégé 14744
ca@@ 14740
van 14738
pH 14734
49@@ 14732
ores 14731
sépar@@ 14731
demanderesse 14722
salubrité 14721
que@@ 14720
prévisible 14719
Char@@ 14714
calculs 14713
visible 14710
aquaculture 14709
fau@@ 14708
centraux 14707
dirigeant 14703
grav@@ 14700
hypothèses 14699
professions 14695
Érythrée 14693
langage 14689
donnera 14686
congrès 14682
URE 14682
plaignante 14680
atomique 14676
cherchent 14673
ow@@ 14670
ERS 14670
distributeurs 14664
sau@@ 14661
contaminants 14659
amin@@ 14659
inquiétudes 14654
découvert 14654
Tarif 14654
passeport 14651
Voilà 14647
modifiées 14642
quart 14641
suffisants 14640
contrainte 14638
ek 14637
Îles 14635
fa@@ 14632
ó@@ 14627
barème 14623
NI@@ 14619
explorer 14618
évoqué 14614
BR@@ 14613
stades 14612
artistique 14609
passées 14608
réussir 14603
tranche 14601
ri 14598
substitu@@ 14598
susmentionnés 14598
3. 14598
édic@@ 14591
employée 14590
tradu@@ 14589
quiconque 14580
cach@@ 14579
Ger@@ 14579
ha@@ 14577
exhaustive 14572
touristiques 14572
inacceptable 14569
trou@@ 14568
estimons 14566
gués 14562
Beaucoup 14561
transitoire 14560
we 14557
bor@@ 14554
tomb@@ 14545
prélèvement 14541
ïdes 14538
allemande 14536
EU@@ 14536
mée 14531
énoncée 14531
expli@@ 14530
accusation 14528
correctives 14528
At@@ 14525
développements 14523
TO 14518
PD 14517
assume 14516
accusés 14516
rapportent 14514
attachement 14514
Modifier 14513
iti@@ 14511
étique 14510
ties 14508
rage 14502
sportives 14500
reconna@@ 14497
productions 14495
désir 14493
reg@@ 14484
agissent 14484
requiert 14482
,000 14482
ll@@ 14477
rapporte 14473
gen@@ 14470
UNE 14465
4e 14464
démar@@ 14461
accomplissement 14461
ement@@ 14459
Windows 14458
garantissant 14456
tend 14454
exclusive 14451
insérer 14447
thérapeutiques 14447
Prenant 14445
GI@@ 14442
cabinet 14441
instant 14440
tol@@ 14439
mas@@ 14438
tenté 14437
Puisque 14428
afficher 14425
3,5 14425
Bolivie 14423
opér@@ 14421
Améliorer 14420
présent@@ 14413
18,@@ 14409
termine 14407
divul@@ 14400
paye 14399
criminelles 14397
2012 14394
intégral 14389
savent 14387
hu@@ 14387
quitté 14381
districts 14377
cat@@ 14374
chent 14370
hydrocarbures 14367
subordonn@@ 14365
tente 14365
Conventions 14362
sus 14362
dirigée 14361
prudence 14361
pas@@ 14359
Marine 14359
Ensuite 14356
délic@@ 14350
montr@@ 14342
laissé 14341
allégement 14339
Transport 14338
zi@@ 14332
simplifier 14328
insiste 14323
efforcer 14320
exister 14316
otes 14316
ules 14314
case 14307
Objet 14304
doc 14304
ALES 14304
Homme 14302
èque 14300
Charles 14299
prisons 14296
ano@@ 14293
Ko 14292
simultanément 14284
was 14283
concurrentiel 14281
exécuté 14280
enlèvement 14280
symbole 14278
EST 14273
sécheresse 14271
deurs 14271
qualification 14270
forestiers 14269
transparente 14266
coupable 14266
inspecteurs 14260
ARTICLE 14260
dure 14258
attendus 14257
oxy@@ 14256
prêter 14254
Bal@@ 14249
sac@@ 14245
F.@@ 14244
Thomas 14241
46@@ 14239
obtient 14236
Création 14231
apportent 14227
TP 14225
connexe 14221
uit 14220
Anne 14220
ili@@ 14216
marchande 14214
sul@@ 14214
engagent 14210
Ge@@ 14208
aptitudes 14205
Cr@@ 14203
défenseurs 14201
rues 14199
justifiée 14194
confère 14194
monétaires 14191
Conseils 14191
apprécier 14190
équitables 14189
chée 14189
avenue 14189
EU 14186
viables 14184
inquiète 14182
bail 14182
fumer 14181
Fon@@ 14175
cruciale 14175
anciennes 14175
attendent 14172
diplomatiques 14172
retenus 14170
58@@ 14166
explicitement 14165
préparés 14165
Joseph 14165
FO@@ 14156
présentera 14155
corrélation 14154
interprètes 14151
acceptée 14148
souple 14148
adulte 14145
nuire 14143
Carte 14141
pourvu 14138
rayonnement 14136
légitimité 14135
commençant 14134
stages 14133
Ess@@ 14132
organise 14132
constant 14131
terroriste 14130
aidant 14127
Liechtenstein 14126
sée 14124
réalités 14123
procur@@ 14117
requérants 14116
salon 14112
océan 14110
sc 14109
dos 14108
morales 14106
cigarettes 14102
côtières 14099
préoccupée 14098
supplément 14095
ous 14094
line 14091
Education 14089
collectifs 14088
impliqués 14086
détecter 14086
quinze 14084
terminant 14084
parallèlement 14082
dissu@@ 14078
savez 14075
illégales 14075
sel 14074
European 14074
établissent 14074
extra 14074
asser 14073
posi@@ 14072
taire 14072
attribuables 14072
Arts 14070
Séance 14065
maintenance 14063
derrière 14061
déterminants 14061
insécurité 14059
soulignant 14057
dispar@@ 14055
Adop@@ 14053
Caisse 14052
participantes 14051
arisation 14049
ke@@ 14049
jugés 14044
énumérées 14041
0,0 14041
scénarios 14039
reté 14038
influ@@ 14038
san@@ 14036
Prés@@ 14032
identique 14030
organisationnelle 14029
Vo@@ 14027
Burkina 14026
connec@@ 14025
exceptionnel 14024
lourds 14024
agé 14023
hér@@ 14021
nommée 14020
achever 14018
this 14017
froid 14014
Pre@@ 14014
Irak 14010
utilisez 14009
noti@@ 14007
aggrav@@ 14005
transporter 14004
indices 14001
compétition 13999
prochains 13998
Points 13992
Surveillance 13986
RC 13984
Police 13980
périodiquement 13976
Celui 13975
traitent 13973
ran@@ 13970
sanctionn@@ 13969
signataires 13969
catalogue 13965
zo@@ 13960
ELLE 13959
pencher 13957
ame@@ 13954
CAN@@ 13949
ick@@ 13944
hoc 13940
étudie 13937
Traduction 13937
ratio 13936
ferait 13934
SN@@ 13932
EA 13931
affiche 13930
dégager 13928
tin 13927
soleil 13922
Organisme 13922
prouve 13920
14.@@ 13920
diagnosti@@ 13915
èmes 13912
tentatives 13912
sifs 13912
socioéconomique 13905
fondation 13904
Stockholm 13897
ulaires 13897
ev 13896
Prairies 13896
serveur 13894
Rights 13891
réunis 13881
administrer 13881
ench@@ 13877
Cambodge 13877
Chi@@ 13876
Science 13875
accueill@@ 13871
artifici@@ 13868
logie 13867
recueillis 13865
123 13860
praticiens 13860
lan@@ 13859
occurrence 13858
exécutions 13857
Balkans 13855
protégée 13853
dro@@ 13852
Zimbabwe 13852
ox@@ 13852
Ram@@ 13850
endre 13849
soufre 13849
cs 13848
réservation 13848
réclam@@ 13845
intr@@ 13844
LTC 13844
intéressée 13842
impos@@ 13841
décharge 13841
malades 13841
domestique 13841
cumul@@ 13838
jouissent 13837
gran@@ 13834
capit@@ 13834
Ham@@ 13831
réaliste 13830
individuellement 13826
envoyés 13823
finance 13821
grain 13821
correspondantes 13817
gain 13814
1960 13813
guides 13811
dess@@ 13810
Général 13810
réduisant 13809
VIII 13806
neige 13806
repos 13806
diversification 13801
3.4 13800
annoncer 13798
passif 13798
minimal 13797
honor@@ 13791
FR 13783
excessive 13782
quait 13781
naissances 13781
ech@@ 13781
Faso 13780
Acte 13779
meubles 13774
créées 13773
séries 13772
conserve 13770
absorption 13770
SH@@ 13767
ACP 13766
paquet 13764
incendie 13755
élabore 13754
comprise 13750
atmosphériques 13744
Pas 13743
prévoyait 13742
envisagée 13738
iraquien 13737
poursuivent 13734
débouchés 13732
FI 13731
animal 13730
gère 13729
textiles 13729
bruit 13721
organis@@ 13720
Men@@ 13719
giques 13716
rendant 13715
ja 13715
analytique 13713
Personnes 13713
modélisation 13712
compenser 13711
conscient 13711
sectorielle 13709
fréquences 13707
euro@@ 13702
Bull 13699
up@@ 13698
350 13687
Sam@@ 13686
ama 13685
Demandes 13684
School 13683
cultiv@@ 13675
formules 13671
ger@@ 13670
ciel 13669
abord@@ 13668
Ca@@ 13664
DH 13662
1re 13660
Inuit 13660
march@@ 13654
BO@@ 13653
écosystème 13652
fleuve 13652
Tur@@ 13651
répon@@ 13650
Gl@@ 13647
Jamaïque 13646
clefs 13644
juridiquement 13643
rejetée 13641
na@@ 13641
més 13634
suscité 13626
William 13625
actualité 13623
AC.@@ 13618
voisinage 13617
convaincus 13610
Enregistrement 13605
AAC 13604
ff 13603
incombent 13599
partagée 13598
onnel 13597
appro@@ 13597
administré 13597
PP 13597
Del@@ 13596
différ@@ 13595
Mus@@ 13592
112 13592
payée 13591
détenteurs 13590
Ltd. 13590
77@@ 13586
comparable 13584
affich@@ 13580
instituant 13579
recevabilité 13579
dynamiques 13576
transfrontières 13576
dent 13571
ires 13571
dettes 13571
inten@@ 13568
em 13566
Festival 13563
hôtels 13562
progressé 13558
correc@@ 13556
Fl@@ 13548
instabilité 13546
révisées 13543
nom@@ 13540
sécur@@ 13534
souffrent 13532
exigeant 13529
menant 13522
fiche 13522
1,3 13517
Escadre 13517
magasins 13515
millénaire 13514
inculp@@ 13514
ash@@ 13513
évalue 13511
subsidiaire 13507
sil@@ 13500
mâles 13499
CAR@@ 13499
hon@@ 13496
diamants 13495
domestiques 13492
ara 13489
56@@ 13486
lots 13484
Ob@@ 13483
hôtes 13482
substitution 13476
résidu@@ 13473
ferroviaires 13471
tage 13469
végétation 13469
bourg 13464
ATTENDU 13463
noire 13462
bres 13458
cc@@ 13456
représentaient 13456
Traités 13455
célèbre 13455
contribuables 13453
prés@@ 13449
classées 13447
C.-B. 13445
livrer 13443
Ligue 13442
renforce 13439
formelle 13439
soulevé 13437
dotée 13431
organique 13431
détenues 13430
2020 13428
restaurants 13428
tionnelles 13426
OF 13422
ung 13415
souci@@ 13413
oralement 13413
manufactur@@ 13412
révèlent 13410
entraide 13407
exacte 13402
TU@@ 13401
rondes 13396
Nation 13393
Berlin 13392
Qatar 13390
vera 13387
ide 13385
Te@@ 13384
Amélioration 13383
compromettre 13378
allait 13372
SR.@@ 13370
exécutés 13369
sain 13365
Ouzbékistan 13364
réputé 13364
infirmiers 13362
clairs 13361
nécessitent 13360
posséder 13358
Classification 13357
uer 13354
ail 13352
750 13348
jac@@ 13347
Rio 13344
thé@@ 13343
tutelle 13343
mét@@ 13342
tenait 13340
Quatrième 13338
oul@@ 13338
bulletins 13338
AINC 13338
sc.gc.ca 13338
permette 13336
promet@@ 13336
interpréter 13336
simpli@@ 13334
2.5 13334
permettraient 13333
améliorant 13333
Métis 13326
plastique 13325
diamètre 13322
structur@@ 13315
souffrant 13314
disent 13312
issante 13310
AF 13308
abond@@ 13308
lée 13306
frontaliers 13306
plur@@ 13305
1974 13300
URS 13298
affirmation 13296
GA 13293
fixes 13288
alphabétisation 13284
attributions 13284
Culture 13283
résidant 13281
450 13281
Format 13280
Cam@@ 13279
mil@@ 13275
cellulaire 13270
ret 13268
obligé 13266
enci@@ 13264
6.2 13264
Réaffirme 13264
122 13261
apparaissent 13260
DI 13259
forestière 13255
issaient 13254
artiste 13253
Michel 13253
Vers 13253
Zone 13252
paie 13251
navig@@ 13248
achem@@ 13247
explic@@ 13244
haine 13244
Mali 13243
incendies 13241
sible 13241
dy 13239
Pour@@ 13234
écoute 13232
détach@@ 13232
Hy@@ 13230
déclar@@ 13227
antidumping 13223
collabor@@ 13221
indu@@ 13212
Session 13212
MA 13211
regrette 13208
comptant 13202
préc@@ 13201
avère 13199
Suivant 13199
degrés 13196
tré@@ 13193
dispens@@ 13189
arrivé 13187
Cher@@ 13181
impressionn@@ 13179
hospit@@ 13179
trimestri@@ 13172
SCRS 13170
satisfaisant 13166
arbitraire 13165
différenci@@ 13163
forcé 13163
téléphoniques 13162
débiteur 13160
ciblées 13159
affichage 13157
Production 13154
ov 13153
investi 13152
vers@@ 13145
délits 13143
nor@@ 13137
échelons 13137
professeurs 13135
comptait 13134
architec@@ 13129
roulement 13129
My@@ 13127
dom@@ 13126
Directives 13126
limit@@ 13124
matiques 13122
souffrances 13121
sentir 13115
constructif 13115
exploitations 13114
graines 13113
MES 13112
démobilisation 13111
précon@@ 13109
bilingue 13107
variétés 13106
consign@@ 13104
Mandat 13101
syndicat 13099
iné 13096
aideront 13093
personnellement 13092
gues 13091
manqu@@ 13090
exprimés 13090
Business 13086
export@@ 13085
enseign@@ 13085
tric@@ 13084
partant 13081
préférable 13077
Livre 13076
géré 13076
www.ec.gc.ca 13074
tionnels 13073
hautes 13072
médiateur 13071
isol@@ 13071
ask@@ 13069
échang@@ 13066
Mat@@ 13064
confi@@ 13061
câble 13061
pers@@ 13055
Pou@@ 13055
prouvé 13052
devises 13048
od@@ 13047
Renforcer 13045
CB@@ 13043
FORM@@ 13041
énormes 13039
109 13037
souhaité 13036
extr@@ 13035
séro@@ 13035
publie 13033
rationnelle 13032
yer 13030
fonder 13030
paraît 13026
japonais 13025
agr@@ 13023
immun@@ 13023
priv@@ 13018
référ@@ 13016
suspens 13015
ester 13013
tan@@ 13013
sign@@ 13012
pp@@ 13011
stimul@@ 13009
rédu@@ 13000
AUTONUM 12996
toires 12995
trésorerie 12994
prépare 12991
initiales 12990
empê@@ 12986
soign@@ 12982
transféré 12982
MA@@ 12982
exceptionnelle 12981
volumes 12981
iteur 12977
potentiellement 12976
conventionnels 12975
optimis@@ 12972
remplies 12972
accordent 12971
ast@@ 12969
tivité 12968
légère 12968
attribués 12968
app@@ 12965
ible 12961
eli@@ 12960
Fraser 12954
Esp@@ 12951
CES 12951
OMD 12948
ters 12944
Sixième 12944
autorisant 12941
Centres 12941
On@@ 12939
examin@@ 12937
veillant 12936
discuté 12935
asiatique 12933
ménage 12930
cliquez 12929
accep@@ 12928
arrangement 12928
disposé 12926
pun@@ 12926
soixantième 12925
pens@@ 12921
demandées 12920
sibles 12919
ere 12914
routiers 12913
arriv@@ 12908
consacre 12905
largeur 12905
oeuvres 12903
Hol@@ 12902
Rom@@ 12897
lit@@ 12894
arc@@ 12894
remarques 12893
lez 12887
Environmental 12885
missiles 12880
facilit@@ 12878
PL 12878
contrôlée 12874
garantis 12872
fraction 12870
félicitant 12869
recrutés 12868
prob@@ 12866
stage 12866
prÃ 12866
personnalités 12865
souhaitons 12863
commencent 12863
Bon 12860
poursuivra 12859
enveloppe 12855
END@@ 12855
rai 12854
entourant 12854
croy@@ 12852
adresses 12852
ado 12849
MS 12846
pénurie 12842
Prof@@ 12840
actionnaires 12831
partagent 12830
ambitieux 12829
can 12827
20,@@ 12827
péri@@ 12826
distinguer 12826
précisant 12825
gan@@ 12823
aluminium 12822
biomasse 12821
College 12821
art@@ 12820
Louis 12815
und@@ 12815
débattre 12813
impératif 12813
remplac@@ 12813
Promouvoir 12809
aî@@ 12806
fumée 12805
den@@ 12803
issements 12803
temp@@ 12802
compr@@ 12801
comprenait 12800
mann 12798
OU@@ 12797
cessez 12796
caisse 12794
octroy@@ 12793
Nam 12789
serv@@ 12788
major@@ 12781
û@@ 12781
délit 12780
retrouv@@ 12780
COMMISSION 12779
transparent 12777
accord@@ 12776
ader 12773
les@@ 12771
ographiques 12769
affiché 12768
acét@@ 12768
bénéfici@@ 12765
passent 12765
uniformes 12762
disque 12759
× 12758
µg 12756
Celle 12755
réputée 12750
supprimé 12748
mod@@ 12744
accompagnés 12743
rive 12742
observ@@ 12741
dégrad@@ 12738
collabore 12738
engend@@ 12735
v. 12731
113 12730
pér@@ 12729
enseignant 12728
faç@@ 12726
sav@@ 12726
suivies 12724
ee 12724
DORS 12724
dur 12722
204 12718
ca 12717
c.@@ 12717
Nicaragua 12716
insister 12712
cera 12708
ys 12704
élaborée 12701
PT 12701
réinstallation 12693
augmentent 12690
légalement 12690
Bénin 12687
envisage@@ 12684
liques 12684
cyber@@ 12684
parlement 12680
TNP 12678
Som@@ 12677
Network 12677
0,2 12676
évaluée 12669
design 12667
Recueil 12667
spatiaux 12666
sphère 12663
Bank 12663
fonciers 12662
vide 12661
Emploi 12660
présidé 12654
composant 12653
étiques 12653
Gro@@ 12647
coupe 12644
francophone 12644
S.E. 12643
Troisièmement 12642
nier 12641
chang@@ 12641
suspendre 12639
ols 12635
fabriqués 12635
stagiaires 12633
aur@@ 12632
Sources 12632
égide 12630
incluses 12628
vieux 12625
transform@@ 12625
fi 12624
121 12622
sement 12622
Vol@@ 12621
TVA 12620
Uni@@ 12619
sectoriels 12613
reur 12612
rapatriement 12611
touché 12610
semestre 12610
gal@@ 12607
ty 12607
pandémie 12606
fonctionn@@ 12605
privilèges 12599
déplacer 12598
créativité 12598
á 12598
ensembles 12596
sondages 12594
Bissau 12594
totaux 12592
Méditerranée 12590
roulant 12588
Aviation 12587
interdisant 12586
General 12585
conven@@ 12583
mesur@@ 12582
bain 12578
délégué 12578
injection 12578
respectés 12574
mono@@ 12571
bre@@ 12570
chant 12568
aut 12568
minoritaire 12568
Immigration 12568
ètre 12567
Ensemble 12566
jardin 12565
rir 12564
charte 12556
partagés 12551
ney 12551
tenons 12545
italien 12545
encouragés 12545
GN@@ 12543
chaud 12542
geant 12542
sis 12542
mesurée 12540
cellule 12540
carburants 12539
hydrogène 12537
bel@@ 12531
Garde 12527
.... 12522
ick 12522
Club 12519
oll@@ 12517
dg@@ 12515
ion@@ 12513
ita 12509
possédant 12507
homologues 12506
iterait 12505
Tor@@ 12505
IA 12505
SG 12504
réglementer 12503
ATS 12503
souff@@ 12497
racines 12497
Pan@@ 12491
bactéries 12490
fermes 12489
mari 12489
préfér@@ 12488
guider 12487
portion 12486
fonctionnels 12486
étudi@@ 12485
démontrent 12484
abondance 12482
ois 12476
1,4 12474
grains 12472
refl@@ 12470
calculée 12470
calme 12469
espérer 12468
135 12468
payable 12467
préparatoires 12465
animale 12462
barrières 12461
protège 12459
dat@@ 12458
coopérative 12455
bassins 12453
Coll@@ 12451
éner@@ 12449
lendemain 12445
retiré 12444
Fi@@ 12443
rentable 12439
érie 12439
certi@@ 12439
justifié 12438
soulève 12438
reurs 12438
renvoie 12436
isolement 12433
mandataire 12433
modi@@ 12429
municipal 12428
honn@@ 12427
recruter 12424
annuellement 12423
pénitentiaire 12419
MM. 12414
consultant 12411
assimil@@ 12409
iraqui@@ 12408
toxicomanie 12407
Wal@@ 12407
importées 12405
majeures 12403
artistiques 12403
inée 12402
couches 12401
piscine 12400
part@@ 12393
hr@@ 12393
19,@@ 12391
prolongation 12386
Western 12386
reposent 12383
suiv@@ 12382
EMENTS 12381
grippe 12379
israélienne 12377
embauche 12373
monter 12371
FS 12371
çait 12370
forestières 12370
bataille 12370
DD 12366
rencontrés 12360
we@@ 12360
dépassé 12358
avais 12357
thèses 12355
étendu 12349
criminelle 12347
quotidiennes 12347
City 12347
onzième 12346
encour@@ 12344
antécédents 12340
antérieurement 12336
remarque 12333
Véri@@ 12330
San@@ 12328
proposent 12319
rejeter 12319
mètre 12318
visitez 12318
représentées 12314
Tchad 12314
Vu 12313
Personnel 12313
mènent 12311
16.@@ 12311
sous@@ 12310
projections 12309
flam@@ 12305
Department 12305
optimale 12302
Ben@@ 12301
engins 12299
déclarées 12297
faculté 12296
interface 12296
clarté 12295
estimatif 12293
informée 12291
concertée 12291
personnalité 12287
Zambie 12287
munis 12286
immunité 12285
érosion 12285
reven@@ 12279
ote 12275
13.@@ 12272
dépass@@ 12270
Wi@@ 12269
distingu@@ 12269
justifie 12267
opi@@ 12265
Opérations 12265
1972 12264
Suivi 12262
Matériel 12262
agréable 12260
onc@@ 12259
parl@@ 12252
résolu 12252
dy@@ 12252
océ@@ 12252
rel 12251
employ@@ 12246
ature 12246
pre@@ 12245
Parc 12244
condamnés 12238
réduits 12236
procureurs 12236
élé@@ 12234
Catégorie 12233
disant 12231
Présidents 12231
interinstitutions 12231
intégralité 12230
insertion 12230
116 12229
prot@@ 12226
achet@@ 12225
structurelles 12224
EPA 12223
provient 12220
boîte 12217
ÉES 12214
canaux 12213
candidate 12212
pilotage 12211
pluriannuel 12208
rs 12208
ics 12207
envoyée 12199
OUI 12199
distribués 12197
socioéconomiques 12195
imposable 12192
ajust@@ 12191
produ@@ 12190
plénières 12187
Encourage 12186
classé 12184
diminue 12181
confié 12179
Global 12175
DC@@ 12175
09@@ 12172
But 12170
sinon 12165
fonctionnelle 12165
identifiées 12165
écrits 12162
reli@@ 12158
vécu 12156
récepteur 12156
diesel 12156
CIC 12153
Dispositions 12149
expose 12146
mobilières 12145
ME@@ 12140
TEN@@ 12138
parvenu 12133
neu@@ 12133
étés 12132
Contributions 12129
Jacques 12128
tus 12128
imp@@ 12127
pur 12126
EP 12125
anis@@ 12122
inhib@@ 12122
lance 12120
Bor@@ 12118
belle 12114
hétéro@@ 12114
informelle 12114
jugées 12110
fille 12109
créancier 12106
moments 12104
saisis 12103
religions 12098
Tra@@ 12095
genres 12093
Copenhague 12091
horizontale 12089
littérature 12087
bénévole 12084
ura 12083
maïs 12083
CCI 12083
MINUK 12082
acceptées 12082
simplification 12078
côtes 12071
oration 12068
céréales 12067
ID 12064
rac@@ 12062
oblige 12060
chimie 12059
démo@@ 12058
bilatéral 12058
exécu@@ 12055
milit@@ 12053
constructive 12051
ledit 12048
oral 12046
exceptionnelles 12046
habitudes 12046
Voy@@ 12045
agu@@ 12044
rapprochement 12042
ill 12041
conjointes 12037
circulaire 12037
contraires 12029
conn@@ 12023
revendication 12022
bilingues 12021
préavis 12019
Comp@@ 12019
go 12017
Initiatives 12016
encadrement 12015
faillite 12014
optimiser 12013
renvoyer 12010
mécanique 12009
diffusé 12007
lev@@ 12006
brève 12005
Église 12004
troph@@ 12003
iteurs 12001
Amnesty 12000
favorablement 11999
gne 11997
erez 11995
descriptions 11995
café 11995
géo@@ 11994
LCPE 11991
eri@@ 11989
musée 11985
bâ@@ 11983
chem@@ 11981
localisation 11979
appel@@ 11975
sable 11972
CFC 11972
wagons 11971
Opération 11970
décou@@ 11969
CRC 11969
nul 11966
Center 11964
adjointe 11961
promoteurs 11959
fini 11954
TC@@ 11953
paroles 11947
mag@@ 11947
invasion 11946
ﬁn@@ 11946
spatial 11940
arrêtés 11938
act@@ 11938
biom@@ 11935
jouissance 11930
dotées 11928
stabil@@ 11924
justement 11923
chron@@ 11923
éclai@@ 11921
ordonnances 11920
éman@@ 11919
oires 11916
stables 11914
corporels 11914
London 11911
avérer 11909
Â 11908
réservoir 11907
rejoindre 11906
correctionnel 11906
abrog@@ 11905
aurez 11904
revues 11904
1.5 11903
provoqué 11900
impartialité 11899
esclavage 11893
MONUC 11892
pul@@ 11891
OP@@ 11891
cycl@@ 11889
70@@ 11888
prorogation 11885
Merci 11883
entraînent 11882
agi 11881
élarg@@ 11880
égales 11877
reposant 11877
estim@@ 11876
basées 11876
Élaborer 11876
sci@@ 11875
n.m. 11874
rang@@ 11873
alo@@ 11872
empêchent 11871
Résultat 11868
TE@@ 11867
Province 11867
pard 11865
visas 11864
beau 11862
Élaboration 11862
suisse 11861
entent 11858
émergence 11857
cuivre 11855
transférés 11854
DM@@ 11853
séquences 11852
Règle 11847
sortes 11846
tants 11844
inverse 11842
jouir 11842
transmissibles 11840
populaires 11836
aus@@ 11836
décolonisation 11833
coû@@ 11832
prescription 11832
motivation 11828
75@@ 11827
ish@@ 11822
ien 11821
ajou@@ 11818
iller 11818
vapeur 11818
bâtir 11816
forestier 11816
exportateur 11816
Lim@@ 11813
pensée 11812
114 11811
lu 11810
well 11810
légalité 11808
89@@ 11805
prolongée 11800
chées 11795
Référence 11794
bis@@ 11792
attribuée 11792
public@@ 11792
conditionn@@ 11790
entamer 11788
voulue 11788
mus@@ 11788
dites 11787
conju@@ 11786
Appendice 11786
étrique 11780
exemp@@ 11775
rémunéré 11773
représentait 11772
nettes 11772
générer 11771
vre 11771
bétail 11770
signés 11768
nº 11768
pil@@ 11766
entretiens 11766
mutuel 11766
commen@@ 11765
Na@@ 11765
sec 11764
DÉCISION 11764
inférieures 11761
instar 11761
Sauf 11759
forums 11759
clin@@ 11753
Sy@@ 11751
om 11750
REER 11748
accompagner 11746
multilatérale 11740
édi@@ 11735
Mozambique 11735
contenue 11734
N.@@ 11733
quartiers 11732
signal@@ 11728
rotation 11727
endra 11724
Établissement 11724
Ti@@ 11723
Prévention 11721
lim@@ 11720
117 11720
LOI 11718
abordé 11714
lits 11712
Planification 11708
endant 11707
138 11707
émettre 11706
circonscriptions 11706
Tro@@ 11698
sais@@ 11697
ls 11691
ITE 11691
acquises 11689
refus@@ 11687
reprend 11687
fonctionnent 11687
col 11686
² 11685
2.2.@@ 11684
65@@ 11683
way 11683
Français 11681
denti@@ 11681
indemn@@ 11679
TOTAL 11679
sives 11678
onnant 11677
ore@@ 11677
Mer@@ 11673
Élections 11673
gag@@ 11671
véritables 11670
inondations 11666
oxyde 11666
délivrer 11665
puissances 11665
gérées 11662
bilatérale 11662
Crédits 11662
Original 11657
nouvellement 11656
auspices 11656
certitude 11655
attestation 11652
assemblées 11652
influent 11651
pap@@ 11650
provoquer 11647
Op@@ 11647
onie 11645
fret 11644
subdivision 11641
non@@ 11638
piste 11637
aspirations 11637
icité 11636
ède 11634
effectu@@ 11634
gent 11633
expul@@ 11632
audio 11632
parallèles 11629
transmise 11629
Press 11628
Mécanisme 11626
Études 11623
accordant 11622
réparties 11621
info 11621
éloignées 11620
montagne 11619
installés 11618
anticip@@ 11617
renoncer 11617
afférentes 11614
Gal@@ 11614
doctorat 11614
indigènes 11611
sen@@ 11608
thermique 11607
Américains 11602
124 11601
pê@@ 11599
FEM 11599
CEI 11597
physi@@ 11596
tou@@ 11593
auc@@ 11590
gagn@@ 11590
66@@ 11590
Population 11588
précisés 11587
CONSEIL 11586
statuts 11582
Maison 11582
O. 11582
cur@@ 11579
King 11579
circul@@ 11577
dépassant 11575
hépatite 11575
Microsoft 11572
Beau@@ 11570
Phot@@ 11567
séparés 11566
f.html 11566
Confédération 11563
norm@@ 11562
FL@@ 11562
détaillants 11560
travailleuses 11557
pourrons 11555
tellement 11554
alloués 11554
voulait 11554
ventilation 11550
80@@ 11548
Park 11548
143 11548
alise 11546
convo@@ 11546
combiné 11546
Es@@ 11545
Cré@@ 11544
5.3 11542
ba 11539
tro 11537
restitution 11534
vin@@ 11533
commerci@@ 11533
quête 11533
test@@ 11533
priés 11533
viol 11532
tron@@ 11531
Panama 11531
iciens 11530
air@@ 11529
lumin@@ 11527
Amériques 11526
adhéré 11517
gouverneurs 11516
coalition 11514
permission 11514
réfugié 11513
Documentation 11513
416 11509
ande 11508
influencer 11506
préventive 11506
parlant 11500
appliqu@@ 11497
bénéficiant 11496
Téléc 11495
tionnellement 11491
recru@@ 11491
Aff@@ 11488
équivalents 11487
front 11486
Soulignant 11486
FOR@@ 11485
Island 11483
revi@@ 11482
Street 11481
acheté 11477
manifest@@ 11476
persistance 11476
conteneurs 11475
venues 11475
dirige 11475
déduire 11474
succession 11474
modifie 11472
déclarant 11472
crainte 11471
recruté 11471
conducteurs 11470
fallu 11469
apparemment 11468
inc 11468
127 11467
affirment 11467
collèges 11467
témoignent 11462
toire 11461
alignés 11460
Honduras 11459
multipli@@ 11456
endommag@@ 11455
questionnaires 11454
margin@@ 11454
UR 11454
primauté 11452
TER@@ 11451
ave@@ 11448
eut 11447
Is@@ 11445
terrasse 11444
préférences 11441
recommand@@ 11440
griefs 11440
comté 11439
recommandée 11438
128 11437
proj@@ 11433
insuffisante 11432
Leurs 11432
7.1 11430
ices 11429
gré 11428
IV@@ 11424
Community 11423
Fo@@ 11420
dents 11418
ari 11418
supports 11417
m2 11417
douanières 11414
eusement 11413
Décret 11413
rapproch@@ 11411
jam@@ 11406
balance 11405
croient 11404
Infrastructure 11404
portaient 11399
déplacés 11399
incorporer 11399
conform@@ 11397
situ@@ 11397
rog@@ 11397
grade 11397
Syrie 11394
attentivement 11393
libanais 11382
Ajouter 11381
Commonwealth 11381
Lac 11380
évoluer 11379
118 11376
évolu@@ 11374
placées 11374
implantation 11371
87@@ 11371
solliciter 11367
étatiques 11367
Sa@@ 11367
field 11366
maintient 11364
voudrait 11359
financée 11355
constitutionnelles 11355
Phase 11355
isi@@ 11354
ao 11352
créent 11351
contamin@@ 11350
Soutien 11349
convaincue 11342
limitations 11342
contourn@@ 11341
originaux 11339
itez 11337
volontairement 11336
Met@@ 11336
BEI 11334
diff@@ 11334
rassembler 11331
itera 11331
96@@ 11330
COSEPAC 11330
schéma 11328
segment 11324
rembourser 11323
Postes 11321
sensibil@@ 11320
contest@@ 11319
ignor@@ 11318
acheteurs 11318
exclusif 11317
internationalement 11316
portuaires 11314
serviront 11314
analogue 11309
GE@@ 11309
RPC 11307
enceinte 11306
vital 11306
accompli@@ 11305
BPC 11301
fauteuil 11299
affecte 11297
francs 11296
Foundation 11295
Rev@@ 11292
mentionn@@ 11290
vendu 11289
éloign@@ 11282
montagnes 11281
réservés 11280
Celles 11279
amment 11277
QC 11276
sûre 11275
marquage 11275
toucher 11275
élég@@ 11274
ro 11273
conditionnelle 11273
mes@@ 11270
invent@@ 11270
nez 11269
INE 11268
ssement 11267
éprouv@@ 11265
décentralisation 11264
Glossaire 11262
arrêts 11260
verbale 11259
Viet 11256
eter 11253
1000 11248
fermé 11247
Atelier 11247
TRADUCTION 11247
valables 11244
Yémen 11243
Amsterdam 11240
méritent 11239
Regina 11235
MIN@@ 11235
proprement 11231
rupture 11231
élec@@ 11224
itée 11222
pensent 11218
igne 11218
fro@@ 11217
laissent 11209
odi@@ 11206
coûteux 11206
604 11203
bras 11200
moyennant 11195
132 11195
trouvait 11193
lité 11193
prolong@@ 11193
gam@@ 11193
interruption 11193
regroupe 11190
Policy 11189
Pas@@ 11188
réun@@ 11185
vi 11183
moderniser 11180
correspondante 11180
confier 11180
joints 11179
los 11176
restreindre 11170
héritage 11169
cé@@ 11169
effectuent 11168
résul@@ 11165
larges 11164
prescrits 11164
Discours 11162
auté 11159
détruire 11158
Tadjikistan 11158
pur@@ 11157
substantielle 11157
20.@@ 11155
suicide 11154
émises 11152
dan@@ 11151
noyau 11151
Indicateurs 11150
contraignant 11149
bagages 11149
In 11149
terie 11147
améliore 11146
implications 11145
urgences 11145
poursuiv@@ 11143
coefficient 11142
recouv@@ 11139
explor@@ 11136
condam@@ 11135
Conclusion 11135
œuvrer 11135
perçu 11134
fondations 11134
nou@@ 11133
NO 11132
Г 11132
piliers 11128
coïn@@ 11127
potentielles 11127
sel@@ 11126
écrire 11122
invitées 11122
renouveler 11120
mant 11119
honoraires 11117
Airlines 11114
ANTS 11114
métal 11113
p.ex. 11113
exon@@ 11112
représentée 11110
flotte 11109
végétales 11108
Lam@@ 11107
1968 11107
saisonn@@ 11106
éducatives 11106
contrôlé 11105
First 11105
remplace 11101
amont 11098
trousse 11097
diligence 11095
affectations 11095
dissoci@@ 11094
conservés 11094
mette 11092
émin@@ 11090
4.4 11090
illon 11089
ultérieures 11087
ling 11087
Not@@ 11087
LL@@ 11086
assist@@ 11084
ciblés 11084
hectares 11083
surfaces 11078
Fax 11077
adéquatement 11076
répond@@ 11075
créance 11074
enten@@ 11073
signalisation 11072
prévoy@@ 11072
télécharger 11072
dra 11071
intrants 11071
OL@@ 11064
4,5 11062
commettre 11060
placée 11060
exercée 11060
constructeur 11060
cid@@ 11057
égi@@ 11056
réservoirs 11051
croyons 11050
cel@@ 11050
ison 11049
consult@@ 11044
suites 11042
SION 11041
RNCan 11040
antipersonnel 11037
Cap@@ 11033
choisie 11031
club 11030
brochure 11030
Dem@@ 11028
charger 11022
ik@@ 11022
Ouverture 11022
Précédent 11022
faiblesse 11021
plo@@ 11021
habituelle 11020
écoul@@ 11019
viens 11016
équipés 11015
CONF.@@ 11015
olympique 11014
veill@@ 11011
fluctuations 11009
Pourcentage 11006
ession 11004
mille 11003
liaisons 11002
Ir@@ 10999
phén@@ 10996
indirecte 10995
IB@@ 10995
arron@@ 10994
évolué 10993
nant 10991
L.C. 10990
relle 10988
piles 10987
centrafricaine 10986
écar@@ 10985
Ed@@ 10984
mesuré 10982
FN@@ 10982
gouvern@@ 10981
coopér@@ 10981
seuils 10978
symboles 10977
féminines 10975
chera 10969
not 10968
Johannesburg 10968
conclue 10966
Rel@@ 10966
panneaux 10965
ONS 10964
approfondir 10962
documentaire 10962
rare 10961
Ten@@ 10961
5e 10960
uk 10960
tot@@ 10959
facilitant 10957
bec 10956
mol@@ 10956
consistent 10955
visuelle 10954
Contribution 10954
produisant 10953
53@@ 10952
Hamilton 10950
réintégration 10949
explicite 10948
enf@@ 10947
Palais 10947
profits 10946
parrain@@ 10946
dépassent 10945
institut 10945
duc@@ 10944
figur@@ 10941
globalement 10938
exhor@@ 10938
plac@@ 10938
ry@@ 10937
Monterrey 10936
rép@@ 10933
estimée 10932
onique 10927
débuté 10926
doubles 10925
Hall 10925
abstenir 10922
0,000 10920
interjeté 10918
1,1 10916
rénovation 10915
Ak@@ 10914
rendez 10913
Principaux 10911
revendi@@ 10910
fondements 10909
opportunités 10908
systématiques 10907
ordonner 10906
clo@@ 10905
IM 10905
constitués 10904
acceptés 10903
II@@ 10903
autrui 10902
fur@@ 10902
avertissement 10900
essor 10899
Loc@@ 10899
CNUDCI 10899
prolonger 10898
ode 10895
dominante 10895
Sport 10895
Appel 10894
pourparlers 10889
résist@@ 10889
chloro@@ 10886
Peut 10884
je@@ 10883
NE@@ 10883
homo@@ 10876
débar@@ 10872
désire 10871
immobilier 10870
prescrites 10870
pédagogiques 10866
Mel@@ 10866
ELS 10865
indre 10862
ald 10860
postsecondaire 10860
précurseurs 10859
dominicaine 10859
influer 10858
INRP 10858
tru@@ 10856
icien 10853
exposer 10852
Sec@@ 10851
Tu@@ 10847
optimales 10845
regar@@ 10841
plateau 10839
RELATIF 10837
diffèrent 10835
itement 10834
divergences 10833
of@@ 10833
accrues 10830
amine 10829
souterraines 10827
leader 10824
enrich@@ 10823
éthiques 10822
consultés 10821
Dre 10817
CN.@@ 10817
Permettez 10816
restant 10816
Activité 10815
témoignages 10809
PAM 10808
PB@@ 10808
170 10807
convenable 10801
nourr@@ 10801
interdite 10799
ero 10798
Unie 10797
purement 10796
soigneusement 10795
RR@@ 10794
wi@@ 10793
Syn@@ 10790
ok@@ 10789
ˆ 10786
redoubler 10785
préambule 10784
postale 10783
modé@@ 10782
constat@@ 10781
libyenne 10781
SCC 10781
MI@@ 10779
Stephen 10778
attendu 10777
aches 10776
varier 10776
tue 10772
Fonc@@ 10771
commun@@ 10769
contingent 10769
Gouvernements 10768
accompagnement 10767
gratitude 10766
encourag@@ 10766
agres@@ 10765
épuis@@ 10765
annu@@ 10765
géni@@ 10764
Bon@@ 10763
incorporation 10758
amené 10754
longs 10752
rénov@@ 10752
tho@@ 10751
respec@@ 10747
préserv@@ 10744
potentielle 10744
activ@@ 10744
coordonn@@ 10744
portuaire 10742
tion@@ 10740
reproduit 10738
pornographie 10735
quanti@@ 10733
contrôl@@ 10731
Élection 10730
serais 10729
illégal 10729
dimensionn@@ 10726
Ban@@ 10725
portail 10725
oire 10722
allocution 10721
Res@@ 10719
Pap@@ 10719
FR.doc 10718
unilatér@@ 10716
Location 10713
injec@@ 10708
64@@ 10703
fabriquer 10702
ots 10701
rayons 10701
disposés 10700
décro@@ 10697
activation 10697
manifesté 10695
dement 10695
ich 10695
ambassade 10693
atin@@ 10693
17.@@ 10693
collaborateurs 10690
Assurer 10690
contrôlées 10689
priées 10689
1,0 10688
prévaloir 10687
ini 10686
119 10685
Contrairement 10683
couvrent 10680
JU@@ 10680
514 10680
strictes 10679
poussée 10677
proclam@@ 10674
analytiques 10672
133 10671
ieux 10670
Comm@@ 10669
porte@@ 10667
rivières 10667
représentatif 10657
maître 10652
time 10651
armement 10650
lanc@@ 10646
you 10646
développées 10645
chau@@ 10644
anger 10644
extrêmes 10642
annex@@ 10642
embargo 10638
Moscou 10637
ab 10635
dig@@ 10634
bien@@ 10633
andes 10631
West@@ 10630
--@@ 10629
compt@@ 10625
significativement 10621
AUTRES 10621
129 10620
séquence 10620
appuy@@ 10620
Modification 10620
intentions 10619
kin 10619
pourvoir 10618
Employeur 10614
couple 10604
Technologies 10603
élan 10602
Assistance 10602
RSS 10602
stationnement 10601
accompagne 10601
aiss@@ 10599
harmon@@ 10598
mont 10598
dénomination 10595
CU@@ 10594
infr@@ 10593
210 10591
embau@@ 10589
réglement@@ 10587
proposant 10587
pharmaceutique 10585
olé@@ 10582
rappel 10580
Pol@@ 10575
mauvaises 10572
terminologie 10572
DO 10572
mic@@ 10571
suggèrent 10571
subséquente 10569
facture 10568
collectivement 10565
décentr@@ 10563
four@@ 10563
recommandées 10561
bactéri@@ 10561
220 10560
turé 10560
institu@@ 10557
Établir 10557
Gendarmerie 10556
.html 10555
minute 10554
mL 10553
neau 10549
antérieur 10549
leaders 10549
PF 10549
reddition 10549
sap@@ 10548
document@@ 10548
assujetties 10543
ks 10543
cos@@ 10541
désirent 10539
isolées 10539
agn@@ 10537
comb@@ 10536
altitude 10535
Ke@@ 10534
coré@@ 10532
hebdomadaire 10531
défin@@ 10529
voyager 10529
voilure 10527
limitent 10524
êt@@ 10523
requêtes 10523
agroalimentaire 10523
complété 10522
immigrés 10520
ange 10518
lecteurs 10518
mang@@ 10515
formalités 10514
disciplinaire 10513
ologies 10513
concilier 10510
attribuées 10509
sains 10509
sauvage 10508
sent@@ 10508
convaincre 10508
Règlements 10508
Van 10505
AG 10501
accusations 10500
froide 10500
onnez 10499
f.@@ 10499
payées 10498
globaux 10497
vr@@ 10497
Contrôle 10495
isolés 10494
constituaient 10493
étroit 10493
Cop@@ 10493
rep@@ 10492
consulaires 10492
institué 10491
remplit 10491
141 10490
ray@@ 10489
relev@@ 10486
verbaux 10485
couverte 10483
comport@@ 10480
sélectionnés 10480
assujetti 10480
lourd 10479
détourn@@ 10478
Mé@@ 10478
quin@@ 10474
factures 10474
30.@@ 10474
confidentiels 10472
COMITÉ 10472
indiqu@@ 10471
archi@@ 10467
Agent 10466
douzième 10462
croisement 10461
suivis 10461
py@@ 10460
évacuation 10458
inés 10458
Ach@@ 10455
SD@@ 10454
Gouverneur 10451
approfondies 10449
jouit 10447
devoirs 10446
administrés 10445
orge 10443
0,3 10443
sse 10442
semences 10441
cle 10439
chinoise 10439
Durban 10439
Subventions 10439
soumissions 10438
aison 10436
ino 10433
crist@@ 10433
BI@@ 10432
sique 10431
Namibie 10430
quotes 10429
PSN 10427
Net 10425
embl@@ 10424
sonore 10424
1.3.@@ 10424
hostilités 10423
migr@@ 10421
onde 10421
basés 10419
développe 10419
intéresser 10418
notable 10415
Mot@@ 10415
salariale 10410
ham@@ 10409
brou@@ 10408
gies 10408
sûrs 10407
ue@@ 10407
comparaisons 10405
évolutions 10404
ros 10403
Sim@@ 10403
reau 10402
préoccup@@ 10399
3.5 10397
19.@@ 10397
dresser 10396
douleur 10396
annon@@ 10394
décor@@ 10393
métalliques 10392
remercié 10389
Régions 10389
ondes 10387
entrave 10386
diffus@@ 10385
jaune 10383
Mongolie 10382
Reine 10382
musulmans 10381
atis@@ 10377
clef 10376
indirects 10375
tern@@ 10372
ébauche 10372
din@@ 10371
bureaucrati@@ 10368
Main@@ 10368
pilier 10366
informelles 10366
2,4 10366
audit@@ 10365
ouvrant 10363
abs@@ 10361
House 10361
égards 10360
équilibré 10357
tière 10357
touristes 10357
Saskatoon 10356
interven@@ 10355
USD 10351
inées 10351
Exemple 10351
humidité 10349
objective 10348
entend@@ 10347
aborde 10346
chômeurs 10341
encouragent 10341
perpétu@@ 10340
ster 10337
carrés 10336
habilité 10335
peuplement 10334
exigés 10334
communique 10330
Board 10324
imprimée 10322
primordial 10321
perçus 10321
grandis@@ 10320
comprises 10320
ister 10320
frapp@@ 10317
mélanges 10316
pes@@ 10314
mensuel 10312
PAC 10311
latitude 10309
sens@@ 10308
Daniel 10308
ariat 10307
Transfert 10304
synergies 10303
instaur@@ 10300
promul@@ 10296
Administrateur 10292
détriment 10291
Arrangement 10291
PRÉSIDENT 10291
Jamahiriya 10290
Sahara 10288
Ang@@ 10287
déminage 10287
sante 10285
subissent 10284
famili@@ 10284
vivants 10284
horizon 10282
destinataire 10282
guerres 10279
54@@ 10279
faciles 10278
réunies 10272
réjou@@ 10271
régissent 10271
cien 10271
thi@@ 10268
Technology 10266
prétend 10265
étiquettes 10265
Ku@@ 10265
68@@ 10265
IR 10265
ONU@@ 10263
interprétations 10262
cinéma 10261
ING 10261
anne 10260
colis 10259
TD 10259
bloc 10255
sommaires 10254
blanche 10252
morph@@ 10250
flu@@ 10247
environs 10245
gratuite 10244
Lou@@ 10243
Peu 10241
bur@@ 10241
Traitement 10235
encouragement 10234
métier 10232
7e 10229
oun@@ 10228
interprète 10225
circuit 10224
175 10224
novateurs 10222
oit 10222
NEPAD 10222
étriques 10220
pistes 10217
cohérent 10217
dimanche 10216
Recettes 10216
industrialisés 10215
extraits 10214
crire 10213
Structure 10213
coupables 10211
Instituts 10211
inspec@@ 10204
solaire 10203
Dossier 10202
criti@@ 10201
modifi@@ 10201
Pen@@ 10200
oppose 10199
18.@@ 10199
if 10197
SMA 10193
constituées 10192
States 10192
turés 10191
enrichissement 10188
oles 10188
Construction 10187
autobus 10182
additionnelle 10181
0,7 10180
réd@@ 10179
nécessitant 10178
Exigences 10177
eur@@ 10170
moléculaire 10167
Pri@@ 10165
vive 10165
pratiquer 10163
Sont 10163
compil@@ 10162
Rou@@ 10161
Sin@@ 10156
attendons 10154
dits 10153
sévices 10150
thérapie 10148
Cisjordanie 10146
comparative 10144
nées 10143
érable 10140
mo 10140
intergouvernementaux 10139
Systèmes 10138
financements 10134
tire 10132
équ@@ 10132
devienne 10131
méd@@ 10130
instruc@@ 10129
ukrain@@ 10129
maturité 10128
extrabudgétaires 10128
angulaire 10124
pru@@ 10122
ultime 10122
corrig@@ 10121
iteront 10120
fix@@ 10120
trib@@ 10120
Place 10119
1,6 10118
Volume 10117
126 10116
refuse 10115
nam@@ 10115
tat@@ 10114
navigables 10113
maintes 10111
samedi 10111
satisfont 10110
techniciens 10110
consistait 10108
structuré 10108
Appui 10108
éni@@ 10104
cô@@ 10104
ajoutant 10104
fusionn@@ 10104
Monaco 10104
sportifs 10101
inutile 10098
simul@@ 10098
distribu@@ 10096
souche 10095
joueurs 10094
iter@@ 10094
répar@@ 10090
Majesté 10089
incompatible 10087
idi@@ 10083
Lib@@ 10082
déplac@@ 10078
étroits 10078
dation 10078
tionnaire 10076
John&apos; 10076
branches 10075
Préc@@ 10075
TÉ@@ 10075
ella 10071
LTD 10066
157 10065
2,2 10061
tiss@@ 10060
bouton 10059
pin@@ 10059
Golfe 10057
venait 10054
U.S. 10054
Ou@@ 10054
prononcées 10051
pat@@ 10051
correspondre 10050
1949 10050
chan@@ 10047
maximiser 10046
landais 10043
957 10043
anie 10042
MB 10042
CRSH 10042
tar@@ 10040
Coûts 10040
anony@@ 10038
Bâle 10038
significatifs 10036
concrétiser 10035
protéine 10035
migrateurs 10033
sect. 10033
inégalité 10032
coordonné 10030
viendra 10029
uri@@ 10025
accident@@ 10024
justi@@ 10023
concession 10022
acquisitions 10020
pin 10020
182 10018
ication 10018
puissant 10017
italienne 10016
opposé 10016
temporairement 10016
édifice 10013
montée 10011
Barcelone 10011
24,@@ 10011
influenza 10009
anci@@ 10005
PARTIE 10005
lent 10002
agréé 10002
uniform@@ 9997
instr@@ 9997
ÉT@@ 9996
finir 9992
absorb@@ 9992
composer 9992
Info 9992
réserver 9989
rationaliser 9989
combinés 9989
regroup@@ 9988
anciers 9988
volon@@ 9987
agrég@@ 9986
composent 9986
cercle 9985
préoccupés 9984
Bat@@ 9984
daté 9983
BSCI 9982
illégaux 9977
intervalles 9976
olympiques 9976
roul@@ 9975
cités 9973
chement 9973
susmentionnée 9972
pommes 9971
Crédit 9969
justes 9964
paraître 9963
South 9962
organ@@ 9960
guée 9959
montrant 9954
docs 9954
tiendront 9949
réparations 9949
alliés 9945
ary 9944
notions 9944
tués 9942
emplacements 9942
José 9940
foli@@ 9940
sage 9939
harmonie 9933
exempte 9931
journées 9929
Chacun 9925
rob@@ 9924
révéler 9923
engrais 9923
transfrontière 9923
Citoyenneté 9920
défen@@ 9919
more 9919
2,3 9918
horaires 9918
plaque 9917
I&apos; 9916
RMR 9915
vidéos 9914
papiers 9913
lo 9912
traits 9908
valor@@ 9906
hasard 9906
correcte 9904
entour@@ 9901
902 9901
ponts 9900
Kh@@ 9899
repérer 9899
actu@@ 9898
incorpo@@ 9898
1,000 9897
apports 9895
Ret@@ 9895
exercées 9895
interprété 9895
délivrés 9894
IG@@ 9894
law 9891
restreinte 9887
oise 9887
souver@@ 9887
anche 9884
ventilées 9884
Sar@@ 9883
reproduire 9879
causée 9877
détenteur 9877
ution 9873
abandonner 9873
simulation 9871
ip@@ 9871
fiches 9870
thèse 9868
fur 9867
dispenser 9867
proposons 9866
gou@@ 9865
marqu@@ 9862
collaboré 9862
tch@@ 9862
notation 9862
MHz 9862
DROITS 9862
origines 9857
rentr@@ 9855
épidémi@@ 9855
renseigner 9855
écoulée 9850
consentis 9847
Red 9847
L.R.C. 9847
gs 9844
136 9842
Avantages 9842
doctrine 9841
alim@@ 9839
exact 9838
lé 9837
1969 9837
fenêtre 9835
opérateur 9833
Assurance 9832
maire 9829
eption 9829
rapidité 9827
déclench@@ 9826
étay@@ 9826
édé 9825
récol@@ 9824
Program 9824
licenci@@ 9823
abordés 9821
Utilis@@ 9821
TELUS 9821
silence 9819
7,5 9816
pris@@ 9816
résolus 9814
matériau 9814
volati@@ 9811
contribueront 9811
145 9810
détru@@ 9809
intern@@ 9809
amour 9808
associ@@ 9807
Formulaire 9806
Museum 9804
remplacée 9800
tÃ 9800
Fourn@@ 9799
dentaires 9799
prépar@@ 9797
métiers 9797
Scott 9796
résultent 9794
rigoureux 9793
souhaitera 9790
analysé 9789
grève 9789
fête 9789
Bil@@ 9788
index@@ 9788
8.2 9788
suisses 9782
réformer 9781
CH 9781
134 9780
Gé@@ 9780
demandait 9779
végétaux 9777
réfléch@@ 9776
photographies 9774
référer 9773
1,8 9771
lancés 9766
CA@@ 9766
pacte 9762
augmentant 9762
manutention 9762
procréation 9760
théorique 9759
COR@@ 9759
plages 9758
′ 9758
RAPPORT 9757
extrait 9752
Av@@ 9751
valorisation 9751
prim@@ 9750
Social 9750
Nice 9748
fonctionnel 9744
gagné 9742
circuits 9739
Anglais 9739
rece@@ 9738
MC@@ 9738
soutenus 9736
Autrement 9735
ralentissement 9735
relié 9734
Vingt 9731
fun@@ 9731
matérielles 9730
ressembl@@ 9729
Hel@@ 9729
Références 9728
prescrite 9727
T.@@ 9727
mun@@ 9726
stér@@ 9725
axes 9724
Séminaire 9724
préparations 9723
Perspectives 9723
faiblesses 9722
émie 9722
appartement 9722
douanière 9721
freinage 9721
ingénierie 9720
excessif 9715
AIN@@ 9714
significatives 9713
désaccord 9711
intégr@@ 9710
révolution 9708
roues 9708
extrémité 9707
avances 9705
renvoyé 9702
réaffirmer 9701
Protocoles 9701
entielle 9699
Mt 9699
recul 9697
ón 9696
forcées 9696
accept@@ 9695
Coalition 9693
renouvel@@ 9690
vague 9689
inventaires 9686
couples 9686
emballages 9685
Committee 9684
étudiés 9682
79@@ 9680
maintenue 9679
sodium 9679
manger 9676
alternative 9675
blement 9675
FA@@ 9675
usages 9674
ficateur 9673
habitude 9672
traditionnellement 9672
1e 9671
Albert 9668
révisions 9666
arbitr@@ 9666
passible 9665
perturb@@ 9662
intègre 9661
économiquement 9661
69@@ 9659
Créer 9658
recommandons 9657
dique 9655
éno@@ 9655
assistant 9654
teraient 9652
pair 9651
évi@@ 9650
trage 9649
Gen@@ 9649
semblait 9648
pavillon 9646
Trade 9646
AND 9646
TN 9646
abolition 9642
auxiliaires 9642
envoyées 9641
asion 9641
russes 9640
ophy@@ 9640
trem@@ 9638
statu@@ 9637
étais 9636
fères 9636
expliquent 9632
sembl@@ 9632
découvertes 9631
esses 9629
relief 9628
primé 9628
contractuels 9628
définissent 9625
po 9625
Destination 9623
COMM@@ 9622
IED 9617
considér@@ 9614
juridic@@ 9612
décrivant 9612
42@@ 9610
rencontrées 9607
magistrats 9605
âgé 9605
Modèle 9604
autoroute 9603
ache 9602
benz@@ 9601
GL@@ 9601
onnent 9598
avo@@ 9598
enjeu 9597
précipitations 9596
Pu@@ 9596
psych@@ 9593
habit@@ 9590
échappement 9590
renforcent 9589
esa 9589
fuite 9588
ef@@ 9587
préventives 9586
courage 9585
préten@@ 9584
prématur@@ 9582
prop@@ 9582
liquidation 9582
CIB 9582
ONT 9581
ennale 9579
leuse 9577
exer@@ 9577
Ô@@ 9577
formée 9576
immunisation 9575
familiaux 9574
Hal@@ 9570
bel 9569
dévas@@ 9568
heureuse 9567
réhabilitation 9567
ron 9565
Cu@@ 9561
résume 9561
Très 9559
déceler 9557
négligence 9556
Tom@@ 9556
verte 9554
çage 9554
7.2 9553
modeste 9552
filiale 9552
ppm 9551
obtiennent 9547
Gestionnaire 9547
Mesure 9546
onale 9541
vacants 9541
logiques 9539
libérer 9538
Paraguay 9538
achevée 9537
goût 9536
continental 9535
WG.@@ 9535
sive 9534
Gatineau 9534
épargn@@ 9533
Neu@@ 9532
Haute 9528
immatriculation 9528
obésité 9528
ruisseau 9528
nul@@ 9526
contrôlés 9526
précieuse 9526
ico 9525
plaques 9524
excédant 9524
améliorés 9521
Finalement 9521
Mari@@ 9521
équipé 9520
affirmant 9519
philosophie 9518
del@@ 9515
avisé 9514
Mardi 9514
uti@@ 9513
ns 9512
sons 9510
trains 9510
estation 9509
sibilité 9509
Émirats 9507
comprendra 9506
causées 9506
FA 9506
caus@@ 9505
149 9505
exposée 9503
uranium 9500
accélération 9500
respiratoires 9500
accroît 9499
Situé 9499
effluents 9498
inno@@ 9496
évidente 9496
anda 9496
disposons 9495
interrog@@ 9495
calculés 9495
Mercredi 9495
olo@@ 9495
voici 9493
aie 9490
Franc@@ 9490
ologues 9490
Part 9490
Donc 9489
wood 9487
dizaines 9486
Mad@@ 9485
verse 9483
améliorées 9482
dité 9481
érité 9481
lourde 9480
délivrée 9480
state 9479
psychiatri@@ 9477
Kingston 9476
LM@@ 9475
bec@@ 9473
cab@@ 9472
ona 9472
tonne 9470
belge 9468
Débat 9468
num@@ 9468
spectacle 9463
trouvaient 9462
cule 9462
élev@@ 9461
vérifié 9458
plong@@ 9457
isons 9455
reposer 9455
22,@@ 9455
stabiliser 9452
ami@@ 9452
vétérinaires 9450
énon@@ 9448
honorer 9446
affectent 9442
SIDA 9442
admi@@ 9441
manu@@ 9441
N.-@@ 9441
coloni@@ 9439
Systems 9439
FCCC 9438
sm@@ 9437
155 9436
tionnaires 9434
illement 9432
dépos@@ 9430
grief 9429
diffusées 9429
OHMI 9428
perçue 9423
classer 9420
AO 9420
manières 9419
CAD 9413
USA 9412
Près 9412
épaisseur 9412
Présence 9410
190 9409
mul@@ 9408
transmet 9407
ôt 9404
137 9404
01@@ 9404
ssent 9403
Sir 9403
Dom@@ 9403
salari@@ 9402
défavorisés 9399
défendeur 9398
pati@@ 9398
cf. 9397
expos@@ 9393
financièrement 9392
chal@@ 9392
recens@@ 9391
ient 9389
ham 9388
CESE 9387
méthyl@@ 9386
fas@@ 9385
pren@@ 9385
concrètement 9384
UT 9382
diffère 9379
con 9379
quali@@ 9378
risqu@@ 9377
entendent 9377
Répartition 9375
sés 9374
communiquée 9374
vigoure@@ 9370
vins 9370
supporter 9368
ayer 9367
exclut 9366
Bir@@ 9366
montage 9364
ings 9364
béton 9363
lésions 9363
débris 9363
baissé 9362
153 9360
segments 9355
persistants 9355
ajoutés 9353
duc 9352
réexaminer 9351
ación 9351
rom 9350
CB 9350
contenait 9349
up 9349
attr@@ 9348
arrêtées 9346
réchauffement 9346
érations 9346
UEO 9346
expériment@@ 9345
tort 9345
Comptes 9345
restruc@@ 9341
soulignent 9340
immersion 9340
loy@@ 9339
assurera 9338
Accords 9338
ref@@ 9337
passi@@ 9335
férer 9335
Réunions 9335
susc@@ 9334
entamé 9332
Outils 9330
déroule 9329
permettait 9328
rements 9328
ingénieurs 9325
rub@@ 9325
rera 9322
6.3 9321
ÈRE 9321
Observation 9321
occupée 9320
fréqu@@ 9319
vrac 9319
soulever 9318
concret 9318
turer 9318
mez 9318
exigée 9318
essionn@@ 9317
142 9314
définissant 9313
réfrig@@ 9313
ordonné 9310
LC 9306
résumés 9305
exécutées 9304
New@@ 9301
Cinq 9300
alisations 9299
propices 9298
travaill@@ 9297
OS 9297
matérielle 9293
GO@@ 9291
fiscalité 9290
envoy@@ 9285
ble@@ 9284
couramment 9284
Poste 9284
151 9282
garanti@@ 9281
propos@@ 9280
25,@@ 9280
165 9280
alloué 9279
dispensés 9277
concentre 9276
superviser 9275
fabri@@ 9275
afghan 9274
Maria 9269
préhen@@ 9267
arrivent 9266
Madagascar 9265
202 9265
couvertes 9263
peser 9263
rencontrent 9258
aves 9258
Instruments 9258
soumet 9256
permettez 9255
soli@@ 9254
mutation 9254
endent 9253
Rien 9253
Conservation 9253
peinture 9252
hau@@ 9251
itÃ 9251
éris@@ 9249
4. 9247
dioxyde 9245
endraient 9244
mers 9244
ultr@@ 9242
hotel 9241
exprimant 9240
Pin@@ 9240
publiquement 9239
mixtes 9237
développée 9235
coton 9233
PF@@ 9233
awa 9232
administr@@ 9231
h30 9229
soviétique 9228
Ali@@ 9228
paraly@@ 9227
mammifères 9227
az 9227
gro@@ 9226
craign@@ 9226
secondes 9226
appartements 9224
récupérer 9223
Bahreïn 9223
atteignent 9220
aies 9220
exi@@ 9219
afférents 9218
sorties 9218
violé 9218
ories 9218
MAECI 9218
iles 9217
cherché 9215
ciblée 9214
imprimés 9214
biologie 9213
aurons 9212
Bush 9210
Message 9210
restera 9209
délib@@ 9209
œufs 9209
strict 9207
contro@@ 9206
ting 9206
onction 9201
MÉ@@ 9201
affirm@@ 9197
promenade 9197
fossé 9196
détenir 9196
camions 9194
Énoncé 9194
âges 9192
digne 9190
apparente 9189
SK 9188
municipale 9185
interdépendance 9184
brési@@ 9182
Médicaments 9182
siècles 9180
élo@@ 9180
1,7 9180
iso@@ 9180
Cy@@ 9177
récepteurs 9176
Él@@ 9174
folklore 9173
racon@@ 9173
garantissent 9172
ALENA 9171
TR 9171
saisies 9170
valent 9169
sélectionner 9169
préalablement 9164
confirmée 9164
ROM 9164
empi@@ 9162
Barbade 9162
fourr@@ 9161
favor@@ 9158
bains 9158
PROJET 9156
1950 9155
aliment 9155
transposition 9154
District 9154
suscite 9152
ouvrables 9152
Project 9152
conjug@@ 9151
accession 9149
360 9145
occidentaux 9143
pathogènes 9143
opposer 9141
cents 9140
Consultation 9139
rubriques 9138
Der@@ 9138
extraordinaires 9137
huiles 9137
TM@@ 9137
.pdf 9136
scolarisation 9135
yn@@ 9132
coups 9130
irrégularités 9128
83@@ 9128
lâ 9128
rén@@ 9127
rétab@@ 9127
agréés 9127
incapable 9125
98@@ 9125
recenser 9124
Cham@@ 9123
productif 9122
fixant 9119
U. 9119
vingtième 9118
bleu 9118
vérifiés 9117
lac@@ 9115
phyto@@ 9115
souhaiter 9115
152 9114
mutu@@ 9113
ôles 9113
amortissement 9113
nis@@ 9112
Engage 9112
disposant 9111
remerciements 9108
lettes 9106
parvenus 9105
ériques 9104
tél@@ 9104
oth@@ 9102
paliers 9102
dirigés 9101
essayé 9099
inscriptions 9099
tropic@@ 9098
incertitudes 9094
souhait 9094
Liv@@ 9094
prochainement 9093
assentiment 9091
Noël 9087
Mars 9086
enquêteurs 9086
rationalisation 9085
AIS 9084
neutr@@ 9082
DRHC 9081
Jeudi 9080
COMP@@ 9080
ive 9079
SBSTA 9079
erc@@ 9078
Rob@@ 9078
Interprétation 9078
230 9075
interorganisations 9075
réalise 9073
abordées 9071
syndrome 9070
6e 9069
aît 9068
surcroît 9067
dét@@ 9067
comparé 9067
continuellement 9065
séjourner 9064
serez 9063
détermin@@ 9063
approvisionnements 9062
transfrontaliers 9061
intervient 9061
affectant 9061
citernes 9060
emploient 9060
0,4 9060
fiques 9059
discrétion 9058
ost@@ 9058
Exemples 9057
dégâts 9055
arbitraires 9055
Canada@@ 9055
pédagogique 9053
CSA 9052
nutritifs 9051
dévouement 9042
ral@@ 9041
exactes 9039
migrantes 9039
Kirghizistan 9039
beaux 9038
voulant 9038
récep@@ 9038
sèche 9038
soutiens 9036
néerlandais 9036
0.00 9036
ordonn@@ 9035
Jeunesse 9034
RÈGLEMENT 9034
remboursements 9030
étudiées 9030
land@@ 9030
revêtent 9029
RPP 9029
spec@@ 9028
diffusés 9027
réc@@ 9025
Nova 9024
146 9023
constituerait 9021
rétroaction 9021
Histoire 9020
Dialogue 9019
accentu@@ 9017
disposait 9017
ataire 9017
attaché 9016
magasin 9014
entrera 9013
cardiaque 9012
incluse 9011
consoli@@ 9010
vacc@@ 9006
RA 9006
associe 9003
esthé@@ 9002
pétroliers 9001
valides 9001
166 8999
souhaiterait 8999
attire 8997
plante 8997
précaution 8994
ponctu@@ 8994
standards 8994
News 8994
Adobe 8994
partagé 8992
131 8990
Propriété 8989
intimidation 8988
90@@ 8988
pp. 8988
arctique 8986
ampli@@ 8985
Fait 8985
harmonisé 8982
èle 8981
urgente 8977
endrons 8975
onnage 8975
hex@@ 8972
CEA 8972
dia 8969
tardi@@ 8967
Brown 8966
chin@@ 8965
intégrant 8965
essay@@ 8965
transfrontalière 8964
plats 8964
Critères 8962
supposer 8961
privatisation 8960
géom@@ 8960
milliaire 8958
conduites 8957
serie 8956
magnifique 8954
intensification 8954
soudanais 8954
Central 8953
emball@@ 8952
CIO 8952
Claude 8950
passeports 8948
percevoir 8946
dépression 8942
2.6 8938
minimiser 8937
Té@@ 8932
9e 8932
Profil 8932
28,@@ 8930
8e 8929
jal@@ 8925
63@@ 8925
archiv@@ 8924
réglés 8919
léger 8918
Fre@@ 8917
139 8917
lign@@ 8916
passages 8914
définitivement 8913
ack 8912
uniformité 8912
agenda 8912
hélicoptères 8912
inj@@ 8911
color@@ 8910
superfici@@ 8908
règne 8907
ori 8906
déployé 8906
aviser 8906
sécuritaires 8905
espagnole 8904
Mol@@ 8902
insuffisantes 8901
ki@@ 8899
immense 8897
poursuivis 8896
beauté 8896
attiré 8896
carc@@ 8895
225 8894
psychologiques 8892
annul@@ 8890
ater 8890
disques 8889
306 8889
jeter 8885
violents 8884
mot@@ 8882
publicitaires 8881
énum@@ 8880
appliquera 8879
rapprocher 8878
sportif 8878
Jan@@ 8878
II.@@ 8878
p.m. 8877
lang@@ 8872
appauvr@@ 8871
félic@@ 8871
nordiques 8870
aud 8870
visi@@ 8868
protec@@ 8866
DR 8865
réorganisation 8865
indienne 8865
milles 8864
adoptent 8862
consul@@ 8862
terminal 8862
Inv@@ 8861
cerveau 8860
Dim@@ 8859
introduites 8855
franchise 8854
illard 8853
ho 8853
féminin 8852
jan@@ 8851
formateurs 8850
transvers@@ 8850
écoulement 8849
Hill 8849
reliée 8849
226 8848
Observatoire 8847
chap@@ 8846
méth@@ 8846
ARD 8845
WIPO 8845
entraver 8844
linéaire 8844
bord@@ 8842
mets 8841
bon@@ 8840
ceront 8839
disparitions 8838
cartographie 8836
McGill 8835
acceptent 8833
Rég@@ 8833
ques@@ 8832
Tant 8830
filiales 8829
répertori@@ 8826
socialiste 8822
réglé 8821
contractuelles 8820
deviendra 8818
itables 8816
bin@@ 8815
MT 8814
roy@@ 8813
juristes 8813
levé 8813
considérons 8812
respiratoire 8812
1961 8812
menacées 8811
intense 8811
calculées 8810
97@@ 8809
aillon 8808
réussi@@ 8808
aveu@@ 8806
capitaine 8805
addition 8805
indéterminée 8805
convenir 8804
hou@@ 8802
vivantes 8801
réjouis 8800
aigu@@ 8800
Bri@@ 8800
génétiquement 8799
à@@ 8799
UNIFEM 8799
tori@@ 8797
TIQUE 8797
bru@@ 8796
ingue 8796
ût 8790
Innovation 8789
tarder 8787
dividendes 8786
offrira 8784
conviendra 8780
subs@@ 8780
manipulation 8778
ACC 8777
SO 8777
aste 8776
pensionn@@ 8776
once 8775
magnétique 8775
bie 8772
xy@@ 8772
envoie 8771
An 8769
cence 8769
compilation 8767
démén@@ 8767
éthanol 8767
équivalente 8766
PN 8766
incit@@ 8765
transmettant 8763
slovaque 8763
allouées 8761
Sé@@ 8761
Dét@@ 8761
ajoutent 8759
pare@@ 8759
aim@@ 8759
record 8758
Réduction 8757
affiliée 8756
POR@@ 8756
nulle 8754
270 8753
alliances 8752
organisationnel 8751
célébrer 8751
épin@@ 8750
Procédure 8749
84@@ 8748
169 8748
ball@@ 8748
ÉN@@ 8748
fonctionnelles 8747
ament 8747
Maladies 8746
red@@ 8745
fossiles 8744
amén@@ 8744
articul@@ 8743
Déclarations 8743
Sau@@ 8742
affirmative 8741
Capacité 8739
convenues 8737
vois 8737
confir@@ 8737
aquatique 8737
tes@@ 8736
saines 8734
CM 8734
rejet@@ 8733
laissant 8731
entraînant 8726
allez 8723
localités 8723
Énergie 8722
dissement 8719
144 8717
cibler 8715
ois@@ 8715
admettre 8714
Sil@@ 8714
interactif 8714
INFORMATION 8712
onal 8710
oeufs 8710
endront 8708
und 8706
Add.2 8706
Publication 8705
GIE 8701
Signature 8699
inspecteur 8698
meurtre 8698
commise 8698
itu@@ 8698
énormément 8697
aiguë 8696
impli@@ 8695
mesurées 8693
mariages 8692
SBI 8692
écou@@ 8691
ora 8691
76@@ 8690
caractérise 8689
perform@@ 8688
correspond@@ 8687
WG 8687
salu@@ 8684
soul@@ 8683
impliquer 8683
initiaux 8683
000@@ 8683
27,@@ 8682
orphelins 8681
Ç@@ 8680
Organ@@ 8678
spontan@@ 8677
0,6 8677
fri@@ 8675
Woods 8672
issants 8670
désirez 8668
cens@@ 8667
Sujets 8667
ANN@@ 8667
australe 8666
appuyée 8664
ui 8663
dépens@@ 8662
jur@@ 8661
Lundi 8661
ÈME 8661
compteurs 8660
240 8659
Consciente 8658
cru@@ 8656
inter 8656
consenti 8655
fax 8655
tempo@@ 8653
bot@@ 8653
exploite 8653
UM 8652
imparti@@ 8651
endettement 8650
doubl@@ 8649
Laurier 8647
dénon@@ 8646
renouvelé 8646
signatures 8642
prévisibles 8642
XX 8641
Consensus 8641
tourner 8640
rejette 8639
négocié 8639
CF 8639
concer@@ 8638
otage 8637
DA@@ 8636
rigoureuse 8635
aya 8635
Lois 8635
jugements 8631
immunités 8631
clubs 8631
entendus 8630
Fu@@ 8629
tor 8629
Dix 8628
surplus 8625
stock@@ 8623
pomp@@ 8621
ares 8621
élever 8621
quantit@@ 8620
fleurs 8620
auv@@ 8620
vérificateurs 8620
onnes 8619
retrouvent 8618
distinctif 8612
Ur@@ 8608
landaise 8608
collec@@ 8608
remplacés 8607
souffrance 8605
rétention 8605
chutes 8604
Coordonnées 8604
suédois 8601
modern@@ 8601
ONUDC 8601
sées 8600
convivi@@ 8599
doutes 8598
échel@@ 8598
War@@ 8596
équi@@ 8595
Conference 8594
abrég@@ 8594
écouter 8593
apparence 8592
systémique 8590
sw@@ 8590
235 8589
MP@@ 8588
Reconnaissant 8588
lle 8585
foresterie 8585
collège 8584
impér@@ 8584
Bas@@ 8584
asy@@ 8583
épouse 8583
LT 8582
éligibles 8581
attribu@@ 8578
dériv@@ 8578
CEDAW 8578
interrogées 8577
éradication 8576
égaux 8576
UNI@@ 8575
incl@@ 8574
étr@@ 8574
Pic@@ 8573
concernait 8572
distingue 8570
dépens 8568
éra 8566
variabilité 8566
privilège 8565
interopérabilité 8565
crédible 8562
mâ@@ 8562
ETP 8562
rier 8560
neaux 8560
NU@@ 8559
duction 8559
confiscation 8558
tirée 8557
VA 8556
ap 8556
imposés 8553
ADPIC 8552
réci@@ 8551
dépositaire 8551
exhausti@@ 8550
affectée 8550
poli@@ 8550
tiendrait 8550
APD 8550
ôme 8547
MM 8546
net@@ 8545
photo@@ 8544
appelons 8543
répartir 8543
have 8543
veur 8542
Proc@@ 8542
172 8541
RELATI@@ 8539
unification 8538
Northern 8537
turc 8536
stéréotypes 8534
Cours 8533
latér@@ 8531
pire 8529
Maintenant 8528
plu@@ 8528
contrer 8527
démocratisation 8526
Vert 8526
étudiée 8524
Académie 8524
Inscrivez 8524
écriv@@ 8523
acheminement 8523
exceptionnels 8522
aliment@@ 8516
ms 8514
uk@@ 8514
Exposé 8513
ètres 8512
dier 8511
emprunt 8511
NI 8511
roches 8510
5.4 8510
Certes 8509
Dor@@ 8509
lancées 8509
sexuellement 8509
tuelle 8508
colonel 8507
chré@@ 8506
israéliens 8505
divorce 8505
entrant 8503
meta 8502
Marc 8501
limitant 8499
édification 8498
lir 8497
coordin@@ 8497
ruraux 8497
épo@@ 8496
divulguer 8496
n.f. 8495
enti 8494
8.1 8493
002 8492
Feuille 8492
exige@@ 8491
fléau 8491
VE@@ 8488
serons 8486
suspen@@ 8486
brill@@ 8485
prendront 8485
abo@@ 8485
bibli@@ 8484
impliquées 8483
impulsion 8483
01.@@ 8480
anien 8479
ACI 8479
malnutrition 8479
Food 8478
Indiquer 8478
ille@@ 8477
ITS 8477
empêché 8476
carrières 8476
Agency 8476
visu@@ 8475
accou@@ 8475
Mid@@ 8474
opérer 8474
renforcées 8474
Semaine 8471
émetteur 8470
ographique 8470
anglophones 8470
sauver 8468
DVD 8468
EG 8468
Tim@@ 8465
foie 8465
introduite 8463
rh@@ 8461
Nat@@ 8460
dangereuse 8459
SY@@ 8456
aligner 8456
Eurostat 8454
aménag@@ 8453
disparu 8452
recul@@ 8451
Investi@@ 8451
référant 8447
info@@ 8447
mani@@ 8446
ical 8446
négligeable 8444
présélection 8440
lets 8439
pénalité 8438
examinent 8436
espérance 8435
golfe 8435
Bern@@ 8433
sportive 8433
grammes 8433
indiquait 8430
tend@@ 8429
expérimental 8426
affiches 8426
UNEP 8424
remani@@ 8423
hésit@@ 8422
profond 8422
arch@@ 8422
danse 8422
attest@@ 8421
LS 8421
aisons 8420
Face 8420
maxim@@ 8419
chage 8417
examinant 8417
notant 8417
Distribution 8417
pourrions 8416
PAS 8415
africaines 8414
Economic 8414
imputable 8413
saillants 8412
gérée 8411
invoquer 8411
Fe@@ 8410
abonnés 8409
Net@@ 8409
uli@@ 8407
exp@@ 8407
TV@@ 8407
nomin@@ 8406
bruts 8405
souhaiterais 8403
exporter 8403
disproportionn@@ 8403
rendra 8402
sectoriel 8400
Vendredi 8400
issu 8399
NA@@ 8399
capture 8397
issance 8396
Rôle 8396
Windsor 8396
différemment 8394
stein 8393
dissolution 8391
comportait 8390
envois 8390
Six 8390
reuses 8389
levés 8388
Med@@ 8387
mineures 8387
ONN@@ 8387
susmentionné 8386
ennemi 8385
BA 8385
devenues 8384
gy@@ 8384
ft 8384
river@@ 8383
équipées 8383
RC@@ 8381
Moncton 8381
frères 8379
paquets 8379
SF 8379
dérogations 8378
direc@@ 8377
multiplication 8376
médic@@ 8374
Mondiale 8374
marges 8373
Land@@ 8372
invitée 8372
décel@@ 8372
atta@@ 8371
instauré 8371
consciente 8371
Agenda 8371
régi@@ 8370
célébration 8370
incitations 8369
path@@ 8369
subsaharienne 8367
import@@ 8366
manquement 8365
exhorte 8365
sén@@ 8363
Clients 8361
compare 8356
Reg@@ 8356
Court 8356
talents 8354
inage 8354
concurrentielle 8353
NOR@@ 8352
23,@@ 8350
soulevés 8350
suppos@@ 8349
Changement 8349
brûl@@ 8348
Pel@@ 8347
impossibilité 8346
représentations 8346
Seuls 8343
inscrivent 8343
side 8343
superviseur 8342
IQUE 8342
métriques 8341
organisationnelles 8340
bilité 8340
aissez 8338
Aspects 8338
souvenir 8337
habitations 8334
Mark 8334
ONUSIDA 8333
ten 8332
résidants 8330
multinationales 8329
chaussures 8328
rose 8326
Pièce 8325
AFF@@ 8324
agin@@ 8323
ess 8322
contrefaçon 8321
sienne 8320
Water 8320
ibid. 8320
Life 8317
Tou@@ 8316
stricte 8315
α 8315
Sign@@ 8314
destruc@@ 8311
encl@@ 8311
lamin@@ 8311
réglementées 8310
sulf@@ 8310
déterminent 8309
ignent 8307
hol@@ 8307
G.@@ 8307
tues 8306
réduites 8305
2.0 8305
tactique 8303
156 8303
wan 8302
feu@@ 8302
Enfants 8300
annot@@ 8300
PSE 8299
croître 8299
érance 8299
choc 8298
lourdes 8295
Mou@@ 8295
électeur 8294
pousser 8293
illégalement 8293
Togo 8291
contractants 8291
SD 8289
réfère 8288
aimerait 8287
promesses 8283
concurrentiels 8283
Olympiques 8283
Cat@@ 8282
Alzheimer 8282
occupante 8282
préconise 8281
utilement 8280
deu@@ 8280
retar@@ 8280
lar@@ 8279
Tour 8279
âgée 8278
guid@@ 8277
Solutions 8277
inspirer 8275
cent@@ 8273
essions 8273
gen 8271
Far@@ 8269
mascul@@ 8268
convenablement 8268
inconvénients 8265
Prestation 8265
quette 8264
postal 8264
prélevés 8261
tribune 8259
4.5 8259
VIS@@ 8259
intim@@ 8258
légaux 8258
austr@@ 8258
royal 8258
Groupes 8258
excep@@ 8256
RH@@ 8256
Malawi 8255
désas@@ 8253
exacts 8253
dispers@@ 8251
contextes 8250
étalonnage 8250
Femmes 8249
pénitentiaires 8249
Mackenzie 8249
distances 8246
affronter 8246
perfecti@@ 8245
EI 8245
qualit@@ 8244
confirment 8242
animales 8242
regroupant 8242
isolats 8242
relles 8241
sid@@ 8240
SECTION 8240
205 8239
incapables 8238
immédiats 8238
consac@@ 8238
soustr@@ 8238
appelants 8237
regret@@ 8235
C6 8233
météorologique 8233
entraî@@ 8232
Européenne 8232
choisies 8232
lentement 8232
ith 8231
environnements 8231
water 8230
dies 8229
multiculturalisme 8228
spectacles 8227
MD@@ 8227
1951 8226
Taliban 8226
intervenus 8225
Cour@@ 8225
facilitent 8224
Pa@@ 8224
présumé 8224
NCSM 8223
indiens 8222
laitiers 8221
Camp@@ 8221
NOUV@@ 8221
bag@@ 8220
Botswana 8219
soulevée 8218
mobilier 8217
ontari@@ 8217
recueilli 8215
élevait 8214
Définitions 8214
will 8213
op 8213
réparti@@ 8211
sortant 8210
lab@@ 8209
tubes 8208
2,6 8207
ramener 8204
Priorités 8204
iquement 8203
itait 8203
douaniers 8202
sien 8202
vendues 8202
147 8202
Plans 8202
assise 8200
élémentaire 8199
Bill 8199
attacher 8198
définiti@@ 8198
muscul@@ 8198
monuments 8197
quotidiens 8196
ec.gc.ca 8195
pourriez 8194
graph@@ 8194
Mauritanie 8194
DU@@ 8194
richesses 8193
Che@@ 8193
OT@@ 8192
Caucase 8191
réprimer 8191
ographies 8191
préscolaire 8190
chev@@ 8189
trans 8189
Nu@@ 8189
ck 8188
ond@@ 8186
Industries 8186
AVIS 8185
altern@@ 8184
ections 8184
autrefois 8184
vagues 8181
UA 8180
quai 8178
tionnement 8178
29,@@ 8174
Prévisions 8172
coffre 8172
proportions 8171
devrez 8168
liation 8166
proc@@ 8165
Resources 8165
antimines 8160
croyances 8159
visité 8158
Niger 8158
assistée 8157
inspire 8156
objections 8155
préjudiciables 8153
rémun@@ 8153
balis@@ 8153
recevra 8151
étrang@@ 8150
convoquées 8150
quit@@ 8149
enthousiasme 8149
visit@@ 8149
économ@@ 8148
inspi@@ 8148
constantes 8148
arriérés 8147
0,8 8144
transitoires 8142
signalées 8142
massi@@ 8139
sachant 8138
forcée 8137
Donner 8135
annoncées 8134
convoquer 8132
ases 8131
.gc.ca. 8131
subsidiarité 8130
ml 8129
concessions 8126
zz@@ 8125
devi@@ 8122
neutre 8122
commémor@@ 8122
nuclé@@ 8121
racistes 8120
dispersion 8120
manipul@@ 8119
oeuv@@ 8119
débou@@ 8117
révo@@ 8117
ands 8117
entou@@ 8116
eables 8116
SA@@ 8115
TER 8114
Str@@ 8113
System 8113
trouver@@ 8112
Contenu 8112
RAP@@ 8112
tration 8111
ILL@@ 8111
dec@@ 8109
Ly@@ 8107
fréquentes 8106
atténu@@ 8106
aval@@ 8105
proté@@ 8105
sine 8104
osité 8102
191 8102
aria 8100
condu@@ 8099
éthylène 8099
recevront 8098
communiquez 8097
ames 8096
résolue 8096
amendes 8093
Effets 8093
calcium 8089
rémunérés 8088
télécommunication 8088
avi@@ 8088
ñ@@ 8086
poral 8084
blocs 8083
légers 8082
24h 8080
interdites 8079
Collection 8079
démontr@@ 8078
alliance 8078
tac@@ 8078
bris@@ 8077
extinction 8077
ADR 8076
renfor@@ 8076
Étu@@ 8075
remet 8072
projec@@ 8070
EF 8070
apportant 8069
épanouissement 8068
périph@@ 8066
èches 8066
PIC 8063
m. 8061
Coordination 8060
discrétionnaire 8058
uv@@ 8057
privation 8057
Baie 8057
expir@@ 8056
arrivés 8055
victoire 8054
formul@@ 8054
coin 8054
Californie 8053
olu@@ 8052
Bre@@ 8052
manus@@ 8052
es. 8052
Off@@ 8051
néo 8050
mini 8050
1966 8049
brochures 8048
compression 8048
CCG 8048
déplor@@ 8047
TRAN@@ 8047
divisé 8045
dégag@@ 8044
954 8043
approfon@@ 8042
rencontr@@ 8042
sérieuses 8040
dépendants 8040
prétendre 8039
mécaniques 8039
Ki@@ 8039
contrebande 8038
parking 8037
kin@@ 8036
touchée 8034
SOC 8034
162 8032
leux 8030
confis@@ 8030
repos@@ 8030
brutes 8029
porteurs 8027
sonores 8026
attachés 8024
magistrature 8023
Sw@@ 8022
jus 8022
gon@@ 8021
tra 8020
confiées 8019
professionnalisme 8017
ressortissant 8017
réit@@ 8016
exclu 8015
accrus 8015
coordonnés 8014
780 8011
contac@@ 8010
interrogatoire 8010
189 8010
transfér@@ 8009
ingérence 8008
étrie 8008
roms 8008
adjonction 8007
progressif 8006
collaborent 8004
ology 8004
importer 8003
UNITAR 8001
quotidiennement 8000
indien 7999
fabriqué 7999
confon@@ 7997
murs 7996
régies 7996
ts@@ 7995
métadonnées 7994
compro@@ 7993
dition 7993
HP 7992
autonomisation 7992
rempl@@ 7990
ficatif 7988
convictions 7988
Inspec@@ 7988
fonc@@ 7987
séparé 7985
souples 7984
itali@@ 7983
macro@@ 7982
respectu@@ 7982
Vos 7982
tel@@ 7981
verticale 7980
Ris@@ 7980
catalyseur 7979
cellulaires 7979
expéditions 7978
rages 7978
cules 7977
ELLES 7976
cheveux 7975
perturbations 7974
amitié 7974
porteur 7972
fam@@ 7971
aign@@ 7971
surintendant 7971
grandeur 7969
affichés 7969
ISATION 7969
adh@@ 7968
barres 7968
effectives 7968
Trust 7968
CTI 7968
fine 7967
ish 7966
Parce 7965
eler 7965
macroéconomique 7963
détresse 7963
ouver@@ 7961
gares 7961
èmement 7959
avantageux 7958
Prendre 7958
prépondér@@ 7957
isait 7956
efficiente 7955
dépenser 7954
annulé 7954
rappelant 7954
puissions 7953
résum@@ 7952
contenants 7951
billet 7948
ait@@ 7945
courbe 7943
biocarburants 7940
sl@@ 7940
THE 7940
chantier 7939
coordonne 7939
notables 7938
éclaircissements 7937
3,3 7937
généralisée 7936
Consul@@ 7936
Bra@@ 7935
reuse 7935
cub@@ 7935
ACE 7935
AMT 7935
regrouper 7934
rendements 7933
cide 7933
achetés 7933
syrien 7932
dévelop@@ 7932
agressions 7932
cip@@ 7931
vitro 7931
rebelles 7929
dirigées 7929
fermer 7928
efforcent 7928
colloque 7928
Exécution 7928
zy@@ 7927
thérapeutique 7926
Bour@@ 7925
maîtriser 7925
iture 7925
relance 7924
haï@@ 7923
persuad@@ 7921
église 7921
h. 7920
bénéfique 7919
déroulent 7918
diplomatie 7918
til@@ 7918
248 7918
veillent 7917
ENTS 7916
dédu@@ 7914
isson 7914
78@@ 7914
abilités 7914
évaluateurs 7912
chèques 7911
ends 7910
guichet 7910
Jan 7910
présentait 7910
vulnérable 7910
ICE 7910
défaillance 7909
apprécié 7909
seau 7909
SDD 7909
BFC 7909
climatisation 7908
group@@ 7907
Review 7907
progress@@ 7906
roum@@ 7904
réglées 7903
allouer 7903
506 7903
21.@@ 7903
Encyclopédie 7902
Alaska 7902
brefs 7901
intéressantes 7901
exploité 7900
Medical 7900
has 7900
COV 7899
frère 7898
pierres 7897
Tit@@ 7895
remplie 7894
qualifiées 7893
tentent 7892
Facteurs 7892
tudes 7891
Home 7891
NS 7891
0,0@@ 7890
remplaçant 7889
sels 7889
éventualité 7888
Bio@@ 7884
lette 7883
pluie 7881
1958 7880
défavorisées 7879
Nomination 7879
26,@@ 7878
détachement 7877
ord 7877
aimer@@ 7874
anor@@ 7874
séc@@ 7873
fausse 7872
natur@@ 7871
taine 7871
distributeur 7871
EF@@ 7871
Mary 7871
voi 7870
intéressante 7867
préjugés 7866
interministériel 7866
ambiance 7865
çon 7864
rajust@@ 7863
este 7862
iries 7861
dédi@@ 7860
métrie 7860
enrô@@ 7859
exploités 7859
chois@@ 7858
détruit 7857
embar@@ 7856
quinquennal 7856
french 7856
continues 7855
interview@@ 7852
888 7852
incompatibles 7851
XI 7851
corrections 7851
téléphones 7850
bert 7850
adjudic@@ 7849
vedette 7849
dynamisme 7848
i. 7848
rat 7847
CG@@ 7845
Indien 7844
importé 7844
supprim@@ 7843
tétr@@ 7842
Diversification 7841
change@@ 7840
punir 7839
■ 7839
Pacific 7838
Faites 7837
contester 7835
quel@@ 7833
insectes 7833
Encourager 7833
justifient 7832
Mul@@ 7832
Observateur 7832
bailleurs 7829
242 7829
allégu@@ 7829
préparée 7828
dépendra 7827
bénéfiques 7827
umes 7827
doublé 7827
Collectivités 7827
conservé 7826
déficits 7823
403 7823
incomb@@ 7822
paysages 7822
investiss@@ 7820
virtuel 7820
intrins@@ 7819
consultative 7818
lieutenant 7816
rad@@ 7816
Revenus 7816
cherch@@ 7815
continus 7814
favorisé 7811
multicultu@@ 7811
aisément 7810
ortho@@ 7810
Budapest 7809
déclarent 7809
Pat@@ 7809
lumineuse 7809
revê@@ 7808
Modifications 7808
multitude 7806
1,9 7804
Christ 7804
François 7803
postsecondaires 7803
caractérisé 7802
Trouver 7802
assembl@@ 7802
SCP 7801
glu@@ 7798
aye 7797
boisement 7797
sh 7797
invitons 7796
provisi@@ 7795
cotis@@ 7795
Institutions 7794
afgh@@ 7792
précis@@ 7791
déontologie 7791
écologiquement 7789
Approche 7789
cheur 7788
érin@@ 7787
Debian 7787
CRP.@@ 7787
confronté 7785
ali 7785
géorgi@@ 7785
introdu@@ 7784
regrettable 7784
161 7783
5,5 7782
palestiniennes 7782
ration@@ 7781
Media 7781
rectificatif 7780
contreven@@ 7779
révocation 7778
www.idrc.ca 7778
Kir@@ 7777
251 7772
entrepôt 7768
parentale 7767
BP 7764
peupl@@ 7763
coerci@@ 7762
sangu@@ 7761
1.0 7760
alban@@ 7758
épuisement 7758
classi@@ 7758
anique 7757
animation 7756
sug@@ 7756
dot@@ 7755
LAN@@ 7755
annes 7753
DN@@ 7753
SW@@ 7751
PROGRAMME 7751
93@@ 7750
âme 7748
forcés 7747
pleins 7745
habituel 7743
VP 7742
manifester 7741
dilution 7741
allong@@ 7741
équivalence 7741
Où 7740
débiteurs 7740
approximativement 7739
déploie 7738
cataly@@ 7737
Pass@@ 7736
crip@@ 7736
comman@@ 7735
accouchement 7735
guérison 7734
conditionnement 7732
ach 7731
constituera 7730
illons 7730
Gas@@ 7727
LEFP 7726
estimait 7724
260 7723
polaire 7723
apprécie 7722
acés 7722
alternatives 7720
1.6 7719
RI 7716
rigoureuses 7713
noci@@ 7713
facilitera 7712
AUT@@ 7712
exclues 7711
Moins 7710
FER@@ 7710
Méthode 7708
adhér@@ 7707
fant@@ 7707
structurel 7706
proroger 7706
saluer 7704
vienne 7703
magazine 7703
explosion 7701
radar 7701
Jim 7700
Déterminer 7700
gue 7698
ga@@ 7697
abordable 7696
golf 7696
Anciens 7695
GRE 7695
alie 7694
visage 7693
Gra@@ 7693
urg@@ 7693
restants 7693
statuer 7693
Toujours 7691
eure 7691
curriculum 7691
tours 7689
légi@@ 7689
Codes 7688
notifications 7687
chèque 7686
venue 7686
21@@ 7686
éb@@ 7685
185 7685
formel 7684
secrétariats 7684
discriminations 7683
Women 7683
biotechn@@ 7679
nég@@ 7678
vieillesse 7678
Att@@ 7677
omb@@ 7677
génériques 7676
récré@@ 7674
donneur 7674
DOC 7672
inventions 7671
Marshall 7670
3,4 7670
tôles 7669
soldes 7668
mensuelle 7668
éné@@ 7667
2,8 7667
tomber 7666
PO 7665
facil@@ 7663
traduits 7663
148 7661
recycl@@ 7661
PB 7661
entretient 7659
cotes 7659
antimicrobiens 7659
prenez 7658
suspendue 7657
ech 7656
réservée 7655
stig@@ 7654
interroger 7653
prolongé 7653
Fidji 7652
fique 7652
aniques 7650
mar 7647
10e 7647
ITÉS 7647
syndic@@ 7646
Johnson 7646
teau 7644
remises 7642
74@@ 7642
réparer 7640
idéale 7638
construits 7638
particularités 7638
actualisation 7638
ÉRI@@ 7636
unitaire 7635
apo@@ 7635
partisans 7635
Schengen 7634
Dr@@ 7634
164 7633
èves 7633
adjoints 7633
privilégié 7632
échapper 7632
Bruce 7632
concurr@@ 7630
Lis@@ 7628
accél@@ 7627
soirée 7626
asser@@ 7623
camping 7623
projet@@ 7622
sévères 7622
Jam@@ 7622
asp@@ 7622
iez 7621
prag@@ 7621
NH@@ 7621
soldat 7619
KB 7619
chim@@ 7618
192 7618
AMA 7618
May@@ 7616
manœuvre 7616
Escadron 7616
législateur 7615
invoqué 7615
revu 7614
présid@@ 7614
catég@@ 7614
suggestion 7613
payables 7613
sûretés 7612
avant@@ 7611
écriture 7611
accus@@ 7610
Den@@ 7610
ENS 7604
sympath@@ 7602
sauvegarder 7600
Proche 7600
asse@@ 7600
déliv@@ 7599
appuiera 7599
André 7597
imagerie 7597
tiver 7595
comprenaient 7595
avortement 7594
TG 7594
quar@@ 7593
espÃ 7593
177 7592
confortable 7590
yn 7589
parfait 7588
transparentes 7588
encer 7588
importait 7588
Réc@@ 7588
aime 7587
consécutives 7587
confiée 7586
cis@@ 7585
quoique 7584
assujettie 7584
fiez 7584
Brian 7584
amo@@ 7583
Calendrier 7583
Foire 7582
variante 7581
secrets 7580
imposables 7579
Méthodes 7579
SRAS 7579
batt@@ 7578
MAINC 7578
groupements 7577
Responsabilité 7575
remarquables 7572
remplissent 7571
sité 7571
onais 7571
aux@@ 7569
É. 7569
quets 7568
Est@@ 7567
coefficients 7566
profitent 7563
frag@@ 7562
changes 7561
concertées 7561
bouche 7560
magazines 7560
remercions 7559
abstentions 7558
poin@@ 7558
Vit@@ 7557
restitu@@ 7557
abrit@@ 7557
localité 7556
Remarque 7556
sky 7555
LD 7555
liban@@ 7555
Espace 7553
Trente 7553
teuses 7552
turque 7552
aller@@ 7552
souffre 7550
Hun@@ 7550
èche 7549
optimisation 7548
coutumier 7548
2,1 7548
MODI@@ 7548
inspir@@ 7547
circonstance 7545
Lang@@ 7545
édifices 7545
accéléré 7542
poum@@ 7542
destinations 7542
VIA 7542
radiation 7541
amélior@@ 7540
icides 7539
Laval 7539
inutiles 7538
sûres 7537
SERV@@ 7537
avou@@ 7536
rouges 7536
passager 7535
flore 7534
esseurs 7533
Lor@@ 7530
résolument 7529
mémoires 7529
TT 7529
Territoire 7527
fausses 7526
générique 7526
quera 7525
ack@@ 7525
Sen@@ 7525
régl@@ 7524
parentales 7524
Norme 7524
œuv@@ 7523
ALÉNA 7523
158 7522
Export@@ 7522
bienfaits 7521
accumulé 7521
décé@@ 7521
Langues 7521
CV@@ 7521
enrichir 7518
Berne 7516
étayer 7515
lisation 7515
appuyons 7514
procure 7513
Qualité 7513
mentionnons 7513
approxim@@ 7510
douche 7510
craintes 7509
blanch@@ 7509
thro@@ 7509
Faits 7509
contesté 7508
HCDH 7507
Avenue 7507
forage 7506
quarts 7505
All@@ 7504
Telecom 7504
dilu@@ 7503
déplore 7502
ren 7502
riz 7501
Vision 7501
hydr@@ 7500
confidentiel 7499
festival 7499
combinée 7498
Arrêté 7497
navigateur 7496
octroyer 7495
Djibouti 7495
aries 7493
2,7 7492
ć 7489
fabrique 7488
spécifiés 7488
affrétés 7488
condi@@ 7485
intendance 7485
complémentarité 7484
spécificité 7483
décrivent 7481
migratoires 7481
Condition 7481
Rap@@ 7480
sexospécifique 7480
photographie 7479
State 7479
Day 7479
virtu@@ 7478
défauts 7478
clari@@ 7476
appelées 7476
ë@@ 7476
Francophonie 7475
décisif 7474
tible 7474
163 7473
établira 7472
tardive 7472
Sondage 7472
conseill@@ 7471
réalistes 7470
promp@@ 7469
TA@@ 7468
omission 7467
imputables 7466
omis 7466
aly@@ 7466
expliquant 7465
Position 7463
créateurs 7462
fraî@@ 7462
SEC@@ 7460
productives 7459
the@@ 7459
macroéconomiques 7457
radic@@ 7455
édant 7453
cription 7453
CANAFE 7452
demander@@ 7450
Energy 7448
IL 7448
réglementée 7447
ass 7447
Comman@@ 7447
stique 7445
jusque 7444
208 7442
parfaite 7442
dopage 7442
Trinité 7441
contradiction 7440
impasse 7439
NL 7437
soutenant 7436
im 7436
154 7436
var@@ 7435
pancanadi@@ 7435
gab@@ 7434
Banff 7434
1945 7433
Consultez 7431
Vol 7431
fail@@ 7430
CEP@@ 7430
prenons 7429
rê@@ 7428
aillement 7428
greffe 7428
GÉNÉR@@ 7428
travail@@ 7427
teaux 7426
révisés 7426
hivern@@ 7426
échapp@@ 7425
lav@@ 7425
synergie 7424
exigées 7424
achi@@ 7423
ek@@ 7423
tester 7422
célébr@@ 7422
crit 7422
récapitul@@ 7422
répéter 7421
parlent 7420
ancement 7420
minuti@@ 7419
cap 7419
od 7418
Kin@@ 7416
SN 7416
vieille 7414
dem@@ 7413
Creek 7413
Divers 7412
Power 7411
méthyle 7409
devriez 7408
éclair@@ 7403
détournement 7402
168 7402
rigueur 7401
idés 7395
intéressants 7393
assorti 7392
maximales 7392
appellation 7391
éto@@ 7391
ême 7390
dépendant 7389
exhaustif 7387
localement 7387
anth@@ 7387
73@@ 7387
entrav@@ 7386
Priorité 7386
management 7385
Care 7385
gratuits 7383
ler@@ 7382
fourn@@ 7380
automatis@@ 7378
exportés 7377
Investissement 7376
eons 7375
élar@@ 7374
émise 7374
REN@@ 7374
Log@@ 7374
Je@@ 7372
moratoire 7371
gren@@ 7371
exclusi@@ 7370
Puissance 7370
reconn@@ 7369
parer 7365
W.@@ 7365
bom@@ 7364
which 7364
revitalisation 7363
abordables 7362
95@@ 7362
envisagent 7361
vétérinaire 7361
203 7361
luxe 7359
veu@@ 7358
Ven@@ 7358
postul@@ 7358
č@@ 7358
ye 7357
forfaitaire 7357
dâ 7357
caisses 7356
renforcés 7356
rière 7355
WP.30 7354
spécialisation 7353
GESTION 7352
Kam@@ 7351
promesse 7350
détiennent 7350
organisateurs 7350
insul@@ 7348
Bretton 7348
variés 7347
Environment 7345
souhait@@ 7344
171 7344
brute 7343
BU@@ 7343
Législation 7342
para 7341
reconnaissons 7338
régit 7337
lées 7337
attendue 7336
GIEC 7336
β 7336
menacent 7335
présidentielle 7335
East 7334
excessi@@ 7332
Scotia 7332
ologue 7331
figuraient 7331
conventionnelles 7331
Préparation 7330
GM 7330
arbre 7329
participative 7329
Indice 7328
françaises 7327
visionn@@ 7326
effectuant 7325
chocs 7325
avantag@@ 7325
HO@@ 7325
analo@@ 7324
tournée 7322
dress@@ 7322
183 7322
www.hc 7319
illustrent 7318
Conseillers 7316
fréquents 7316
armo@@ 7316
filtre 7316
berges 7316
vertic@@ 7315
RN@@ 7315
prési@@ 7314
fiers 7313
voc@@ 7312
câ@@ 7311
courts 7304
rétic@@ 7304
FIC@@ 7304
fraudu@@ 7301
LMSI 7301
liquidités 7300
constants 7300
siég@@ 7299
UNOPS 7298
espér@@ 7297
quettes 7297
Anti@@ 7297
violent 7295
Ah@@ 7295
Respect 7295
colonnes 7294
nocifs 7293
ries 7293
hist@@ 7292
toxique 7291
FICATION 7291
êt 7290
essionnaire 7290
sincèrement 7287
estu@@ 7287
173 7287
Augmentation 7287
quo 7286
Éléments 7284
rappel@@ 7283
solu@@ 7283
réunissant 7282
régression 7280
Belgrade 7280
imprimé 7279
CESAP 7279
CEDEAO 7278
alimenter 7277
précisées 7277
aw 7277
Regional 7276
citoy@@ 7273
basses 7272
vigilance 7272
PESC 7272
répandue 7272
Ty@@ 7272
embarquement 7272
justifiant 7271
sentiments 7271
ENTI@@ 7271
foc@@ 7270
Révision 7270
ège 7269
escomptées 7269
situent 7268
Sites 7268
souhaitant 7267
licenciement 7267
acité 7266
ello 7266
Tobago 7266
éten@@ 7265
long@@ 7265
win 7262
matrice 7261
tracé 7261
arché@@ 7261
ascendance 7261
élite 7258
rentables 7258
enlever 7257
textile 7256
précédé 7255
levées 7254
choisit 7253
féri@@ 7253
restes 7253
attestant 7253
gouverneure 7253
toit 7252
tirage 7251
6,5 7248
sugg@@ 7247
tué 7243
Douglas 7243
convocation 7242
préfé@@ 7241
1963 7241
aviaire 7241
chypriote 7240
groupement 7240
von 7238
Mir@@ 7238
â 7237
diffusée 7235
r. 7235
Car 7234
onze 7234
ACCUEIL 7233
adressant 7232
favoris@@ 7232
XV 7232
Hau@@ 7231
IDE 7230
potenti@@ 7228
culpabilité 7228
RO 7228
libell@@ 7226
coloniaux 7226
Ash@@ 7226
ceau 7225
urgents 7225
renforcera 7224
perpétr@@ 7224
cohér@@ 7224
isolé 7224
Turkménistan 7223
réjouit 7223
explicatives 7223
fe 7222
agrandissement 7222
Ay@@ 7221
confrontée 7221
trag@@ 7220
Pres@@ 7220
présumés 7220
soumissionnaires 7220
istance 7219
EO 7215
récl@@ 7212
remporté 7210
émergents 7210
regarder 7209
audiovisuel 7209
diam@@ 7207
Marché 7207
Téléc@@ 7207
Hom@@ 7206
apatri@@ 7205
annoncée 7203
illustrer 7203
plants 7203
visaient 7202
prétexte 7201
onage 7201
remarqué 7201
VEN@@ 7199
barrière 7195
déploy@@ 7194
mentaux 7193
pires 7192
coutumes 7192
Courrier 7192
baisser 7190
assou@@ 7189
prolongement 7189
Mah@@ 7189
recour@@ 7188
gel@@ 7186
istique 7186
White 7186
Bangkok 7185
émerg@@ 7184
hélicoptère 7184
respectée 7183
esseur 7183
médicament@@ 7183
tirent 7182
mental 7182
disparues 7182
brevet@@ 7180
hâ@@ 7176
érir 7173
transformé 7173
pique 7173
avéré 7172
solenn@@ 7172
gué 7171
ingrédient 7170
interprétée 7170
vois@@ 7170
combats 7170
univers@@ 7170
spécifié 7170
Sept 7169
dénom@@ 7169
vitamine 7169
GS 7169
flexible 7168
fierté 7166
menacée 7166
mathématiques 7166
Seconde 7164
tierce 7164
continuerons 7162
constatation 7162
survivants 7160
Ol@@ 7159
418 7159
indicatif 7158
179 7157
cheuses 7156
affections 7156
IPC 7156
psycho@@ 7156
ors@@ 7156
rels 7154
kh@@ 7154
injuste 7153
Don 7153
Chois@@ 7153
plafonds 7152
boîtes 7152
Établissements 7151
profite 7150
vill@@ 7149
humide 7149
nav@@ 7148
nit@@ 7148
média 7148
inhér@@ 7147
soud@@ 7147
159 7147
Lab@@ 7146
SOCI@@ 7146
nuisibles 7145
messagerie 7145
interdits 7144
vidé@@ 7144
réduisent 7144
procédur@@ 7142
etc 7142
salué 7142
Harbour 7142
her 7142
SON 7142
fusions 7141
univers 7141
Né@@ 7137
ciblé 7137
URES 7137
Principales 7137
yers 7134
blessure 7134
pharmaci@@ 7133
Helsinki 7132
LC@@ 7132
élire 7131
aces 7130
Mr 7130
immuno@@ 7129
administre 7128
ston 7128
èques 7127
tiv@@ 7127
SH 7127
onnels 7126
old 7126
entraînerait 7124
améliorent 7124
Taylor 7123
partagées 7122
POP 7121
annulée 7121
chevauchement 7121
morue 7121
excédentaires 7120
RAD@@ 7120
judici@@ 7119
EUROPA 7118
Gordon 7116
Répertoire 7116
ICH@@ 7116
fondent 7115
analysés 7114
Q. 7114
1.4.@@ 7114
estimés 7113
Employ@@ 7113
207 7112
Qaida 7112
interculturel 7112
recueil 7109
imposant 7108
procé@@ 7108
oli@@ 7108
DS@@ 7107
enz@@ 7106
aissement 7106
pédiatri@@ 7106
larves 7105
extra@@ 7104
irrecevable 7103
3,2 7102
récession 7100
incite 7099
habituelles 7098
treizième 7096
Golan 7095
issantes 7094
dynam@@ 7093
asses 7093
méridi@@ 7093
Studies 7093
Â@@ 7092
réglée 7091
communi@@ 7091
Sydney 7091
alière 7088
feuillet 7088
équation 7086
Fac@@ 7086
eng 7086
cyto@@ 7086
exig@@ 7084
178 7084
Entreprise 7083
Formulaires 7083
réciproque 7081
Ins@@ 7081
213 7081
ky 7080
Booking.com 7080
ity 7078
Technologie 7078
finals 7077
Cycle 7077
š@@ 7077
productifs 7076
ienne 7074
carbon@@ 7073
Rideau 7073
prononce 7072
faisceau 7072
Programmation 7072
microbi@@ 7071
Tam@@ 7069
XVI@@ 7069
sauv@@ 7068
électoraux 7068
blancs 7068
minier 7068
sam@@ 7066
ultérieur 7065
graphi@@ 7065
souha@@ 7064
promotions 7064
provoque 7063
décid@@ 7062
Maritimes 7062
ôle 7061
strat@@ 7061
offrons 7060
ensuit 7060
mie 7060
volaille 7060
accusées 7059
19e 7056
.asp 7056
ert 7055
7.3 7054
interaméricaine 7053
refroidissement 7053
oï@@ 7052
ralenti@@ 7052
teuse 7052
sommets 7052
danois 7051
caf@@ 7051
spectro@@ 7051
Analy@@ 7050
débouché 7047
Cer@@ 7046
sser 7045
Arrêt 7045
Déf@@ 7044
HRC 7044
cir@@ 7043
Mémorandum 7041
frappé 7040
outi@@ 7039
ève 7039
codification 7039
entravent 7038
vér@@ 7037
aph@@ 7037
planétaire 7036
Coordonn@@ 7036
POLI@@ 7035
cic@@ 7034
typique 7034
Rencontre 7034
Continuer 7032
MINIS@@ 7031
Conférences 7030
sour@@ 7030
Vincent 7030
Capital 7030
2,0 7029
seaux 7028
0,9 7028
cutan@@ 7028
.html. 7028
signifi@@ 7027
refuge 7027
innovateurs 7026
pente 7024
traî@@ 7022
contrac@@ 7020
cardi@@ 7019
EURS 7019
anomalies 7018
entraînera 7017
condamne 7017
quinzième 7017
culte 7015
aéronautique 7014
égyp@@ 7014
187 7012
similitu@@ 7012
stéri@@ 7011
resté 7010
pâtes 7007
écras@@ 7006
sages 7004
préoccupante 7004
voudrions 7003
ayons 7002
lut@@ 7002
décri@@ 7002
Tel@@ 7001
jardins 7000
alignement 7000
211 6998
marchandise 6997
cite 6997
minières 6997
Front 6995
CP.@@ 6995
toile 6994
entrés 6994
industri@@ 6992
délinquant 6992
injusti@@ 6990
surviennent 6990
fér@@ 6989
foule 6989
pondé@@ 6989
exonération 6989
courtes 6988
documentaires 6988
Sun@@ 6988
disparaître 6987
Hav@@ 6987
Acc@@ 6987
Pos@@ 6986
récapitulatif 6986
PV@@ 6985
pourcentages 6985
atri@@ 6985
aurions 6983
encad@@ 6983
séparées 6983
167 6983
enchères 6983
.c. 6981
afflu@@ 6978
amène 6978
Campbell 6978
sct.gc.ca 6977
impliquent 6976
prouv@@ 6976
Don@@ 6976
ENCES 6976
ÉG@@ 6974
gê@@ 6973
scand@@ 6971
TPI@@ 6971
restaurer 6970
Cur@@ 6970
instituer 6970
lon@@ 6970
déduc@@ 6970
Breton 6970
instantan@@ 6968
UC@@ 6966
affrètement 6966
transnationales 6965
jug@@ 6964
Période 6964
ul 6963
drait 6963
asiatiques 6963
ambi@@ 6962
visuels 6962
erron@@ 6961
journaliste 6960
.c@@ 6960
investigation 6958
contemporaines 6957
invol@@ 6957
plastiques 6956
pénétrer 6955
notifier 6954
rapporté 6954
Lar@@ 6954
sacs 6954
Louise 6952
Mont 6951
sérieuse 6950
parental 6950
satis@@ 6949
OC 6949
Intégration 6949
men 6949
Ici 6947
pel 6946
Andorre 6945
nutriments 6945
ola 6943
Ordonnance 6943
Ant@@ 6942
compag@@ 6940
allégué 6939
941 6939
mémor@@ 6938
graphe 6937
Cir@@ 6936
COP 6935
Alexander 6933
réussie 6932
rangs 6930
ocy@@ 6930
parviennent 6929
concentré 6929
MENT 6929
ist 6928
tube 6928
SÉ@@ 6927
consacrent 6926
suspects 6926
implant@@ 6926
fondamentalement 6924
greffier 6924
précip@@ 6923
Thompson 6923
fais 6922
nement 6922
porc 6922
TATION 6922
solid@@ 6920
promo@@ 6920
Laboratoire 6920
infec@@ 6919
endo@@ 6918
217 6918
pa 6918
ato 6916
mutations 6916
181 6915
bovins 6915
triennal 6915
Nom@@ 6914
maj@@ 6914
Examiner 6914
ouvrent 6913
Nav@@ 6913
interviennent 6912
témoigner 6912
extrajudiciaires 6912
inaugur@@ 6912
Road 6910
Pé@@ 6909
oné@@ 6909
rehausser 6908
renommée 6907
football 6906
embry@@ 6906
xi@@ 6906
tangibles 6905
innovatrices 6905
vend 6905
histoires 6905
longu@@ 6904
Nature 6904
Partenaires 6904
866 6904
poussé 6903
primordiale 6902
impri@@ 6902
perfectionner 6901
222 6901
aki 6901
any 6900
RCE 6900
aint 6899
ery 6899
221 6899
quantitative 6898
résulter 6897
Government 6896
CIS@@ 6896
gardes 6895
fédér@@ 6894
vecteurs 6893
94@@ 6893
institutionn@@ 6891
appellent 6890
21,@@ 6890
corro@@ 6889
bébés 6889
vac@@ 6888
acquitte 6887
SIG 6887
CONCERNANT 6887
mélang@@ 6886
FCI 6886
Dan@@ 6885
relancer 6884
voudra 6884
chiens 6883
réglementés 6882
ace@@ 6881
Express 6880
crimin@@ 6878
encourageons 6877
élémentaires 6876
grille 6875
Lev@@ 6872
décisive 6870
Petit 6870
ciation 6869
raisonnement 6869
omes 6868
ifs 6868
méthane 6868
promis 6867
cuis@@ 6867
Compét@@ 6866
horizontales 6865
accélérée 6864
trons 6862
milices 6862
arom@@ 6862
recommandés 6862
infectées 6861
cibl@@ 6861
195 6860
tionner 6857
Mas@@ 6857
complications 6856
38,@@ 6856
prosp@@ 6855
écarter 6855
formant 6855
Év@@ 6855
habilités 6855
ancestr@@ 6855
diplômes 6852
portugais 6851
irlandais 6850
Stu@@ 6850
196 6849
glaci@@ 6846
transférées 6846
irrigation 6845
SADC 6845
Utilisez 6845
chrétiens 6841
agira 6840
voulus 6840
Cel@@ 6840
alis 6840
attentat 6839
206 6839
dîner 6839
remonte 6838
excès 6838
3,6 6838
métabolisme 6838
280 6837
nickel 6836
1965 6834
Fern@@ 6833
robu@@ 6833
aurais 6832
désh@@ 6832
1A 6831
ini@@ 6829
plancher 6828
parrainé 6828
pét@@ 6828
mettait 6827
fondateur 6826
cation 6826
wa 6825
découl@@ 6824
recou@@ 6824
stimulation 6822
pend@@ 6822
réuss@@ 6822
quants 6822
stat@@ 6821
Tendances 6821
élaborant 6819
cumulatifs 6819
disait 6818
Blo@@ 6817
faille 6816
additifs 6816
Juli@@ 6814
attribue 6813
courir 6813
interrogés 6813
recouvrer 6813
restait 6812
tenaient 6812
onnements 6812
Eurosystème 6812
RM@@ 6812
perçues 6811
récipients 6811
Hum@@ 6811
englob@@ 6809
aga 6807
bs 6807
prospère 6806
ambul@@ 6806
CAT 6806
Là 6805
coins 6805
huis 6803
FOR 6803
précité 6802
assument 6801
Î@@ 6801
caractérisée 6800
MTS 6800
herbes 6798
sentence 6797
premièrement 6795
CAS 6795
demment 6794
ij@@ 6794
Campagne 6794
élu@@ 6793
commandé 6791
excédentaire 6791
milli@@ 6790
Elizabeth 6790
revêtement 6788
étroites 6787
ethno@@ 6787
codage 6786
ene 6785
intellectu@@ 6784
Mai 6783
foncière 6781
excellents 6780
о@@ 6778
équivaut 6776
bis. 6776
ussi@@ 6775
glaces 6775
othérapie 6775
dénommé 6774
régénération 6773
judicieux 6773
1948 6773
intimée 6773
théoriques 6772
carb@@ 6772
LIS@@ 6771
obliger 6770
quantitatives 6770
abstr@@ 6768
views 6768
orique 6767
frein 6767
respectueux 6767
Condam@@ 6767
Sti@@ 6767
CRSNG 6767
crdi.ca 6767
Revue 6766
vie@@ 6765
Dur@@ 6764
corde 6763
bénévolat 6763
multiple 6763
intersessions 6763
policière 6762
numéro@@ 6762
brut@@ 6760
déduit 6759
Dernière 6757
mentation 6757
Représentante 6757
perturbation 6756
péninsule 6756
NOx 6755
représailles 6755
Hudson 6755
ectif 6754
retire 6753
québécois 6753
199 6751
colom@@ 6751
formulés 6750
retraités 6750
health 6750
merci 6749
lacune 6748
Sand@@ 6747
pourvus 6747
anticorps 6747
étendues 6746
valider 6746
fais@@ 6744
précieuses 6742
cident 6742
décident 6741
homolo@@ 6741
venons 6740
échou@@ 6740
isl@@ 6740
Exc@@ 6740
souhaiter@@ 6739
numér@@ 6739
libéral 6738
view 6738
insuffisants 6737
3.2.@@ 6737
présentaient 6736
remon@@ 6736
dentaire 6736
reporté 6735
ba@@ 6735
acou@@ 6735
évoquer 6734
Fin 6734
dél@@ 6733
ic.gc.ca 6733
présumée 6732
traces 6732
Indic@@ 6732
halieutiques 6731
Tokyo 6731
immobilisation 6731
giquement 6730
ander 6729
informels 6728
Compl@@ 6727
BL@@ 6727
Greffier 6727
aptes 6726
puissants 6725
ajoutées 6725
enses 6724
INF.@@ 6724
investisseur 6723
opérant 6723
contribuerait 6722
ays 6722
ISBN 6722
supplé@@ 6721
TRA@@ 6721
Ev@@ 6720
zinc 6720
gible 6719
Airways 6718
237 6718
génomique 6718
,00 6718
protègent 6717
roc@@ 6717
libéré 6716
ea 6716
caoutchouc 6716
témoigné 6713
délimitation 6713
hospitalisation 6713
augmentera 6710
excède 6710
absolu 6709
fissiles 6709
évolue 6708
organisant 6708
diversi@@ 6708
ense 6707
officieux 6707
174 6705
erson 6705
nominale 6704
délibérément 6703
TN@@ 6703
démocrates 6702
dir 6701
remplis 6701
roi 6700
châtiments 6700
effondrement 6699
tex 6699
Additif 6699
cides 6698
affiliées 6696
quarantaine 6695
PU@@ 6695
renonc@@ 6694
Dun@@ 6694
This 6694
ender 6693
colonie 6693
Andrew 6693
irrégulière 6693
automatiques 6691
dispense 6690
aume 6689
flor@@ 6688
inscrivez 6688
fe@@ 6687
Ori@@ 6686
fère 6686
Jac@@ 6685
enzymes 6684
budgétisation 6683
manquent 6681
rup@@ 6681
conteste 6681
uni 6680
burg 6680
EAU 6680
registraire 6680
vier 6679
drapeau 6679
auxiliaire 6679
gris 6678
spectaculaire 6678
Chem@@ 6678
rappell@@ 6677
contractuelle 6677
quatorzième 6676
Organisations 6674
sph@@ 6673
provisoirement 6672
SAL@@ 6672
Photo 6672
condamner 6671
survivre 6671
tombe 6670
civilisation 6670
supra 6669
originaire 6667
iens 6667
Compos@@ 6665
nich@@ 6665
6.4 6665
fran@@ 6663
available 6663
savait 6662
Plaza 6662
pneum@@ 6662
nullement 6661
musulman@@ 6661
épi@@ 6661
cass@@ 6660
liers 6660
anom@@ 6659
2,9 6659
assortie 6658
dre@@ 6658
ava 6658
Eng@@ 6658
fa 6658
May 6658
mad@@ 6657
phoques 6657
ington 6656
successi@@ 6656
chuté 6656
Gouverneure 6655
Arab@@ 6654
till@@ 6654
Mét@@ 6653
condamnations 6652
conjoncture 6651
éditeur 6651
fonctionnant 6650
protégeant 6650
Ul@@ 6650
let@@ 6650
338 6649
baccalauréat 6649
STR@@ 6649
Ltée 6649
salarié 6648
serveurs 6648
phili@@ 6648
Exploitation 6648
Contr@@ 6647
réflexions 6646
Hab@@ 6646
torat 6646
opie 6646
justificatives 6646
nomme 6645
GOUVERN@@ 6644
bébé 6643
ALL@@ 6641
ficateurs 6640
enregistr@@ 6639
fenêtres 6638
acadi@@ 6638
vitesses 6636
appréciable 6635
prestigi@@ 6635
ardo 6633
trouvée 6633
sab@@ 6633
Kal@@ 6632
alco@@ 6632
cohérentes 6631
Linux 6631
colons 6630
Sub@@ 6630
Délai 6630
incontest@@ 6629
corporel 6629
démocraties 6628
Anderson 6628
surveille 6628
mol 6628
Mit@@ 6627
GT 6626
Ve@@ 6625
spéc@@ 6623
FE 6622
eth@@ 6621
actionn@@ 6621
conférer 6621
retirée 6619
gos 6619
accompagnent 6618
précautions 6618
entiel 6618
gasp@@ 6617
laissez 6617
éclairé 6617
Bhoutan 6617
isations 6614
condens@@ 6614
Frank 6614
mesurés 6613
Ky@@ 6613
appropriation 6613
conceptu@@ 6612
OGM 6610
gri@@ 6610
sier 6609
215 6609
vents 6608
four 6608
accompl@@ 6607
médiatique 6607
Security 6607
pénétration 6606
tateur 6605
facturation 6605
apparten@@ 6604
distribuée 6604
origin@@ 6603
peurs 6603
subventionnement 6603
Lettres 6603
serve 6602
élas@@ 6602
préoccupe 6601
multidisciplinaire 6601
Control 6601
oises 6600
nourrir 6599
roman@@ 6599
Avril 6598
kir@@ 6597
cus@@ 6596
SER@@ 6595
exploitées 6594
Aider 6594
riers 6594
autoc@@ 6593
pareil 6592
es.@@ 6592
préci@@ 6591
adolescentes 6591
choisissent 6590
Principe 6589
grecque 6589
Quarante 6588
préoccupant 6588
indoné@@ 6588
their 6588
abatt@@ 6587
Échange 6586
donneurs 6585
analystes 6585
new 6584
aque 6582
multimédia 6581
nourrissons 6579
ja@@ 6579
She@@ 6578
spectateurs 6578
[...]
