the 62132819
, 44893779
of 40125754
. 30499721
and 30400483
to 26156343
in 19191459
a 13609517
@-@ 11685337
for 10320663
) 9883969
( 9827628
that 8837081
on 8166728
is 7698244
The 7181230
be 5892655
by 5804401
with 5730135
/ 5414011
as 5384988
or 4751775
&quot; 4596653
are 4295776
: 4079799
from 3319482
an 3265959
at 3213651
&apos;s 3174410
; 3145402
not 2993875
this 2948370
was 2946923
- 2769505
which 2761780
it 2679451
have 2678021
will 2581756
its 2572508
has 2351467
their 2157689
Canada 2105729
In 1991855
all 1873036
also 1731660
other 1726082
been 1711436
1 1606683
were 1586052
I 1531573
• 1493845
A 1489570
should 1417935
United 1417545
information 1383235
would 1320890
more 1302163
Committee 1242798
such 1224929
had 1191676
under 1186122
States 1170141
can 1158639
we 1149718
Council 1127772
Nations 1123422
one 1111726
This 1111424
2 1100680
may 1095721
It 1093427
new 1083129
development 1072624
international 1061710
General 1051311
work 1044868
they 1038791
any 1026782
_ 1017188
you 1008794
Commission 1008643
these 1004988
report 953072
Canadian 951830
European 945285
countries 939320
$ 932456
time 920115
between 919807
% 919091
into 905527
than 895161
but 889822
use 875269
3 874751
our 865787
who 863366
support 857946
including 853356
made 849865
must 841932
rights 816085
out 812515
well 801577
there 792194
shall 787528
those 785438
national 783558
services 770835
only 769713
through 762533
year 760741
public 758692
up 756280
if 746574
no 724819
health 723291
system 704900
about 699832
number 697456
two 695042
years 677851
activities 677171
Government 667074
within 665719
provide 662946
4 662400
his 656950
2005 656440
some 653845
s 641662
2006 641508
first 641081
human 637525
people 630690
&apos; 626502
International 621643
5 620810
10 616725
2004 614586
State 614484
We 609040
order 608323
process 603862
where 602962
Act 602315
per 599073
your 599058
women 594102
level 594062
when 592662
used 584213
over 583144
need 581961
being 574499
based 573934
so 570731
following 569173
policy 567720
them 563894
2007 562071
law 561886
resolution 561646
non 561138
country 559010
provided 558664
against 558088
do 556441
2003 556432
could 555527
&#91; 554726
part 554383
economic 550394
As 541741
most 540526
management 540438
ensure 536990
measures 536624
&#93; 534411
children 532926
Convention 530835
? 530468
re@@ 526981
Member 524251
implementation 523866
For 523704
issues 520354
both 519819
2002 518448
b 518191
ing 516751
un@@ 515493
during 515266
session 513232
6 513218
Assembly 512785
government 511925
each 509365
take 505544
social 505190
financial 500700
important 499799
ed 498545
meeting 498249
available 495626
make 494344
2001 493015
data 490869
members 489475
period 488037
decision 483506
service 483477
2000 481904
Mr. 480248
Health 479632
Article 478895
case 476813
he 471781
resources 467745
right 465698
Development 465593
areas 464954
security 462674
particular 462416
research 462286
related 458567
community 454743
respect 454315
President 450402
many 449563
same 444275
Secretary 443556
National 443279
de 440741
further 440593
organizations 440086
after 439977
S@@ 439290
paragraph 436910
access 435986
set 431429
7 425476
three 422381
&gt; 422230
very 418454
able 416403
before 414105
Group 413549
12 413189
c 412319
area 411066
M@@ 410154
required 409865
training 407547
us 406389
project 405601
B@@ 405058
15 400385
&amp; 399642
Office 398305
2008 395752
Board 395706
see 394806
action 393666
protection 393231
regional 390564
what 389852
d 389688
cooperation 388960
possible 386779
8 385687
way 384694
place 383115
To 381258
review 380364
If 380288
11 380276
Union 379941
efforts 378293
30 378074
Minister 377664
C 376647
specific 375865
high 375455
T@@ 374900
basis 374298
in@@ 373726
Security 373164
program 373052
taken 372490
include 370760
H@@ 370121
draft 369946
education 367187
application 366246
N@@ 365899
market 365484
world 364637
legal 363701
because 362884
necessary 361830
20 360829
million 360563
role 360346
Conference 360168
effective 358758
programme 357345
like 357295
without 357159
Europe 356660
G@@ 356183
business 356161
how 354721
Republic 351850
9 351655
December 351633
group 350750
i 350484
assistance 349621
general 349291
D@@ 348887
e 348882
appropriate 348507
political 348425
o 347768
working 347653
relevant 346308
However 343516
issue 342906
now 342015
held 341856
does 341331
requirements 341098
F@@ 340536
established 339988
sector 339694
needs 339549
Rights 339438
among 338461
conditions 338120
view 338094
cent 337796
end 337313
E 335824
adopted 335344
ate 335289
Human 334571
Agency 334453
persons 333752
al 333445
continue 333435
There 333368
results 332596
C@@ 332453
Department 331735
term 330624
trade 329756
increase 329731
groups 329698
situation 328961
person 328800
accordance 328736
These 326641
June 326611
since 326397
different 325786
whether 325612
P@@ 323933
products 322723
S 322245
developing 321258
her 321172
On 320941
future 320828
local 320720
section 320091
New 319755
provisions 319212
given 318667
cases 318254
while 317422
L@@ 317184
EU 317012
present 316877
staff 316156
party 314106
1999 312509
parties 311827
ers 310998
At 309858
means 308759
current 308579
proposed 307748
considered 306192
Public 305140
article 304515
E@@ 304501
full 304065
water 303344
* 303214
R@@ 303044
Parliament 302190
subject 301719
change 301711
Service 301686
y 301671
capacity 301134
risk 300816
result 300503
care 300369
long 300232
help 299726
said 299269
Court 298449
institutions 298424
example 297600
special 296989
14 296249
projects 295572
document 295009
regard 294572
W@@ 293525
total 293035
age 291344
March 290435
Mr 290121
quality 289649
plan 289232
A@@ 288174
er 284891
control 284230
en 283931
various 283767
account 283307
day 282717
levels 282350
addition 280609
Information 280496
18 280234
date 279668
policies 278360
amount 277660
reports 277409
13 277261
systems 276521
point 276511
September 276314
approach 275651
e@@ 275321
form 274851
K@@ 274636
provides 274561
Community 274342
environmental 274289
site 273664
framework 272751
second 272523
agreement 272393
federal 272173
May 271948
my 270728
making 270505
developed 270232
k@@ 269987
B 269777
key 269750
own 269091
s@@ 269004
environment 268612
address 268598
25 268118
costs 268027
population 267421
Program 267116
16 266733
less 266533
No. 265302
major 265118
ated 264984
member 263957
did 263719
terms 263486
t 262788
therefore 262383
July 261126
programmes 260625
impact 260539
rate 259973
received 259923
Special 259053
et 258960
progress 258603
industry 257601
31 257300
above 256860
World 256746
authorities 255982
First 255863
fact 255729
even 255679
life 255365
interest 254352
April 254264
m 253746
es 253637
programs 253516
question 253457
region 252904
technical 252740
o@@ 252457
common 252024
October 251846
Economic 251754
Report 251650
ating 250616
assessment 249834
recommendations 249547
d@@ 249356
Services 249117
using 249044
particularly 248683
= 248345
cost 248023
funding 247956
good 247816
November 247711
child 247392
D 246682
Social 246661
additional 246501
individual 246485
small 246041
significant 245869
17 244886
position 244406
5@@ 244226
legislation 244187
t@@ 243367
O@@ 243199
then 243023
employment 242426
21 242362
certain 242253
b@@ 242101
found 241972
budget 241442
line 241392
field 241059
Research 240846
private 240673
January 240379
production 239798
increased 238163
value 237162
7@@ 237080
6@@ 237070
knowledge 236967
concerned 236701
Ontario 236241
Management 235357
No 234490
submitted 234387
rules 234098
communities 233947
goods 233868
24 233843
They 233544
included 232532
third 232443
study 231884
19 231665
tax 231412
upon 231070
agenda 231044
existing 230733
force 230352
standards 229823
request 229579
ting 228976
Centre 228780
large 228608
Working 228342
still 228280
global 226519
food 226506
All 225755
concerning 225384
last 224611
dis@@ 224270
Organization 224041
growth 223899
building 223768
changes 223762
income 223439
organization 222739
family 222651
participation 222299
1998 222074
society 221895
develop 221193
importance 220316
8@@ 220084
property 219579
better 219159
several 219142
due 218968
potential 218511
Affairs 218260
peace 217808
noted 217033
Agreement 216835
treatment 216577
already 216264
consideration 215747
&apos;@@ 214834
best 214271
however 214102
22 214088
agencies 214008
responsible 213913
free 213875
documents 213841
safety 213652
least 213579
improve 213554
five 213294
p 212507
performance 211962
... 211355
Africa 211259
much 211152
He 210983
list 210907
R 210240
Programme 210094
problems 210034
Other 210014
cultural 209849
y@@ 209670
promote 209602
four 208727
23 208623
operations 208308
objectives 208296
technology 207785
benefits 207304
proposal 206538
procedures 206260
n 205789
p@@ 205675
V@@ 205314
meet 205203
language 204627
another 204337
Canadians 204329
50 204149
P 203663
main 203434
providing 203154
item 203069
l 202691
context 202571
energy 202382
g 202360
involved 202157
I@@ 201940
land 201627
effect 201575
response 200740
next 200613
With 200576
en@@ 200051
status 199854
activity 199375
meetings 199139
apply 198994
purpose 197621
am 197367
just 196517
g@@ 196054
Parties 195849
practices 195749
initiatives 195428
together 195214
Regulations 194915
Aboriginal 194782
fully 194289
&#124; 194108
responsibility 193918
OF 193913
analysis 193712
w@@ 193706
decisions 193349
ation 192352
days 192350
evidence 191877
.@@ 191323
regarding 191041
February 190853
clear 190685
h@@ 190420
note 190351
Re@@ 190283
relating 190143
annual 189819
F 189578
agreed 189330
28 189280
f@@ 189102
provision 189079
state 188742
er@@ 188520
sustainable 188115
become 187795
9@@ 187323
experience 187201
An 187177
conflict 187160
26 187085
4@@ 186948
Director 186732
ted 186666
strategy 186554
domestic 186081
product 185925
she 185696
authority 185609
give 185118
Tribunal 184916
months 184678
Secretariat 184016
foreign 183876
course 183799
27 183664
representatives 183585
representative 183571
consider 183506
air 183462
especially 183336
Section 183185
reported 183105
greater 182929
military 182782
monitoring 182549
taking 182326
cannot 181739
Fund 181633
n@@ 181390
every 181372
ts 180658
range 180406
operation 180271
recent 180088
co 180014
towards 179996
equipment 179571
principles 179379
1997 179239
continued 179125
employees 179058
investment 178633
identified 178385
Commissioner 178119
evaluation 178046
having 177966
Action 177918
procedure 177908
Policy 177897
Treaty 177882
referred 177692
II 177491
de@@ 176714
expected 176594
statement 176225
effects 176068
L 175876
THE 175850
an@@ 175686
violence 175495
J@@ 175151
personal 174979
l@@ 174794
funds 174393
00 174306
M 174195
often 174003
low 174003
m@@ 173990
behalf 173921
http 173677
matter 173461
la 173407
reporting 173399
Law 172896
2009 172724
T 172678
French 172626
ability 172540
attention 172319
Trade 171793
focus 171721
Plan 171689
benefit 171504
official 171172
el@@ 170909
might 170744
al@@ 170639
practice 170206
purposes 169532
c@@ 169234
contained 168921
60 168501
agreements 168482
partners 168198
reference 168048
planning 167801
down 167796
concern 167785
requested 167730
plans 167673
natural 167178
civil 167133
August 167086
opportunities 166585
pay 166531
African 166179
bodies 166047
2@@ 166045
Environment 165968
needed 165901
opportunity 165684
questions 165584
priority 165260
ates 164934
individuals 164780
Annex 164739
past 164703
across 164460
29 164379
problem 164261
South 163948
open 163925
paid 163848
k 163796
nature 163704
today 163610
early 163362
called 163288
discrimination 163040
communication 162811
des 162752
Women 162641
3@@ 162577
type 161758
allow 161233
below 161184
1996 160923
name 160903
actions 160464
Ms. 160326
establishment 160066
issued 159977
currently 159490
That 159481
associated 159453
0 159320
administrative 159240
limited 159128
University 158903
office 158567
either 158514
companies 158163
school 157931
nuclear 157635
establish 157596
commitment 157488
put 157372
higher 157357
Table 157155
When 157002
provincial 156935
approved 156900
! 156744
entitled 156619
mandate 156480
includes 156388
pursuant 156267
others 156029
me 155830
In@@ 155813
transport 155558
workers 155460
le 155441
While 154954
carried 154606
rates 154583
power 154579
find 154453
contribution 154229
presented 154093
ally 153290
gender 153111
strategic 153098
What 152862
done 152833
light 152817
40 152468
until 152464
know 152456
0@@ 152028
final 151802
ly 151774
body 151572
Executive 151415
HIV 151362
Quebec 151066
company 150991
01 150989
addressed 150958
direct 150844
comprehensive 150828
Code 150767
regulations 150741
EC 150737
capital 150588
expressed 150435
Protocol 150334
e.g. 150103
Y@@ 150025
Regulation 149821
essential 149620
previous 149418
off 149370
similar 149232
forms 148857
delegation 148665
Party 148561
follow 148557
di@@ 148549
One 148503
initiative 148448
few 148390
text 148339
co@@ 148076
states 147943
US 147772
ro@@ 147654
challenges 147109
proposals 146592
material 146563
young 146518
British 146462
100 145996
als 145894
economy 145674
discussion 145585
studies 145504
men 145485
page 145252
self 144953
facilities 144878
Federal 144845
principle 144648
ations 144561
contributions 144413
implement 144330
test 144137
understanding 144098
www.@@ 144051
poverty 144019
America 143921
obligations 143777
points 143516
overall 143425
r@@ 143094
processes 142926
achieve 142914
contact 142849
ad@@ 142696
i@@ 142323
a@@ 142290
prepared 142253
share 142211
on@@ 142184
species 142173
Ministry 142165
You 142160
u@@ 142084
single 142041
back 141997
great 141863
regions 141835
complete 141386
Bank 141363
require 141310
N 141140
lack 141067
reduce 140979
according 140681
far 140554
labour 140552
here 140370
citizens 140224
factors 140156
matters 140092
z@@ 140092
stated 139579
police 139516
concerns 139392
compliance 138972
Air 138884
personnel 138849
directly 138491
conducted 138429
opinion 138263
around 137887
ity 137814
applied 137788
decided 137395
applicable 137204
rule 137054
ar@@ 136829
average 136801
lead 136721
U@@ 136459
es@@ 136247
internal 136143
participants 136112
Institute 135963
ar 135961
positive 135881
◦ 135835
objective 135722
1995 135556
determine 135479
designed 135377
basic 135371
post 135361
six 135342
ine 135254
High 135213
likely 135138
return 134892
th@@ 134764
ic 134751
transfer 134705
real 134680
criteria 134650
indicated 134590
active 134417
prior 134248
home 133830
wide 133684
whole 133464
receive 133338
exchange 133066
Internet 132935
1@@ 132906
p.m. 132855
media 132681
reduction 132638
criminal 132298
Association 132288
act 132215
led 132165
ti@@ 132097
Amendment 131994
prevent 131848
contribute 131821
priorities 131786
North 131764
living 131468
interests 131454
Division 131397
humanitarian 131306
medical 131074
forward 131000
model 130986
dated 130943
AIDS 130894
terrorism 130880
values 130874
Mission 130870
increasing 130869
ways 130861
sh@@ 130527
h 130426
By 130375
known 130351
prevention 130319
took 130120
Ottawa 130108
China 130082
come 130062
believe 129722
adoption 129683
re 129592
supported 129395
create 129153
identify 129106
him 129087
strategies 129085
aspects 129022
+ 128977
outside 128570
table 128260
vote 128213
st@@ 128174
manner 128050
strengthen 127933
serious 127845
affected 127796
committed 127782
th 127686
circumstances 127562
governmental 127377
pre@@ 127344
France 127344
standard 127256
O 127230
justice 127199
Project 127097
1.@@ 126969
laws 126931
ings 126926
18@@ 126898
AND 126865
Some 126742
commercial 126681
aid 126608
thus 126591
departments 126527
American 126524
03 126496
@ 126468
defined 126406
Part 126317
applications 126250
itself 126180
as@@ 126165
design 126068
sources 126016
events 125914
governments 125760
hours 125532
Date 125316
structure 125107
content 124909
conduct 124811
primary 124709
rather 124518
v@@ 124499
event 124485
extent 124427
consultations 124337
strong 124310
distribution 124307
debate 124254
dialogue 124213
mechanisms 124209
Under 124180
02 124176
throughout 124174
completed 124131
Review 123974
want 123835
regular 123824
supply 123667
English 123610
delivery 123590
Protection 123539
guidelines 123317
coordination 123249
Resources 123241
employee 123146
protect 123141
payment 123087
ous 122990
competition 122902
Since 122865
too 122736
instruments 122616
Z@@ 122616
joint 122596
subsection 122382
Justice 122303
space 122200
reform 122069
ch@@ 122041
determined 122039
students 121923
Declaration 121912
im@@ 121627
Regional 121248
el 121129
awareness 120897
independent 120874
drug 120842
Home 120658
described 120595
G 120563
materials 120548
close 120470
infrastructure 120460
sites 120421
acts 120310
approval 120304
operational 119913
offer 119684
am@@ 119422
remain 119359
wish 119269
05 119082
implemented 119026
sectors 118990
amendments 118952
equal 118938
source 118933
promotion 118855
intended 118728
court 118723
get 118684
East 118646
published 118644
or@@ 118482
04 118478
ab@@ 118303
mail 118149
yet 118142
professional 118054
-@@ 117922
sub@@ 117916
ensuring 117808
call 117804
Directive 117795
administration 117736
informed 117731
claim 117674
During 117582
mission 117320
assist 117308
methods 117283
em@@ 117040
difficult 117030
▪ 116972
elements 116954
But 116898
partnership 116886
go 116843
contract 116831
-- 116720
hand 116611
1994 116404
55 115917
f 115897
integrated 115878
network 115836
reasons 115820
percent 115693
committee 115633
short 115475
department 115370
notes 115167
whose 115039
inter@@ 115007
facilitate 114990
inter 114895
Charter 114768
words 114762
06 114746
resolutions 114311
steps 114286
price 114192
forces 114078
participate 114037
Although 113976
team 113882
electronic 113812
recommended 113638
Food 113501
times 113420
clearly 113112
integration 113109
play 113074
climate 112889
le@@ 112777
requires 112769
Total 112746
board 112642
ter 112423
consultation 112389
fundamental 112345
j@@ 112174
000 112142
billion 111998
exercise 111952
Rapporteur 111937
comments 111701
Financial 111530
Our 111487
Chairman 111478
it@@ 111402
created 111303
stakeholders 111230
Central 111177
requests 111167
ding 111101
weapons 111096
met 111071
ary 110953
financing 110941
les 110869
markets 110867
ri@@ 110770
located 110674
scope 110671
culture 110612
appeal 110610
minimum 110447
former 110446
x 110412
families 110395
say 110340
regulatory 110269
traditional 110238
Business 110146
types 110144
rural 110066
&apos;t 110026
implementing 110021
letter 109938
applicant 109686
Governments 109592
ans 109591
2.@@ 109256
etc 109239
mentioned 109201
annex 109135
Meeting 109134
responsibilities 109054
themselves 109037
majority 109024
lower 108960
resource 108901
Kingdom 108898
central 108808
follows 108762
Education 108694
Environmental 108693
RE@@ 108650
negotiations 108595
achieved 108523
bring 108310
success 108249
critical 108203
Number 108123
always 108082
at@@ 108069
technologies 108069
red 108021
goals 108001
asked 107989
languages 107891
proceedings 107822
longer 107755
paper 107731
travel 107682
once 107673
Force 107661
claims 107659
skills 107589
views 107463
Web 107324
Palestinian 107178
physical 107136
along 107004
armed 106990
enhance 106967
record 106915
youth 106539
organized 106402
creation 106368
recognized 106353
promoting 106302
Al@@ 106301
enable 106266
3.@@ 106216
Non 106213
generally 106204
again 106070
adequate 106012
over@@ 105944
victims 105922
later 105780
statements 105758
written 105724
secretariat 105679
See 105566
undertaken 105490
Members 105463
relations 105412
Advisory 105365
relation 105339
aimed 105018
35 104896
ic@@ 104855
H 104824
arrangements 104745
although 104705
experts 104666
side 104645
added 104572
submit 104525
UN 104302
V 104190
parts 104165
tools 104119
remains 104104
crime 103973
est 103910
Dr. 103778
Representative 103771
effort 103738
job 103671
deal 103670
Columbia 103606
0.@@ 103497
Room 103470
old 103306
room 103277
li@@ 103096
strengthening 103020
i.e. 102996
is@@ 102984
relationship 102815
signed 102495
connection 102455
regulation 102443
successful 102414
Bureau 102408
ors 102154
effectiveness 102148
ongoing 102083
covered 101997
estimated 101875
maintain 101858
specified 101825
maximum 101779
selection 101607
learning 101447
consistent 101172
money 101166
territory 101133
registration 101060
credit 100990
definition 100885
10@@ 100872
Russian 100826
Ch@@ 100612
balance 100529
think 100388
Foreign 100284
Industry 100201
produced 100164
man 100002
file 99743
freedom 99656
version 99623
System 99161
operating 99140
demand 99132
communications 99119
visit 99030
show 99024
links 98962
Germany 98747
WIPO 98743
detailed 98691
enforcement 98665
why 98613
month 98537
stage 98529
X 98521
construction 98506
ad 98455
registered 98422
45 98379
conference 98345
fish 98319
items 98268
introduced 98166
III 98143
Chief 98027
centre 97980
approximately 97912
officials 97839
functions 97819
se@@ 97813
et@@ 97709
vehicle 97638
requirement 97518
shown 97195
encourage 97177
mark 97154
07 97121
crisis 97106
effectively 97091
tr@@ 97026
De@@ 96964
step 96847
series 96774
survey 96748
L.@@ 96730
Ministers 96719
Co@@ 96695
compared 96552
size 96461
5.@@ 96448
peoples 96403
assets 96400
scientific 96370
improving 96217
ap@@ 96110
Strategy 96052
cause 96002
op@@ 95913
u 95901
initial 95867
loss 95814
measure 95712
leave 95540
officers 95536
recommendation 95508
sufficient 95467
reason 95334
58 95119
ac@@ 94911
90 94814
ol@@ 94660
legislative 94579
cover 94547
improved 94514
UN@@ 94496
users 94455
road 94363
external 94349
sexual 94325
According 94249
Israel 94135
per@@ 94107
Children 93980
gas 93977
Permanent 93953
function 93906
4.@@ 93799
Decision 93715
scale 93701
border 93699
32 93694
Alberta 93640
carry 93626
Inc 93610
half 93567
para 93525
offices 93439
schools 93306
history 93283
ded 93199
ground 93179
ch 92981
Forum 92889
war 92859
industrial 92836
audit 92831
33 92830
insurance 92772
commitments 92616
Safety 92582
And 92441
K 92421
start 92392
ent 92387
risks 92381
Officer 92381
limit 92373
amended 92344
discussions 92200
sent 92017
supporting 91925
reduced 91888
establishing 91813
fiscal 91798
base 91731
preparation 91728
institutional 91700
brought 91683
positions 91600
works 91600
56 91542
59 91492
U.S. 91439
obtained 91437
emissions 91240
entry 91232
art 90942
build 90893
institution 90865
res@@ 90545
discussed 90473
maintenance 90428
2010 90336
investigation 90279
candidates 90166
equality 90116
Iraq 90035
57 90022
ator 89974
notice 89832
1990 89704
Criminal 89677
articles 89554
se 89369
Official 89361
province 89308
ant 89279
advice 89240
listed 89238
1993 89228
seen 89203
Support 89187
serve 89170
governance 89161
Description 89155
indigenous 89139
ag@@ 89025
unit 88973
net 88868
makes 88860
payments 88798
v 88761
mechanism 88682
hope 88647
aircraft 88612
election 88599
80 88594
IN@@ 88541
presence 88533
61 88346
pre 88200
Y 88192
08 88122
1,@@ 87972
om@@ 87740
disease 87581
assess 87556
Atlantic 87532
original 87522
efficient 87496
After 87441
under@@ 87412
week 87305
Arab 87295
eligible 87182
centres 87139
agricultural 87044
outcome 87028
Federation 86982
recently 86962
solution 86834
situations 86809
Where 86805
cross 86789
efficiency 86782
Toronto 86774
website 86634
House 86608
1992 86592
little 86582
bo@@ 86481
C. 86475
alternative 86424
prices 86237
collection 86149
hotel 86137
Chapter 86125
reflect 86104
setting 86097
please 86058
Asia 86014
treaty 85973
revised 85923
si@@ 85813
Japan 85717
Transport 85713
read 85670
collaboration 85485
look 85455
ii 85287
educational 85246
Framework 85220
12@@ 85209
complex 85165
face 85117
po@@ 85077
amendment 85031
judicial 85010
reasonable 84974
offers 84877
indicate 84877
live 84867
Panel 84808
34 84801
Note 84782
From 84703
going 84671
goal 84557
oil 84492
09 84472
paragraphs 84422
agency 84419
duty 84351
ON 84340
granted 84332
indicators 84321
origin 84261
raised 84250
ment 84215
phase 84210
death 84116
invited 84039
growing 83932
determination 83926
concluded 83871
West 83817
export 83648
takes 83555
ance 83543
informal 83408
records 83401
leading 83345
sp@@ 83277
arms 83188
du 83185
lo@@ 83131
details 83118
continues 83095
jurisdiction 83077
Employment 83058
Statistics 82969
city 82791
Geneva 82764
Furthermore 82728
Authority 82711
publication 82649
permanent 82633
practical 82477
Such 82459
leadership 82417
um 82325
Northern 82313
ec@@ 82210
70 82142
People 82037
She 82016
hold 81964
kind 81958
Summit 81951
Contact 81843
debt 81816
ators 81808
provinces 81755
A. 81709
processing 81674
reached 81621
resulting 81607
um@@ 81597
contains 81593
separate 81503
1991 81438
variety 81432
trafficking 81306
tic 81297
component 81231
method 81205
useful 81180
beyond 81169
ative 81127
r 81107
vehicles 81099
followed 81073
challenge 81041
ul@@ 80864
Western 80850
allowed 80711
sub 80642
territorial 80618
aim 80572
13@@ 80521
aware 80491
Technology 80374
Assessment 80347
19@@ 80343
York 80315
ist 80314
W 80309
obligation 80249
ED 80232
6.@@ 80203
beginning 80195
37 80190
Constitution 80190
36 80140
developments 80015
release 79988
obtain 79974
be@@ 79953
Implementation 79927
anti 79733
17@@ 79586
duties 79580
suggested 79571
left 79536
author 79476
fall 79387
involving 79317
ters 79282
urban 79247
reach 79166
keep 79153
Q@@ 79151
broad 79008
amounts 78961
guidance 78959
der 78810
IC@@ 78797
target 78781
agree 78595
Global 78515
tions 78469
units 78459
degree 78445
expert 78399
stability 78297
St@@ 78262
613 78159
soon 77989
produce 77946
to@@ 77935
core 77824
expenses 77820
class 77814
14@@ 77742
location 77666
Cooperation 77652
x@@ 77638
compensation 77562
placed 77541
emergency 77526
direction 77520
How 77499
expertise 77460
understand 77454
offered 77372
Pacific 77366
solutions 77343
39 77341
almost 77339
possibility 77129
75 77100
ds 77098
Deputy 77031
specifically 76992
Indian 76979
components 76976
fair 76919
Child 76875
ter@@ 76785
actual 76748
62 76671
Se@@ 76477
approaches 76453
Administration 76434
Second 76419
designated 76353
Please 76346
41 76303
formal 76277
con@@ 76238
represented 76220
Defence 76195
parents 76192
accepted 76190
continuing 76090
poor 76090
pressure 76059
00@@ 76024
Branch 75942
15@@ 75917
IN 75901
sessions 75880
instrument 75861
otherwise 75742
sales 75717
Ex@@ 75674
calls 75666
Training 75654
democratic 75600
Also 75570
selected 75539
options 75443
Inter@@ 75438
En@@ 75407
medium 75372
involvement 75366
20@@ 75249
top 75245
observed 75241
More 75146
housing 75047
63 75044
fund 75001
movement 74987
appointment 74898
science 74890
missions 74877
tive 74842
appointed 74768
participating 74726
Joint 74699
elections 74682
filed 74620
earlier 74601
&lt; 74564
search 74561
AL 74550
differences 74456
populations 74454
affect 74423
announced 74361
appellant 74354
doing 74315
ethnic 74268
54 74223
te 74199
uses 74148
interested 74077
38 74020
adopt 74013
licence 73997
reviewed 73975
move 73912
Appendix 73873
44 73859
task 73854
substances 73765
16@@ 73588
us@@ 73587
highly 73553
improvement 73550
charge 73550
48 73518
partnerships 73479
containing 73414
significantly 73394
abuse 73221
recognition 73218
trust 73186
transition 73144
mo@@ 73122
Labour 72967
Con@@ 72921
shared 72903
advance 72841
sharing 72816
ed@@ 72781
concept 72714
zed 72708
delegations 72708
Democratic 72622
secondary 72594
things 72509
safe 72477
authorized 72380
conclusion 72340
200 72312
recovery 72308
Afghanistan 72304
Work 72196
Covenant 72195
il@@ 72122
acting 72097
respond 72087
examination 72024
unless 72020
# 71983
River 71972
95 71971
copy 71953
except 71846
UNDP 71774
Pro@@ 71676
° 71631
bi@@ 71585
clients 71520
avoid 71482
defence 71363
caused 71331
a.m. 71299
appear 71206
violations 71203
outcomes 71174
negative 71099
courts 70951
web 70900
Hotel 70881
ten 70854
mass 70841
welcome 70789
voluntary 70778
contracts 70713
ex@@ 70687
ality 70679
combat 70635
consumer 70592
category 70556
submission 70526
complaint 70470
operate 70439
Treasury 70438
Many 70415
Administrative 70366
Finally 70361
grounds 70332
42 70319
applies 70265
drugs 70250
Data 70244
provisional 70201
findings 70158
leaders 70122
businesses 69999
achieving 69997
Therefore 69925
near 69925
planned 69915
Forces 69904
Communications 69899
Moreover 69826
Mar@@ 69804
ph@@ 69737
Sustainable 69718
Tax 69685
numbers 69662
seek 69620
ology 69609
shows 69580
officer 69484
collective 69460
innovation 69415
immediately 69395
Manitoba 69366
lines 69365
closely 69228
condition 69198
hearing 69186
fourth 69186
Legal 69179
funded 69156
away 69153
competent 69113
Italy 68998
discuss 68954
diversity 68934
factor 68821
49 68809
Of 68794
regime 68787
consequences 68772
John 68757
jobs 68740
head 68684
highest 68658
Mexico 68608
ING 68591
absence 68517
enter 68446
Summary 68416
CH@@ 68392
mean 68360
ob@@ 68342
ages 68277
IT@@ 68265
fuel 68250
pro@@ 68249
AR@@ 68181
Car@@ 68175
Each 68164
writing 68151
X@@ 68087
Company 68067
Unit 68037
prepare 68003
normal 67964
statistics 67941
testing 67916
threat 67837
favour 67801
Rules 67770
Initiative 67742
protected 67701
500 67668
CIHR 67648
employed 67635
India 67614
bank 67610
networks 67591
waste 67583
candidate 67523
unique 67478
transportation 67442
turn 67392
disabilities 67328
king 67319
monitor 67312
recommends 67301
competitive 67267
ended 67241
me@@ 67233
trial 67217
7.@@ 67204
mis@@ 67143
tri@@ 67106
Use 67088
rooms 67058
expenditure 67032
worked 66999
supports 66983
\ 66964
permit 66963
ES 66962
Millennium 66884
categories 66838
z 66792
ke 66743
never 66727
summary 66657
corporate 66583
partner 66526
code 66441
Lake 66253
damage 66242
dealing 66216
represent 66199
tool 66192
documentation 66082
weeks 66064
News 66062
Sh@@ 66051
ship 66027
senior 65994
democracy 65988
Region 65968
ask 65952
Order 65950
fields 65901
though 65889
alia 65876
respective 65759
ze 65734
entire 65711
link 65698
focused 65636
user 65577
religious 65499
accessible 65453
flow 65427
sections 65417
St. 65407
plant 65394
Corporation 65379
expenditures 65374
coming 65373
City 65315
impacts 65282
inform 65268
disarmament 65259
consumers 65209
structures 65204
Rule 65145
Netherlands 65142
girls 65129
forest 65124
accounts 65100
EC@@ 65077
2,@@ 65075
sea 65034
43 65019
contain 64990
AC@@ 64990
previously 64979
51 64978
linked 64938
ever 64889
sale 64889
99 64861
multi 64852
seven 64846
Fisheries 64788
Any 64785
ve 64760
Spain 64741
tion 64730
Network 64724
subsequent 64723
thank 64723
64 64691
extended 64658
ot@@ 64636
alization 64632
creating 64629
fishing 64622
53 64553
Document 64541
Ar@@ 64532
reducing 64478
comply 64465
peacekeeping 64367
primarily 64333
U 64330
Saskatchewan 64314
ks 64296
sense 64295
Further 64265
ical 64191
Island 64134
software 64103
sound 64096
substance 64092
pl@@ 64032
nor 64002
percentage 63986
influence 63973
98 63917
exist 63903
lives 63894
grant 63887
description 63862
allows 63861
refugees 63825
identification 63804
chemical 63785
IS@@ 63738
usually 63737
territories 63729
Heritage 63693
regards 63692
multilateral 63688
His 63685
fight 63662
managers 63636
consensus 63569
Science 63505
transparency 63434
Turkey 63427
mind 63410
marine 63353
settlement 63301
65 63294
An@@ 63171
addressing 63141
researchers 63129
availability 63121
ite 63074
so@@ 63069
respectively 63023
employer 63021
guarantee 63015
confidence 63000
Status 62890
Control 62885
ay 62799
enough 62767
Energy 62727
Delegation 62718
ence 62703
Chair 62692
ur@@ 62685
daily 62632
Civil 62631
Agenda 62625
exposure 62594
crimes 62521
for@@ 62469
he@@ 62443
secure 62376
Evaluation 62372
format 62363
failure 62283
st 62280
largest 62273
implications 62236
.1 62230
Strategic 62226
weight 62197
innovative 62194
Contracting 62193
mainly 62166
via 62148
ard 62134
52 62116
encouraged 62024
introduction 62022
Access 62011
Paragraph 61975
end@@ 61934
CO@@ 61909
47 61881
ST@@ 61880
Products 61842
Ireland 61797
accountability 61768
limits 61754
choice 61740
guide 61734
ER 61717
refer 61684
facility 61671
son 61671
stay 61657
fees 61654
sc@@ 61568
modern 61561
consent 61438
Annual 61425
online 61414
interpretation 61374
ia 61322
powers 61286
minority 61232
Br@@ 61192
estimates 61189
house 61176
immediate 61142
entities 61138
membership 61114
century 61091
conclusions 61062
Québec 61042
recorded 61023
46 61009
Vice 60991
par@@ 60988
consumption 60981
Draft 60981
became 60945
pe@@ 60932
substantial 60909
simply 60844
try 60819
Transportation 60801
scheduled 60753
ER@@ 60734
entered 60702
Nation 60690
whom 60654
complaints 60570
Prevention 60549
CF 60548
launched 60404
fl@@ 60387
late 60333
patients 60287
fifty 60284
ties 60276
97 60217
true 60153
Prime 60126
computer 60126
terrorist 60110
Agriculture 60106
producers 60059
directive 60016
timely 60010
Most 59950
vulnerable 59944
Contract 59938
Australia 59930
Fax 59876
ps 59852
delivered 59844
enterprises 59837
Mo@@ 59812
Police 59794
bilateral 59729
Directorate 59720
Le@@ 59703
traffic 59671
giving 59655
out@@ 59651
elected 59647
Item 59601
qualified 59543
Israeli 59527
receiving 59484
intellectual 59439
procurement 59433
IT 59417
substantive 59327
client 59289
perspective 59266
agriculture 59265
assessed 59213
temporary 59192
organisations 59179
Great 59177
Technical 59151
car@@ 59149
patent 59149
NGOs 59117
biennium 59117
resident 59112
run 59093
programming 59048
detention 59022
option 59010
ty 58981
presentation 58934
specialized 58901
difficulties 58884
no@@ 58871
element 58857
ho@@ 58769
dollars 58736
Th@@ 58722
minutes 58680
proper 58675
oc@@ 58659
ir@@ 58635
ou@@ 58548
Bo@@ 58515
Customs 58511
TO 58493
av@@ 58417
illegal 58285
Political 58231
targets 58229
accept 58213
characteristics 58210
J. 58173
Dis@@ 58128
Media 58116
Nova 58069
ago 58044
fixed 58041
rest 58013
larger 57986
proportion 57978
host 57926
relatively 57921
carrying 57879
Disclosure 57879
came 57806
relative 57770
vi@@ 57750
Un@@ 57743
investments 57740
surface 57708
w 57706
ins 57682
Tr@@ 57642
resulted 57634
Reports 57597
pension 57587
corporation 57535
Site 57531
Finance 57494
rise 57490
word 57488
places 57486
Co 57405
imposed 57366
difference 57293
Crime 57292
began 57286
advantage 57225
volume 57160
77 57084
Ro@@ 57079
Reference 57052
do@@ 57050
sex 57028
let 56945
Year 56933
answer 56905
examined 56877
IV 56864
Guide 56857
Society 56854
increasingly 56854
3,@@ 56816
appears 56810
Results 56800
cycle 56767
Operations 56752
twenty 56738
Guidelines 56736
enhanced 56683
constitute 56600
9.@@ 56484
representation 56480
closed 56471
press 56469
Youth 56465
About 56407
declaration 56353
sure 56341
maintained 56321
add 56302
Congo 56295
PDF 56284
represents 56268
ton 56237
considerable 56225
examine 56172
Kosovo 56172
courses 56132
remaining 56128
actively 56095
transactions 56071
economies 56037
committees 56029
identity 56020
increases 56002
finding 55971
Thus 55921
treated 55907
WTO 55884
Countries 55816
diseases 55775
responses 55750
considers 55736
concrete 55646
ses 55645
namely 55643
UNICEF 55643
preliminary 55626
ful 55580
released 55549
ness 55535
reflected 55530
database 55528
Performance 55507
express 55364
Schedule 55321
reviews 55271
Family 55258
ling 55167
ens 55157
tasks 55128
associations 55103
8.@@ 55103
models 55036
su@@ 54963
posts 54947
gi@@ 54930
manage 54900
trends 54879
300 54875
built 54871
torture 54836
occur 54826
Key 54770
Pre@@ 54758
gu@@ 54736
files 54736
Scotia 54722
Two 54713
AM@@ 54705
Vancouver 54680
ying 54669
85 54631
welcomed 54626
served 54610
features 54609
combined 54594
Day 54588
My 54580
collected 54555
ending 54515
te@@ 54507
Korea 54487
observations 54431
length 54429
Di@@ 54403
96 54398
performed 54381
Water 54342
bl@@ 54287
engaged 54252
tor 54184
association 54161
actors 54124
Mrs 54012
female 53991
os 53982
actually 53969
hard 53967
Cultural 53958
heritage 53955
begin 53949
conflicts 53932
Switzerland 53911
Following 53909
ones 53884
ill 53883
M. 53869
emphasis 53783
civilian 53778
Notice 53737
eight 53725
assessments 53716
gives 53682
sets 53682
achievement 53666
vision 53665
Staff 53590
looking 53575
treaties 53542
ists 53533
FOR 53453
mental 53452
ons 53371
ships 53355
telephone 53342
completion 53325
quite 53305
For@@ 53285
ne@@ 53240
Paris 53200
confirmed 53185
cl@@ 53178
fee 53171
Revenue 53142
aged 53094
aims 53073
Appeal 53058
Brazil 53032
something 53011
Property 52949
ves 52918
pilot 52916
sample 52888
names 52858
exploitation 52817
integrity 52788
feel 52784
IP 52770
round 52751
ets 52749
occurred 52747
à 52740
expression 52711
title 52628
statistical 52627
meaning 52620
cash 52620
package 52617
Task 52610
appreciation 52598
ments 52598
coverage 52589
School 52490
sign 52484
latter 52444
Assistance 52443
despite 52433
decide 52432
Russia 52425
undertake 52423
remained 52403
inclusion 52403
prescribed 52392
ent@@ 52344
Natural 52329
plants 52315
€ 52288
chapter 52270
firms 52259
ep@@ 52229
equivalent 52156
ics 52144
devices 52131
radio 52094
improvements 52090
contributed 52086
instance 52084
examples 52055
tu@@ 52048
purchase 52046
tests 52044
holding 52040
undertaking 52013
IM@@ 52003
BC 52000
controls 51949
conferences 51948
Budget 51938
deemed 51909
behaviour 51903
Middle 51877
Sweden 51808
rec@@ 51806
idea 51788
Montreal 51785
Am@@ 51783
Royal 51778
94 51770
lot 51749
emerging 51740
campaign 51732
violation 51728
Brunswick 51718
speaking 51712
fifth 51703
Proactive 51696
heard 51638
raise 51637
offence 51581
Over 51525
mutual 51492
workshop 51484
bu@@ 51400
seeking 51385
German 51348
laid 51334
assigned 51313
800 51312
opening 51298
Activities 51297
causes 51292
publications 51281
Class 51250
crucial 51239
portion 51230
conservation 51215
Audit 51188
Ad@@ 51183
migration 51179
input 51146
changed 51140
sensitive 51119
Latin 51108
trans@@ 51088
tors 51049
determining 51042
raising 50973
Par@@ 50967
numerous 50954
existence 50951
book 50934
Territories 50929
Honourable 50915
extensive 50904
maintaining 50890
periods 50875
managed 50861
alone 50856
controlled 50854
List 50846
really 50842
residence 50807
finance 50800
ATION 50789
zation 50767
fin@@ 50754
independence 50750
v. 50715
intervention 50704
marketing 50645
extend 50591
Chamber 50587
departmental 50543
complainant 50519
Headquarters 50490
Based 50437
TI@@ 50429
Third 50389
properly 50377
der@@ 50306
ak@@ 50292
Qu@@ 50280
EUR 50270
television 50269
Statement 50259
Internal 50236
tariff 50221
Saint 50181
km 50152
reserve 50137
ing@@ 50136
Care 50115
CI@@ 50103
Park 50102
il 50088
heart 50068
allocation 50012
intergovernmental 49988
mon@@ 49921
exports 49921
Foundation 49915
front 49904
ational 49903
electoral 49853
customers 49837
Inuit 49808
accounting 49757
EN@@ 49737
industries 49733
spending 49708
Survey 49707
br@@ 49658
changing 49636
incorporated 49595
hi@@ 49593
satisfaction 49585
send 49555
habitat 49555
Parks 49550
drawn 49535
1989 49495
updated 49493
AD@@ 49480
allocated 49470
classification 49466
Its 49451
Caribbean 49450
AS@@ 49429
customs 49413
Articles 49353
Ukraine 49353
periodic 49306
Sub 49240
ological 49208
Eastern 49168
Case 49156
imports 49146
ies 49061
destruction 49057
Chairperson 48997
relationships 48960
Peace 48943
Assistant 48891
contributing 48879
Sudan 48869
B. 48806
principal 48771
animals 48738
recognize 48700
marks 48691
professionals 48673
Figure 48668
78 48633
relief 48632
dem@@ 48611
injury 48611
ati@@ 48580
pointed 48571
universal 48536
demonstrated 48494
ideas 48482
directed 48466
Be@@ 48446
Partnership 48407
stock 48373
alized 48372
dr@@ 48364
replaced 48362
enjoy 48312
experiences 48292
sought 48290
involve 48258
Persons 48251
Insurance 48216
liability 48172
acceptable 48171
ready 48164
temperature 48148
organizational 48124
comes 48106
restrictions 48098
anti@@ 48083
pr@@ 48062
93 48062
Newfoundland 48044
failed 48014
vital 48008
budgetary 48003
demonstrate 48000
offences 47984
ice 47978
str@@ 47942
J 47907
learn 47903
Street 47899
accession 47833
started 47827
AN@@ 47824
storage 47809
Those 47794
fied 47765
certificate 47762
Monitoring 47736
fisheries 47732
Change 47701
ci@@ 47695
aw@@ 47664
CE@@ 47656
zing 47614
participated 47611
extremely 47580
CF@@ 47567
charges 47520
perform 47516
generation 47493
ni@@ 47486
banks 47486
soil 47457
.ca 47456
targeted 47428
ants 47420
Not 47418
92 47411
indicates 47406
Name 47402
reforms 47398
Programs 47334
plenary 47298
minorities 47296
Gu@@ 47232
speed 47202
S. 47200
technological 47199
excellent 47196
recruitment 47188
den@@ 47187
id@@ 47178
Search 47172
So 47089
tourism 47084
revenue 47075
4,@@ 47068
Tel 47064
man@@ 47050
coordinated 47013
lands 47001
Application 46992
AS 46931
initiated 46925
Planning 46909
felt 46902
Yukon 46901
91 46889
providers 46876
1987 46874
ge@@ 46850
,000 46837
1988 46800
attached 46790
attend 46789
panel 46787
Another 46776
distributed 46772
ren@@ 46724
Area 46722
clinical 46705
Islamic 46702
outlined 46684
profit 46649
residents 46645
Common 46639
mar@@ 46634
disability 46634
ism 46624
internationally 46617
AL@@ 46601
lost 46536
Recalling 46532
multiple 46514
ver@@ 46493
considering 46458
IP@@ 46454
Related 46438
SI@@ 46437
ise 46427
cities 46413
quickly 46408
floor 46388
Spanish 46382
strongly 46325
threats 46287
entity 46283
zone 46279
iii 46254
Bay 46179
Mc@@ 46175
digital 46165
au@@ 46145
bio@@ 46119
aries 46098
Belgium 46089
modified 46089
northern 46054
identifying 46041
deliver 46029
Population 46005
birth 46000
min@@ 45999
gr@@ 45976
simple 45975
concentration 45962
Resolution 45954
Me@@ 45937
Discrimination 45913
draw 45899
judges 45893
station 45848
Sector 45816
firm 45814
71 45803
micro@@ 45795
copies 45795
tics 45771
peaceful 45770
keeping 45738
War 45728
summer 45707
outstanding 45691
dispute 45687
governing 45670
Land 45617
ited 45591
pleased 45563
latest 45550
message 45532
La 45522
ownership 45492
ering 45472
easy 45435
background 45417
ten@@ 45403
explained 45400
Publications 45381
66 45349
seems 45345
transferred 45332
extension 45311
els 45311
Norway 45302
payable 45281
unemployment 45266
emb@@ 45220
TR@@ 45197
healthy 45156
figures 45123
techniques 45107
animal 45085
facing 45061
functioning 45050
affairs 45018
sanctions 45017
Relations 45010
sometimes 44980
older 44974
72 44972
grants 44948
Requests 44932
Iran 44930
abroad 44918
suggest 44906
Page 44902
supplies 44894
DE@@ 44881
69 44875
ana 44874
says 44852
ale 44847
D. 44838
adverse 44828
delay 44806
est@@ 44798
workshops 44796
E. 44768
PS@@ 44761
wood 44729
Small 44720
GDP 44706
exception 44662
urgent 44659
stressed 44641
Per@@ 44608
lists 44592
gave 44586
Team 44581
Standards 44569
inspection 44550
Main 44534
enhancing 44516
sk@@ 44507
decrease 44492
Given 44468
arising 44465
ery 44452
measured 44441
unable 44436
Building 44418
89 44380
Sea 44375
ru@@ 44347
Letter 44345
fo@@ 44340
pollution 44331
aging 44317
forum 44316
university 44300
ders 44288
experienced 44274
check 44225
Industrial 44207
com@@ 44186
qu@@ 44184
88 44121
respondents 44121
1985 44112
Communities 44088
Your 44073
thereby 44067
agent 44033
R. 44031
roles 44024
don 44008
disclosure 44003
HR 43997
Governor 43993
kg 43980
Cuba 43964
Drug 43961
gen@@ 43956
Risk 43950
decline 43909
blood 43903
Scientific 43891
un 43852
cr@@ 43845
carbon 43834
ma 43831
device 43826
investigations 43819
.com 43812
fire 43801
formed 43799
proliferation 43780
PR@@ 43773
becoming 43766
patient 43762
ve@@ 43731
SS 43724
all@@ 43713
81 43712
AP 43665
helping 43653
NRC 43652
applying 43639
SC@@ 43636
counter 43634
voting 43578
76 43578
200@@ 43578
Jean 43573
El@@ 43566
quarter 43563
Austria 43551
Drugs 43549
revenues 43540
ents 43502
73 43497
career 43495
AT@@ 43477
cells 43464
Issues 43438
taxation 43422
standing 43419
au 43411
1.1 43403
structural 43359
s.@@ 43309
ker 43277
burden 43275
index 43274
Romania 43235
Provincial 43208
da 43178
id 43176
10.@@ 43175
Li@@ 43165
CC@@ 43163
ay@@ 43139
alism 43137
83 43055
transmission 43020
forced 42997
teachers 42985
OECD 42966
advanced 42933
conformity 42900
84 42896
barriers 42894
starting 42881
IS 42881
showed 42873
Only 42865
agents 42856
Archives 42853
everyone 42720
29@@ 42694
Capital 42689
manufacturing 42680
claimant 42679
binding 42659
bringing 42646
82 42636
UNCTAD 42598
owned 42583
filing 42575
68 42558
alleged 42546
Czech 42529
Their 42528
Poland 42522
screening 42512
choose 42490
suitable 42484
schedule 42459
mid 42438
ECE 42421
equity 42416
euro 42398
Medical 42390
GST 42390
card 42364
Asian 42354
stop 42353
11.@@ 42351
wing 42345
Coordination 42343
mine 42340
calculated 42332
Financing 42323
Standing 42319
Recommendation 42298
rapid 42274
ches 42271
23@@ 42254
du@@ 42231
Both 42196
corruption 42189
ms 42188
Once 42172
Investment 42169
400 42157
biological 42156
allowing 42127
disposal 42111
Through 42094
ats 42086
Process 42079
stress 42063
historical 42060
Q 42059
welcomes 42045
freedoms 41999
12.@@ 41992
Finland 41980
AN 41948
taxes 41932
facts 41916
preparing 41899
combination 41885
racial 41864
rapporteur 41845
representing 41818
ture 41801
the@@ 41797
tobacco 41790
municipal 41789
employers 41777
CD 41775
stand 41772
cor@@ 41751
covering 41748
satisfied 41742
ently 41740
engage 41700
Vienna 41687
67 41679
instead 41663
Bosnia 41656
spoke 41646
5,@@ 41635
wishes 41633
Oceans 41632
receipt 41616
Procedure 41557
duration 41554
Optional 41548
PA 41537
widely 41531
stable 41530
oral 41528
detail 41518
ill@@ 41505
bar 41473
ase 41464
sixth 41454
Or. 41452
valid 41422
involves 41414
thing 41405
Pakistan 41403
speak 41398
image 41383
Crown 41345
mg 41332
AR 41331
privacy 41317
displaced 41269
flexibility 41267
ley 41259
nations 41258
Museum 41253
L. 41192
track 41188
ered 41165
Supreme 41138
hereinafter 41127
Mon@@ 41091
capable 41089
ak 41080
stations 41053
thought 41031
www.un.org 40996
played 40980
24@@ 40952
ars 40950
mortality 40945
Senior 40936
Lo@@ 40924
expansion 40914
ving 40909
dependent 40885
cell 40883
EN 40880
music 40879
que 40857
Chinese 40839
evaluate 40836
constitutional 40806
qualifications 40789
award 40777
Limited 40759
executive 40756
AC 40747
encouraging 40730
waters 40728
friendly 40719
ang@@ 40705
Space 40698
attacks 40693
indeed 40677
distance 40674
estimate 40660
pages 40639
Governing 40634
largely 40599
corresponding 40593
Despite 40591
Funding 40584
mm 40560
Territory 40541
intention 40520
Goals 40511
RCMP 40477
TS 40471
protecting 40455
occupation 40444
learned 40439
SMEs 40415
nation 40412
spent 40411
occupied 40410
Journal 40402
ratification 40398
Analysis 40394
gain 40392
sentence 40390
update 40390
continuous 40387
donors 40376
resolve 40356
Market 40337
fi@@ 40337
fine 40334
cancer 40326
contrary 40325
organisation 40300
ably 40295
Parliamentary 40281
regularly 40265
behind 40257
refers 40253
ry 40251
advisory 40217
affecting 40203
visits 40187
Income 40178
opened 40168
applicants 40165
define 40160
strengthened 40135
stages 40127
classified 40107
Communication 40085
ev@@ 40083
ai@@ 40080
ass@@ 40026
universities 40022
Im@@ 40017
letters 40005
C.@@ 40001
eliminate 39973
serving 39932
exceed 39921
Ltd 39911
86 39902
orders 39873
demands 39828
Bill 39804
charged 39781
scheme 39743
comment 39719
sold 39705
acquired 39698
ically 39658
claimed 39652
gl@@ 39646
concentrations 39642
Contents 39626
import 39609
dealt 39597
acquisition 39595
ner 39571
born 39569
teaching 39558
Ab@@ 39549
cut 39542
Sch@@ 39531
Lebanon 39527
district 39522
correct 39508
encourages 39492
Or@@ 39486
Ac@@ 39482
farmers 39472
sport 39465
union 39465
plus 39459
transparent 39455
Source 39445
double 39437
Po@@ 39390
Can@@ 39372
donor 39341
heading 39330
managing 39321
ES@@ 39316
trend 39300
derived 39289
pursue 39247
Additional 39235
theme 39230
ring 39227
tes 39219
immigration 39219
1.2 39212
buildings 39205
interim 39200
kept 39157
Because 39123
reading 39120
surveillance 39112
Several 39080
surveys 39066
register 39059
penalty 39059
faced 39058
Monday 39029
ST 39022
gross 39018
teams 39016
26@@ 39016
rehabilitation 39010
print 39000
74 38993
map 38969
declared 38939
normally 38927
park 38894
Sub@@ 38894
capabilities 38892
permitted 38889
TRANS 38887
Military 38883
Quality 38878
Elimination 38872
her@@ 38862
capacities 38855
Man@@ 38813
Address 38785
spirit 38710
Com@@ 38701
deployment 38687
Free 38685
combating 38667
geographical 38662
video 38652
productivity 38635
locations 38612
bur@@ 38608
Standard 38601
moving 38590
restricted 38561
parliamentary 38554
Measures 38540
Library 38532
easily 38525
broader 38525
ari@@ 38519
marked 38507
depth 38491
Brussels 38468
speakers 38458
attempt 38453
notification 38450
reality 38431
consists 38406
valuable 38394
Is 38393
film 38360
ances 38357
competitiveness 38356
disaster 38350
imported 38335
religion 38320
Province 38287
preventing 38271
79 38259
© 38259
AT 38244
ain 38208
nine 38184
historic 38168
carrier 38154
RO@@ 38152
becomes 38121
mandatory 38113
sis 38098
Accordingly 38093
up@@ 38088
enabling 38086
2.1 38085
accommodation 38085
whereas 38075
makers 38072
30@@ 38059
fying 38043
Travel 38032
Planned 37994
dissemination 37993
town 37989
KB 37968
expectations 37953
tin@@ 37953
Questions 37952
inventory 37940
composition 37920
illicit 37920
losses 37919
Notes 37903
LI@@ 37892
ig@@ 37865
passed 37861
Last 37857
manufacturer 37855
Form 37837
convention 37832
accurate 37827
thousands 37819
dec@@ 37805
seventh 37757
Experts 37739
sustainability 37732
multi@@ 37729
dangerous 37708
non@@ 37707
3.1 37698
rich 37696
del@@ 37688
and@@ 37687
Ministerial 37671
honour 37645
helped 37641
TV 37631
Zealand 37594
character 37584
Bar@@ 37583
car 37577
asylum 37565
sive 37558
reflects 37558
ne 37557
PCT 37547
flight 37529
Today 37520
Nuclear 37517
emission 37510
CR@@ 37510
student 37509
DE 37486
exists 37476
Introduction 37470
87 37452
night 37439
believes 37421
vely 37415
considerations 37411
Corporate 37402
measurement 37402
AP@@ 37374
prison 37360
Manager 37360
shares 37326
port 37318
comparison 37315
− 37315
NO@@ 37313
Herzegovina 37270
news 37259
Cyprus 37245
vessels 37240
strength 37237
acid 37226
conventions 37210
Sierra 37205
pi@@ 37196
completely 37195
removed 37176
Session 37165
join 37159
Even 37158
hour 37154
Portugal 37121
toward 37118
Egypt 37115
genetic 37114
Greece 37108
covers 37083
race 37050
Cor@@ 37015
nothing 37011
Road 36991
CN 36980
CA 36980
27@@ 36960
ist@@ 36959
Cl@@ 36950
smaller 36946
ina 36887
3.2 36838
subsequently 36804
migrants 36780
ge 36777
Ambassador 36765
Forms 36762
Denmark 36754
railway 36750
fulfil 36747
awarded 36736
replace 36735
AM 36735
socio 36730
Prince 36702
refugee 36701
transaction 36697
north 36696
EEC 36676
28@@ 36660
competence 36658
ach@@ 36658
Trans@@ 36658
ell@@ 36655
formation 36654
submissions 36648
worldwide 36621
sixty 36615
introduce 36612
presents 36608
requiring 36590
operators 36561
conducting 36549
IC 36538
EM@@ 36531
PO@@ 36528
generated 36508
A.@@ 36480
des@@ 36467
foster 36454
dedicated 36418
ON@@ 36389
2.2 36385
amend 36378
cooperate 36363
Local 36360
ee 36353
ely 36340
go@@ 36334
spread 36329
translation 36325
Add.1 36317
instructions 36313
perhaps 36312
6,@@ 36308
currency 36305
sl@@ 36245
Islands 36225
trained 36213
ET 36206
Su@@ 36183
ah 36149
reliable 36120
Montréal 36104
Model 36103
Croatia 36087
advertising 36082
EX@@ 36076
annually 36074
Paper 36060
Friday 36056
Next 36046
Previous 36002
40@@ 35982
lessons 35962
Georgia 35955
sw@@ 35947
Records 35947
functional 35942
LE@@ 35923
PWGSC 35899
incurred 35892
Indonesia 35881
successfully 35862
ish 35847
owner 35831
MO@@ 35822
2.5 35804
FI@@ 35787
trading 35781
Languages 35765
south 35764
understood 35763
farm 35738
producing 35738
equipped 35731
ines 35720
recommend 35673
probably 35667
Spending 35656
Type 35640
az@@ 35620
guarantees 35619
VI 35605
&apos;re 35601
Projects 35596
ber 35594
attended 35580
P. 35555
signature 35543
southern 35504
Adoption 35504
ours 35493
ret@@ 35468
UNHCR 35466
Promotion 35456
certification 35440
UK 35437
ized 35435
ked 35431
Al 35431
adjustment 35428
ns 35417
Red 35394
necessarily 35392
Telephone 35385
depending 35380
ol 35376
welfare 35375
.org 35369
har@@ 35358
commission 35347
CANADA 35346
figure 35316
Labrador 35306
SP@@ 35304
organic 35288
expand 35273
returned 35267
gap 35240
profile 35233
Studies 35223
loans 35219
London 35209
heavy 35206
AG@@ 35199
acceptance 35185
SA 35181
COM 35175
topics 35170
212 35158
civilians 35157
regulated 35153
counsel 35153
Final 35148
assessing 35143
Press 35126
cre@@ 35125
CM@@ 35123
balanced 35115
Inc. 35110
went 35091
engagement 35088
explain 35083
poly@@ 35082
severe 35077
250 35075
Do 35072
savings 35061
Systems 35060
ou 35056
broadcasting 35049
box 35044
sur@@ 35028
topic 35020
nearly 34986
25@@ 34963
Within 34944
ka 34927
Ms 34921
den 34880
allowance 34868
Guinea 34867
judge 34847
air@@ 34845
we@@ 34835
ratio 34816
1986 34804
methodology 34787
eg@@ 34754
Presidency 34736
expanded 34734
relevance 34725
subparagraph 34715
parent 34714
salary 34710
Ombudsman 34703
legitimate 34684
conclude 34667
dates 34661
flows 34658
adults 34652
SC 34650
Serbia 34640
Version 34640
samples 34632
hospital 34613
EL@@ 34612
enterprise 34612
racism 34602
Bi@@ 34602
Us 34585
Right 34580
Z 34574
visible 34566
offering 34558
ex 34557
male 34557
Licence 34551
headquarters 34549
academic 34540
OR@@ 34537
diverse 34521
Resource 34520
aspect 34517
minor 34515
jointly 34511
Bulgaria 34490
books 34479
600 34469
Product 34467
fy 34447
Plans 34400
certainly 34390
Her 34363
tested 34351
Country 34330
ays 34306
argued 34285
Leone 34285
patterns 34284
DFO 34266
ver 34264
Timor 34260
WHO 34257
ell 34255
Professional 34235
Indeed 34228
Line 34217
1st 34209
og@@ 34207
revision 34201
CIDA 34197
proceed 34169
DS 34158
04@@ 34143
island 34128
eighth 34112
Argentina 34111
consult 34110
monthly 34083
Manufacturing 34073
UNEP 34062
ess 34058
tor@@ 34040
We@@ 34037
greatest 34035
TH@@ 34030
deposit 34007
monetary 33991
highlighted 33972
flexible 33967
PC 33964
cu@@ 33962
opposition 33943
1.5 33943
chosen 33925
af@@ 33914
dumping 33901
prohibited 33897
moment 33896
train 33896
Study 33888
Value 33878
staffing 33871
connected 33870
emphasized 33867
Reporting 33859
hydro@@ 33853
OR 33846
reaching 33834
transfers 33834
OSCE 33827
Head 33824
AF@@ 33813
hereby 33808
expect 33783
Post 33761
.gc.ca 33748
Privacy 33737
clean 33728
District 33716
obstacles 33702
can@@ 33697
ta 33685
forth 33678
bear 33674
UNECE 33664
NATO 33660
wh@@ 33656
nationals 33631
interventions 33627
satellite 33627
corporations 33619
borders 33618
ths 33601
operated 33575
SP 33572
Works 33550
Fifth 33514
4.1 33496
Indigenous 33466
bound 33439
Payments 33420
suggests 33407
transit 33396
j 33395
So@@ 33366
def@@ 33332
pass 33326
ninth 33311
Time 33283
equitable 33274
relate 33251
loc@@ 33240
· 33224
steel 33223
Habitat 33222
Fr@@ 33203
thanks 33191
fax 33191
Chile 33186
ratified 33176
systematic 33173
Hungary 33163
deep 33151
transmitted 33147
constitutes 33123
launch 33108
supervision 33102
ster 33095
adult 33079
ecting 33075
bearing 33062
arts 33053
Power 33050
Go@@ 33049
removal 33044
Top 33023
Among 33012
arrangement 33003
ind@@ 32999
Level 32995
ber@@ 32976
DP 32976
7,@@ 32917
dynamic 32908
woman 32889
ib@@ 32882
clause 32858
victim 32853
worth 32848
sustained 32764
Having 32763
exposed 32758
recognizes 32743
ﬁ@@ 32731
motion 32708
reply 32692
heads 32686
mother 32676
explore 32672
remote 32648
accompanied 32640
workplace 32639
mandates 32631
solidarity 32617
Emergency 32614
Reserve 32598
endorsed 32587
white 32580
subjects 32579
ce 32579
College 32578
authors 32572
mobility 32570
observers 32564
productive 32559
holder 32555
administered 32550
Culture 32545
150 32538
ory 32512
CT@@ 32486
gh@@ 32483
frequently 32481
customer 32479
punishment 32465
MS 32465
ICT 32454
Field 32441
aff@@ 32440
ie 32433
Language 32431
ade 32424
infection 32423
suppliers 32416
Lisbon 32399
spring 32398
Before 32384
Gr@@ 32383
Roma 32365
addresses 32352
Response 32349
Arctic 32345
handling 32339
ends 32318
Open 32314
Help 32304
15.@@ 32302
lu@@ 32290
HST 32262
laboratory 32250
AB@@ 32232
Mediterranean 32227
Disarmament 32211
allegations 32198
tel 32185
ane 32149
smoking 32123
alize 32114
joined 32089
goes 32081
western 32058
elimination 32042
excluded 32015
Personal 32008
Col@@ 32007
Marine 32005
reservation 32000
Estimates 31956
tables 31951
comp@@ 31942
sectoral 31938
ites 31934
thirty 31929
proof 31918
tic@@ 31911
visitors 31910
CON@@ 31909
indication 31893
verification 31883
neither 31880
Infrastructure 31876
thereof 31869
subsidiary 31865
Luxembourg 31847
vo@@ 31833
Gender 31816
Transfer 31763
rapidly 31740
dry 31733
ra@@ 31730
signs 31712
wanted 31683
discriminatory 31656
describe 31654
Climate 31647
propose 31616
Cs 31614
Thursday 31598
50@@ 31576
Life 31569
votes 31563
facilitating 31554
Nevertheless 31528
frequency 31526
equally 31501
DND 31439
Bu@@ 31437
Net 31432
dimension 31429
seem 31425
Inter 31425
judgment 31425
foundation 31421
Lu@@ 31409
leader 31408
Congress 31401
season 31379
eds 31377
cap@@ 31370
mi@@ 31347
bre@@ 31343
properties 31336
Innovation 31336
owing 31322
chain 31322
loan 31298
attack 31290
Trust 31282
exclusive 31275
decade 31268
quantity 31251
Yugoslavia 31234
household 31221
immigrants 31196
Index 31194
ble 31172
ft 31170
Immigration 31169
brief 31166
achievements 31165
sports 31164
He@@ 31145
Patent 31143
weapon 31121
CO 31120
sum 31112
Cost 31110
asset 31084
Registration 31082
Institutional 31080
anticipated 31078
integrate 31029
mining 31028
Integrated 30993
ahead 30984
PS 30968
Comments 30966
Morocco 30936
eastern 30925
Du@@ 30913
Winnipeg 30912
tical 30909
doubt 30908
1.3 30902
regardless 30892
meets 30879
soldiers 30867
US@@ 30867
millions 30862
David 30852
ore 30841
overview 30841
pool 30833
classes 30832
Knowledge 30827
Bur@@ 30823
accused 30818
mer@@ 30816
SE@@ 30800
division 30798
significance 30797
Games 30797
vessel 30792
Colombia 30789
Let 30783
chemicals 30772
speci@@ 30760
Olympic 30755
ler 30754
ther@@ 30753
ences 30746
uc@@ 30745
Consequently 30733
reserves 30714
solid 30711
gener@@ 30689
weather 30686
oriented 30656
ey 30631
segment 30628
marriage 30624
Three 30614
societies 30609
Pl@@ 30594
Britain 30588
believed 30587
tered 30568
discharge 30554
Wednesday 30550
PRO@@ 30545
composed 30540
sheet 30496
remove 30490
electricity 30486
AD 30485
elsewhere 30475
Mrs. 30465
bro@@ 30463
relates 30455
Pension 30445
everything 30436
2.3 30434
Justification 30419
Ad 30395
contacts 30376
drafting 30354
passenger 30343
reproductive 30340
ect 30331
winter 30323
DC 30310
tend 30305
conf@@ 30291
communicate 30289
collect 30285
nationality 30275
ah@@ 30265
mobile 30246
AI@@ 30240
feature 30235
4.2 30223
SO@@ 30219
back@@ 30218
lies 30218
é 30209
Tuesday 30204
ys 30188
ew@@ 30172
ement 30171
inside 30170
organs 30166
CB@@ 30162
Ho@@ 30151
35@@ 30134
gentlemen 30128
colleagues 30124
Documents 30098
generate 30089
harm 30062
Selection 30062
limitations 30061
guaranteed 30048
Ass@@ 30042
regarded 30036
ain@@ 30021
Jo@@ 30004
manufacture 30001
helps 29991
rely 29984
eu@@ 29984
acy 29974
era 29971
Proposal 29965
iz@@ 29958
inquiry 29954
DA 29945
rejected 29932
error 29928
aling 29927
Phase 29918
1,000 29913
divided 29895
told 29886
coordinate 29880
big 29876
atmosphere 29875
Developing 29870
mal@@ 29859
TC 29844
DI@@ 29831
constant 29794
our@@ 29794
Classification 29788
authorization 29786
forty 29771
33@@ 29764
pen@@ 29755
occupational 29752
atory 29745
Major 29743
disabled 29740
Palestine 29737
hoc 29731
cultures 29693
Italian 29690
disputes 29685
globalization 29684
copyright 29679
ministers 29657
Informal 29655
Mal@@ 29648
Effective 29635
ECB 29628
att@@ 29617
Subject 29612
CC 29612
homes 29600
ess@@ 29575
Goods 29574
vary 29573
rail 29568
Nunavut 29560
land@@ 29544
Terrorism 29530
definitions 29523
legally 29518
suffering 29515
questionnaire 29512
alcohol 29503
Dec@@ 29497
installation 29492
ese 29490
stocks 29490
object 29466
integral 29441
foods 29440
pending 29425
Intellectual 29423
Recommendations 29422
conjunction 29421
contracting 29411
capability 29391
exclusion 29383
dro@@ 29367
Belarus 29363
Lakes 29356
diplomatic 29329
8,@@ 29328
ste@@ 29301
Senate 29292
Activity 29276
codes 29273
occurs 29273
ure 29268
sides 29267
gaps 29265
papers 29249
Principles 29238
Rec@@ 29236
justified 29218
Tri@@ 29212
recipient 29211
seat 29210
UNFPA 29196
LO@@ 29188
posted 29187
Supplement 29187
9,@@ 29181
renewal 29180
hear 29174
bar@@ 29152
ests 29141
indicating 29139
engineering 29133
holders 29127
ned 29107
pu@@ 29085
Weapons 29083
interaction 29079
reconstruction 29079
eligibility 29055
Fourth 29045
Ber@@ 29044
fr@@ 29010
depends 29002
3.3 28998
Northwest 28992
underlying 28988
® 28984
statutory 28977
calling 28953
ency 28944
Yes 28923
norms 28910
sel@@ 28895
yl 28883
os@@ 28866
Rem@@ 28853
load 28834
permits 28831
ories 28828
ME@@ 28818
engine 28816
Ser@@ 28813
ved 28810
120 28801
mer 28801
substantially 28796
closer 28789
Madam 28788
appeals 28782
moved 28774
citizenship 28768
urges 28746
CRTC 28745
CP 28742
replacement 28737
El 28730
hom@@ 28724
wider 28723
constraints 28721
ion 28702
urged 28699
Syrian 28694
finally 28680
posed 28657
my@@ 28657
respondent 28656
EA 28651
TA 28650
taxpayer 28630
formulation 28622
seriously 28621
Res@@ 28612
PM@@ 28607
700 28606
voted 28601
exemption 28597
ene 28589
Learning 28582
potentially 28578
resistance 28577
airport 28574
Ma@@ 28558
Ver@@ 28549
manufacturers 28547
focusing 28543
extra 28542
arise 28535
ant@@ 28532
mention 28526
dignity 28507
protocol 28506
decades 28503
references 28502
Pe@@ 28501
Rwanda 28500
fit 28485
sized 28485
reductions 28479
decreased 28466
Azerbaijan 28462
notably 28436
Bro@@ 28433
Sp@@ 28432
insufficient 28425
trying 28414
sal@@ 28398
calendar 28390
alities 28375
Mac@@ 28345
conventional 28344
finds 28337
citizen 28330
renewable 28325
getting 28316
warning 28312
stri@@ 28312
explanation 28297
External 28293
Nigeria 28288
suggestions 28286
RC 28267
organised 28254
contents 28250
Position 28248
inf@@ 28240
Somalia 28232
PE@@ 28231
Tariff 28230
Slovenia 28212
Peoples 28204
tonnes 28200
paras 28193
appeared 28177
extreme 28163
morning 28159
ick@@ 28151
sovereignty 28146
gains 28129
drinking 28099
opinions 28093
I. 28086
newly 28059
fication 28025
cur@@ 28023
Self 28015
super@@ 28005
Her@@ 27998
analyses 27988
parameters 27987
Mor@@ 27979
trials 27975
commissions 27962
ine@@ 27957
cas@@ 27957
borne 27955
Title 27942
exceptional 27929
Statute 27925
residential 27910
clarify 27907
constructive 27905
ali@@ 27900
manager 27899
incidents 27879
K1A 27868
1980 27866
popular 27840
running 27838
AB 27827
tell 27823
Coordinator 27823
int@@ 27822
Now 27819
ville 27802
CL@@ 27800
advised 27799
G. 27799
dollar 27771
shift 27754
band 27753
1. 27742
Electronic 27739
images 27736
Committees 27728
reaction 27707
interview 27689
Print 27688
No@@ 27686
investigate 27685
preparations 27648
� 27631
adequately 27623
963 27620
seeks 27614
alised 27612
retirement 27603
earnings 27584
bill 27567
prisoners 27552
granting 27551
2nd 27551
intelligence 27540
hazardous 27528
Specific 27526
Similarly 27516
Do@@ 27478
Green 27474
concluding 27471
Production 27471
Electoral 27455
Here 27454
comm@@ 27452
Kuwait 27446
war@@ 27443
0,000 27443
ai 27442
select 27436
convened 27434
route 27424
game 27419
Alliance 27412
ously 27407
jurisdictions 27405
adjustments 27403
seminars 27400
Institutions 27367
green 27360
acknowledged 27357
messages 27355
sufficiently 27352
invite 27347
offenders 27343
IDRC 27342
carefully 27326
To@@ 27325
ment@@ 27311
dose 27310
literature 27297
Every 27290
reservations 27287
medi@@ 27285
themes 27285
Lithuania 27274
output 27273
imprisonment 27267
budgets 27261
subregional 27244
Cross 27238
38@@ 27192
solely 27191
work@@ 27187
occasion 27156
east 27155
fies 27146
Delivery 27133
Departmental 27133
prosecution 27132
friends 27131
Sciences 27119
drawing 27110
ur 27093
grow 27086
IR@@ 27086
invitation 27084
style 27080
eng@@ 27076
Rome 27073
Calgary 27072
rel@@ 27061
Benefits 27059
reviewing 27057
ster@@ 27052
willing 27044
interviews 27038
incidence 27032
ash@@ 27030
Paul 27019
adopting 27010
driven 27006
consistency 27004
schemes 27002
wage 26998
consolidated 26996
incentives 26992
form@@ 26992
undertakings 26990
assignment 26990
studied 26982
hon@@ 26981
excess 26981
proposes 26979
Treatment 26979
concepts 26975
03@@ 26975
iv 26975
Center 26966
door 26957
greatly 26953
depend 26948
Opportunities 26947
phone 26945
grade 26937
CN.4 26921
founded 26918
visited 26906
off@@ 26906
accordingly 26906
vocational 26905
amending 26898
hands 26891
R.@@ 26891
overcome 26881
confirm 26870
reconciliation 26846
passengers 26842
returns 26842
inclusive 26836
e.@@ 26828
rem@@ 26824
fill 26807
ven@@ 26793
withdrawal 26788
widespread 26784
Anti 26776
ori@@ 26774
anniversary 26764
campaigns 26741
metal 26740
Pursuant 26717
specify 26701
pattern 26701
comparable 26695
assisting 26690
oversight 26687
difficulty 26680
briefing 26674
artists 26667
branch 26666
evaluated 26664
tur@@ 26655
entirely 26627
Robert 26622
CS@@ 26620
deaths 26599
faith 26593
answers 26584
bridge 26579
gar@@ 26579
Equipment 26558
pertaining 26555
coastal 26555
players 26544
á@@ 26531
Current 26518
ot 26517
elled 26504
UNESCO 26503
falls 26480
Consumer 26463
ishing 26454
owners 26450
fe@@ 26445
ff@@ 26438
performing 26435
cited 26434
Contributions 26431
lin 26419
Radio 26413
obtaining 26409
scientists 26407
texts 26396
adi@@ 26396
chance 26382
reasonably 26380
feedback 26377
CD@@ 26359
elling 26358
Organizations 26358
stronger 26343
Sk@@ 26339
PE 26328
validity 26324
disasters 26322
res 26312
CBSA 26312
alizing 26311
0.00 26309
recalled 26306
voice 26301
36@@ 26299
Fe@@ 26298
producer 26290
surrounding 26268
reg@@ 26249
H. 26249
cohesion 26246
mat@@ 26236
Box 26226
mu@@ 26225
secured 26221
favourable 26207
wi@@ 26202
Arts 26196
bas@@ 26192
Kenya 26191
sed 26178
mines 26172
situated 26170
ae 26164
impossible 26159
Prosecutor 26157
objects 26155
merit 26154
interesting 26143
lin@@ 26139
devoted 26132
signing 26131
operator 26129
slightly 26125
colour 26121
Inspection 26118
column 26107
Private 26104
22@@ 26102
possession 26088
respected 26074
danger 26072
ut@@ 26064
compulsory 26054
assumed 26044
Registry 26043
parallel 26034
Burundi 26032
assisted 26021
Haiti 26018
tel@@ 26012
Follow 26009
Costa 26008
ising 26002
CP@@ 26000
subjected 25999
ide 25994
ma@@ 25992
File 25991
Val@@ 25982
Participants 25974
suffered 25968
driving 25963
contrast 25961
west 25957
Halifax 25945
vis 25941
expense 25936
ILO 25921
showing 25915
picture 25903
Fifty 25894
1990s 25886
seminar 25872
enjoyment 25860
As@@ 25856
Taking 25843
leaving 25837
desire 25831
Ge@@ 25830
frame 25824
sec@@ 25819
Rural 25818
respecting 25803
iti@@ 25800
negotiation 25796
lay 25795
ili@@ 25788
45@@ 25784
dy 25780
requesting 25777
visual 25774
ap 25770
resolved 25768
Algeria 25768
exclusively 25766
certified 25764
yl@@ 25757
Calls 25744
2.4 25740
.2 25737
ette 25719
Priorities 25706
collaborative 25705
survival 25698
command 25697
renewed 25693
illness 25681
frameworks 25655
met@@ 25654
remedies 25639
Sport 25632
lasting 25626
troops 25618
5.1 25618
GR@@ 25608
ow@@ 25602
reintegration 25600
2011 25598
ised 25594
ty@@ 25582
Army 25559
Nor@@ 25554
financed 25541
saw 25531
argument 25527
CO2 25515
Are 25503
municipalities 25502
river 25491
88@@ 25487
izing 25473
11@@ 25457
IA 25449
sell 25447
drop 25444
bs 25434
consequence 25431
forests 25402
1982 25401
outer 25398
thematic 25381
37@@ 25380
inadequate 25366
ladies 25357
exceeding 25340
accountable 25334
Cas@@ 25330
processed 25320
easier 25319
Vi@@ 25319
WH@@ 25315
fresh 25308
Thailand 25305
drive 25302
himself 25298
gs 25289
Le 25288
2. 25277
tering 25261
meant 25260
telecommunications 25259
Expert 25255
ects 25254
Hoc 25234
apparent 25233
returning 25231
email 25229
dic@@ 25216
Commercial 25215
ensures 25192
cutting 25187
E.@@ 25183
orientation 25170
ordinary 25167
surplus 25163
ization 25160
Turkish 25155
automatically 25149
toxic 25130
Pi@@ 25124
Without 25119
Intergovernmental 25117
ra 25112
preventive 25110
appointments 25108
virus 25107
premises 25105
wall 25099
provider 25095
distinct 25095
14.@@ 25095
coast 25092
Port 25092
movements 25090
oring 25089
head@@ 25083
Cal@@ 25082
Point 25078
assurance 25074
listing 25070
promoted 25050
di 25026
holds 25024
Basic 25022
middle 25015
households 25015
crossing 25006
COM@@ 24987
adjusted 24976
wor@@ 24973
compromise 24953
TBS 24951
belief 24948
ular 24943
Impact 24941
entering 24938
± 24933
workforce 24930
tically 24912
migrant 24899
spouse 24898
Edward 24897
adapted 24894
Uganda 24890
bri@@ 24887
village 24883
Peru 24874
named 24860
assume 24851
machinery 24824
Conditions 24824
ce@@ 24810
retain 24801
deadline 24799
instances 24797
adding 24795
destination 24785
ke@@ 24782
Phone 24780
belonging 24774
incorporate 24771
serves 24760
estate 24753
huge 24748
OL@@ 24746
Excellency 24744
channels 24743
NGO 24741
Edmonton 24736
ranging 24723
playing 24695
Ne@@ 24685
coordinating 24680
Darfur 24678
enlargement 24671
enti@@ 24665
worker 24663
tly 24650
FAO 24649
thinking 24643
Humanitarian 24634
cm 24630
q@@ 24629
lic@@ 24625
leads 24624
suspension 24614
prejudice 24600
Release 24599
someone 24592
Southern 24587
oning 24574
che@@ 24567
1984 24564
horizontal 24552
killed 24541
PC@@ 24538
calculation 24532
distinction 24525
ched 24522
Min@@ 24513
display 24501
talk 24495
San 24479
indirect 24475
chi@@ 24469
footnote 24461
taxable 24450
tw@@ 24449
ethical 24443
Agreements 24438
responding 24438
counter@@ 24436
fraud 24435
confidential 24432
ac 24421
Add.@@ 24417
Ethiopia 24416
Liberia 24406
1.4 24395
hal@@ 24390
Operation 24390
Copyright 24369
Côte 24354
cards 24350
path 24340
ecological 24330
internally 24320
Budgetary 24318
Slovakia 24315
arrest 24310
advantages 24309
Railway 24302
evaluations 24301
VI@@ 24298
rose 24294
Washington 24288
PSC 24282
od@@ 24277
tings 24275
LE 24273
maritime 24259
ingly 24253
possibly 24252
Philippines 24251
anc@@ 24245
Location 24237
lowest 24233
commerce 24227
Back 24214
Decisions 24195
consisting 24187
deployed 24185
introducing 24182
Period 24164
opposed 24163
alternatives 24158
penalties 24155
intends 24151
break 24150
pour 24150
&apos;ve 24148
Em@@ 24123
canada.gc.ca 24123
chronic 24112
preparatory 24110
genuine 24096
Background 24096
acquire 24086
Competition 24081
atively 24080
Overall 24070
OJ 24069
contributes 24065
SE 24062
zones 24051
sole 24045
PL@@ 24044
ang 24039
ministerial 24026
fighting 24015
custody 24011
Constitutional 24008
Award 24006
shape 24001
col@@ 23987
Gazette 23984
hoped 23980
exempt 23975
kinds 23974
Decides 23973
adaptation 23971
accounted 23970
notify 23969
13.@@ 23966
supplied 23965
vast 23963
Gaza 23963
ners 23952
Pr@@ 23952
houses 23938
motor 23926
ans@@ 23921
cat@@ 23917
indicator 23912
EP@@ 23902
Ko@@ 23901
TO@@ 23900
essentially 23894
TION 23894
merely 23888
Ag@@ 23888
supplementary 23886
Commons 23870
FR@@ 23865
installed 23858
witnesses 23856
Statements 23850
INC 23849
ass 23848
sti@@ 23842
consulted 23841
log@@ 23836
focuses 23836
Ph@@ 23832
Compliance 23824
fast 23816
down@@ 23815
ga 23815
PM 23811
sing 23806
S.@@ 23803
bul@@ 23795
observer 23794
ica 23794
H.E. 23793
prohibition 23786
tion@@ 23773
tolerance 23773
revealed 23772
Can 23769
sponsored 23766
app@@ 23762
Montenegro 23756
realization 23754
Refugees 23753
ruling 23751
unions 23751
ented 23750
preserve 23748
Macedonia 23743
interpreted 23720
Centres 23717
anything 23714
Progress 23705
anyone 23688
ann@@ 23676
receives 23673
impose 23671
grain 23670
cer@@ 23666
SH@@ 23665
greenhouse 23662
execution 23661
investors 23646
ultimately 23641
denied 23632
documented 23625
Future 23616
observation 23591
excluding 23588
supplier 23588
eli@@ 23588
wind 23582
tional 23580
abilities 23573
39@@ 23572
par 23568
operative 23542
la@@ 23538
Subcommittee 23535
exploration 23522
atic 23515
bed 23504
feed 23497
responded 23488
ideal 23479
Exchange 23467
ation@@ 23464
liable 23461
seed 23452
marking 23448
possibilities 23437
convinced 23422
Conservation 23412
Regulatory 23402
VII 23401
ban 23393
Malaysia 23390
linguistic 23384
objection 23373
ethics 23373
prove 23370
mostly 23368
Latvia 23367
ements 23366
ning 23359
Gi@@ 23353
incident 23342
screen 23338
black 23337
credits 23331
viewed 23317
tabled 23316
presidency 23312
dimensions 23295
ski 23292
director 23285
PER@@ 23284
heat 23280
missing 23257
selling 23250
na 23245
Heads 23238
domain 23233
Del@@ 23229
06@@ 23224
Between 23223
rated 23219
Des@@ 23207
remedy 23201
servants 23188
plays 23181
harmful 23171
retail 23169
sum@@ 23159
Overview 23154
roads 23153
loading 23143
3.5 23143
row 23121
Moldova 23109
recording 23106
envisaged 23102
notified 23102
Return 23102
Queen 23098
EL 23094
fun@@ 23082
hospitals 23078
moral 23075
excessive 23068
story 23067
q 23061
birds 23055
pose 23048
breach 23027
procedural 23027
Comprehensive 23024
Organisation 23016
16.@@ 23016
enc@@ 22999
ser@@ 22994
awards 22983
street 22973
closing 22971
und@@ 22968
ourselves 22964
Har@@ 22961
Consideration 22952
Noting 22952
TB 22943
presentations 22933
fewer 22929
complexity 22928
bilingual 22922
ancy 22910
Requirements 22905
root 22896
intent 22883
Rel@@ 22882
ris@@ 22873
adapt 22868
Bell 22866
PRE@@ 22858
restructuring 22851
seats 22847
wished 22840
consistently 22827
disciplinary 22825
ports 22818
powerful 22810
medicine 22803
safeguards 22792
crop 22791
describes 22789
uncertainty 22787
ax@@ 22786
lis@@ 22782
analytical 22782
ecosystems 22780
begun 22776
utilization 22771
square 22761
negotiating 22754
Peter 22754
generations 22749
Tourism 22746
click 22743
Art 22742
ly@@ 22732
Coast 22715
geographic 22712
ide@@ 22711
Question 22704
1981 22698
monitored 22691
Representatives 22687
ures 22687
SD 22682
AF 22677
sampling 22673
establishes 22664
issuance 22663
tried 22662
licences 22658
subsidies 22649
master 22647
Universal 22640
cy@@ 22638
isolated 22631
Important 22628
protein 22624
somewhat 22623
designation 22621
SM@@ 22616
ich@@ 22613
cars 22606
exchanges 22601
Estonia 22596
qui@@ 22595
fer@@ 22591
lat@@ 22589
truly 22573
sions 22561
won 22561
Authorities 22553
arrival 22548
choices 22535
printed 22520
Elections 22519
spectrum 22508
exceptions 22506
Applications 22499
fairly 22496
none 22494
pos@@ 22487
Delegations 22486
ave 22482
refused 22477
brings 22469
proceeds 22469
noting 22460
putting 22456
ID@@ 22454
channel 22453
Election 22453
&apos;Ivoire 22441
organize 22428
fear 22425
bottom 22425
evolution 22423
lets 22419
0,@@ 22419
licensing 22415
ID 22415
speech 22409
§ 22409
transitional 22406
ordered 22400
Madrid 22397
val@@ 22397
metres 22390
Actual 22390
recipients 22389
34@@ 22388
typically 22374
witness 22366
Ri@@ 22364
continent 22362
appropriations 22349
carriers 22344
upper 22343
accuracy 22340
declined 22338
releases 22337
fac@@ 22332
defining 22327
threshold 22320
Earth 22319
specifications 22318
IL@@ 22317
preceding 22316
Hall 22312
securities 22310
Participation 22292
audits 22287
Iraqi 22283
settlements 22275
organisms 22275
publicly 22273
library 22273
operates 22272
ue 22262
Substances 22253
governed 22252
Directors 22248
consultative 22247
MATTER 22247
advances 22236
ff 22233
LA 22232
18.@@ 22223
Kyoto 22221
attitudes 22219
USA 22209
Professor 22198
vers 22186
desirable 22185
Record 22184
Armenia 22181
www.c@@ 22178
Wildlife 22169
Groups 22168
skilled 22167
Good 22167
viable 22162
iv@@ 22157
mid@@ 22139
‑ 22139
perceived 22127
FO@@ 22120
suspended 22112
stands 22111
Long 22109
DR@@ 22105
looked 22089
arguments 22084
menu 22080
Text 22070
Initiatives 22063
directives 22060
bit 22052
hand@@ 22049
cold 22047
asi@@ 22045
detection 22044
driver 22026
boards 22023
grown 22022
acted 22020
psychological 22017
trees 22004
constituted 22003
itation 21999
phenomenon 21992
Agri 21992
Te@@ 21985
del 21984
president 21981
forecast 21975
buy 21974
CRA 21974
Movement 21963
obvious 21961
paying 21958
resumed 21957
Guatemala 21944
intensive 21943
85@@ 21942
PH@@ 21932
absolute 21927
refusal 21923
Subsection 21923
initially 21914
wording 21909
summit 21909
Test 21900
Aviation 21894
Auditor 21883
Pierre 21880
Beijing 21880
Ps 21874
Using 21871
retained 21862
proceeding 21860
ast 21857
considerably 21844
expanding 21837
DNA 21837
saying 21834
Grand 21833
teen 21832
post@@ 21816
wildlife 21813
Peacekeeping 21810
17.@@ 21799
juvenile 21785
&apos;ll 21777
ins@@ 21774
signal 21772
pres@@ 21769
Swiss 21765
characterized 21756
sponsors 21726
internet 21717
sa 21711
cooperative 21707
White 21691
ills 21670
reflecting 21670
cher 21665
DG 21665
pursued 21664
attempts 21660
Agricultural 21656
machine 21644
electric 21644
dge 21632
Victoria 21631
ail 21627
identical 21623
tro@@ 21621
History 21617
coherent 21613
separation 21612
Proposed 21611
label 21594
meaningful 21591
sun@@ 21589
5.2 21574
ISO 21573
termination 21570
projected 21566
slow 21565
IF@@ 21564
deposited 21560
wealth 21558
Grants 21550
Provide 21546
complementary 21535
advocacy 21534
manual 21534
Char@@ 21532
UNIDO 21530
gre@@ 21528
enables 21528
sur 21527
Closed 21526
ENT 21520
Bangladesh 21520
highlight 21499
eradication 21496
Saudi 21495
mode 21494
raw 21490
yes 21488
Singapore 21482
satisfactory 21481
mandated 21473
pregnancy 21473
Michael 21468
measuring 21464
environments 21462
laundering 21460
consultants 21455
spend 21452
Export 21439
vulnerability 21438
banking 21419
formula 21419
Independent 21409
UR@@ 21399
urge 21397
nutrition 21397
sen@@ 21395
ack 21390
write 21388
M.@@ 21380
biodiversity 21377
P.@@ 21376
consolidation 21375
Broadcasting 21371
strict 21366
Ste@@ 21366
linkages 21360
MAR@@ 21352
ame 21348
sou@@ 21348
whereby 21345
crew 21341
compounds 21338
examining 21335
ear@@ 21330
compatible 21327
RI@@ 21326
fruit 21325
Consultation 21323
--@@ 21317
uniform 21314
Steering 21306
elle 21305
tradition 21301
commit 21298
participant 21298
SR 21294
cul@@ 21290
Jordan 21277
gained 21275
OM@@ 21275
fil@@ 21268
manufactured 21252
3rd 21252
accommodate 21250
Mu@@ 21249
platform 21246
Interim 21235
ED@@ 21234
Exhibit 21234
circulated 21224
Memorandum 21212
ian 21192
EP 21165
WP.29 21163
delays 21146
Funds 21145
Legislative 21132
B.C. 21128
St 21122
crops 21120
negotiated 21117
rising 21110
judiciary 21109
guests 21107
deals 21105
invest 21091
Land@@ 21089
BO@@ 21088
CS 21068
inflation 21066
4.3 21062
Commerce 21060
MA 21060
Procurement 21058
Ap@@ 21056
retention 21034
proved 21030
forthcoming 21026
humanity 21023
Due 21019
Priority 21019
Chemical 21016
stakeholder 21009
James 21005
fishery 21001
continuation 20999
databases 20990
excellence 20977
of@@ 20972
protocols 20967
filled 20966
Ter@@ 20965
URL 20965
900 20963
Forest 20958
precise 20953
Workshop 20944
Secondly 20941
injuries 20937
George 20933
T. 20932
ITY 20932
Engineering 20931
edge 20918
evident 20914
minors 20912
47@@ 20912
Regions 20901
minister 20896
ick 20886
approve 20872
Tur@@ 20870
ash 20857
Purpose 20837
Should 20831
zero 20827
certificates 20821
Capacity 20819
ected 20812
enabled 20811
save 20810
neighbouring 20810
Accounts 20807
sciences 20804
Wh@@ 20800
Call 20798
rating 20779
grateful 20777
kers 20776
meat 20776
Albania 20773
gn@@ 20770
wages 20757
ena 20745
Malta 20741
ping 20739
Register 20739
water@@ 20736
pp. 20735
hor@@ 20726
complement 20713
Body 20713
IAEA 20691
ANCE 20686
separately 20678
Cabinet 20677
Black 20670
819 20670
else 20669
native 20665
twice 20654
ace@@ 20652
partial 20650
WG 20650
ections 20637
mixed 20636
radi@@ 20622
Sri 20620
causing 20616
Officers 20604
sphere 20593
chair 20590
Full 20590
Notices 20589
pe 20581
encies 20581
Mag@@ 20581
obliged 20574
Sales 20571
comfortable 20566
UL@@ 20564
ano 20560
CN@@ 20556
Recognizing 20552
prevalence 20525
Young 20519
med 20512
Accountability 20512
Monetary 20511
ir 20505
transformation 20503
AV@@ 20499
ici@@ 20498
ach 20486
interactive 20482
deficit 20478
Strengthening 20472
SS@@ 20470
beneficial 20457
harmonization 20453
originally 20450
tle 20445
spo@@ 20444
Request 20435
ha 20434
Out@@ 20433
maintains 20426
Sol@@ 20423
violent 20421
bus 20414
outreach 20412
ner@@ 20406
spec@@ 20404
cal@@ 20404
conversion 20391
discretion 20391
labelling 20391
La@@ 20388
Construction 20387
1983 20377
deliberations 20376
accident 20373
navigation 20372
packaging 20369
100@@ 20359
Er@@ 20358
Yet 20351
Acting 20348
store 20345
skin 20344
liabilities 20338
deputy 20336
advise 20332
1.0 20317
mus@@ 20315
consulting 20309
Au@@ 20308
purchased 20306
submits 20305
perspectives 20296
recall 20295
specialists 20292
Pal@@ 20284
ath 20282
ss@@ 20276
ress 20271
degradation 20264
Gulf 20252
F. 20243
aside 20238
HR@@ 20234
verify 20231
í@@ 20223
Terms 20221
ani 20220
une 20213
ford 20210
radiation 20204
demographic 20201
Tunisia 20201
accidents 20200
Afghan 20196
ecosystem 20193
W. 20189
Why 20184
Email 20179
Personnel 20171
exp@@ 20170
Torture 20160
congratulate 20158
deb@@ 20158
Church 20153
PR 20147
05@@ 20142
ut 20141
commonly 20137
partly 20132
clarification 20130
ards 20128
contractual 20127
win 20125
delivering 20124
istic 20118
sy@@ 20117
Responsible 20117
LDCs 20107
wishing 20096
ables 20092
beneficiaries 20090
departure 20080
Links 20078
directions 20077
Round 20072
credibility 20071
ord@@ 20069
establishments 20069
remarks 20044
hearings 20035
Regarding 20031
cargo 20028
3.4 20024
environmentally 20023
sion 20018
practitioners 20012
mitigation 20010
Click 20007
cou@@ 20004
father 20001
tab@@ 20000
volunteers 19999
ERS 19999
ish@@ 19995
therapy 19994
Operating 19993
Reform 19992
regimes 19990
Sal@@ 19979
infected 19978
whatever 19977
are@@ 19971
arm 19968
ek 19968
errors 19964
boys 19961
coherence 19959
King 19959
communicated 19957
agrees 19956
101 19949
wards 19939
minimize 19926
recognised 19915
1978 19912
Ger@@ 19906
Reduction 19891
qualify 19882
Policies 19878
ATIONS 19876
Rica 19872
ink 19856
Under@@ 19856
Offices 19855
Against 19854
Myanmar 19854
Counsel 19850
CT 19848
packages 19847
mor@@ 19838
Telecommunications 19836
safeguard 19834
attract 19827
consist 19825
Venezuela 19823
ault 19823
Lawrence 19817
Mus@@ 19813
MC 19808
guided 19804
eration 19800
Decade 19795
mercury 19792
pri@@ 19785
dg@@ 19762
reception 19761
DO@@ 19759
got 19757
Cre@@ 19756
vic@@ 19755
IMF 19752
char@@ 19750
contaminated 19746
105 19745
realistic 19735
beautiful 19735
1373 19735
accessibility 19734
sor@@ 19729
02@@ 19728
God 19725
0.5 19724
ome 19722
ight 19720
assembly 19718
harassment 19714
vol 19708
counselling 19703
alternate 19701
varied 19697
Yugoslav 19693
quantities 19691
PAR@@ 19691
Ethics 19689
detained 19685
CN.9 19679
vaccine 19676
satisfy 19673
prospects 19671
om 19668
Kazakhstan 19668
Enforcement 19666
chief 19658
Compensation 19657
.. 19654
preservation 19651
Mer@@ 19648
beings 19631
affects 19629
Gro@@ 19626
reiterated 19617
adolescents 19610
ales 19609
portfolio 19608
peer 19599
mal 19591
Fo@@ 19588
Pres@@ 19581
wine 19577
Airport 19576
Base 19576
ozone 19574
a.@@ 19574
Si@@ 19570
alisation 19553
fail 19550
proud 19550
IB@@ 19549
preferred 19548
bad 19546
decides 19535
asking 19531
minute 19526
tangible 19524
iting 19522
Mat@@ 19520
mp@@ 19518
Ecuador 19517
aquatic 19514
Website 19512
uni@@ 19506
tain 19497
rest@@ 19496
COP 19493
compl@@ 19476
edi@@ 19474
prosperity 19472
Registrar 19469
Employees 19468
instruction 19462
looks 19462
offset 19459
ened 19458
ains 19455
Commitments 19452
19.@@ 19437
Comm@@ 19432
repeated 19428
Fort 19422
repair 19412
teenth 19411
Governance 19411
unacceptable 19409
organizing 19401
promotes 19394
SO 19393
grave 19379
new@@ 19372
farming 19368
weekly 19366
dominant 19365
pur@@ 19365
Operational 19365
edition 19360
contemporary 19357
perfect 19356
Cap@@ 19356
equ@@ 19355
Interest 19351
Fish 19342
ack@@ 19341
Observer 19340
creative 19336
Border 19331
eous 19323
Statistical 19321
5,000 19314
Maritime 19312
ky 19312
carriage 19310
lease 19310
willingness 19307
mothers 19298
van 19295
Distribution 19288
Gas 19281
Pan@@ 19267
boundaries 19266
Hospital 19264
hundred 19261
treat 19256
helpful 19256
prostitution 19252
happen 19242
eventually 19240
graduate 19237
Certain 19229
roots 19219
weak@@ 19217
Euro@@ 19215
investigated 19211
directors 19211
transmit 19210
55@@ 19207
60@@ 19207
Mi@@ 19206
attributable 19194
lang 19193
Euro 19188
focal 19183
recognizing 19182
limitation 19173
initiate 19149
forums 19144
inc@@ 19143
typical 19143
arrested 19142
Greek 19125
Poverty 19124
desired 19110
walk 19109
insolvency 19106
bot@@ 19104
B.@@ 19097
crises 19096
proven 19085
C.3 19082
evaluating 19079
HO@@ 19074
occurring 19063
remuneration 19063
restaurant 19063
PP 19060
trip 19042
referring 19034
6.1 19028
formally 19025
Objectives 19024
turned 19023
variables 19020
110 19016
100,000 19015
Sixth 19014
ACT 19014
extending 19013
Japanese 19013
ox@@ 19013
Series 19009
Signed 19007
Arms 18994
physicians 18994
Outcome 18990
Manual 18985
Unfortunately 18983
Awards 18977
Bal@@ 18972
Develop 18968
Areas 18966
reinforce 18955
Species 18954
density 18952
Lanka 18942
milk 18930
chap 18927
1979 18925
1967 18924
restoration 18914
low@@ 18908
sitting 18907
nevertheless 18906
graphic 18903
destroyed 18901
Ni@@ 18900
EX 18890
Senegal 18889
Auditors 18888
memorandum 18888
females 18878
10,000 18877
Costs 18872
ton@@ 18857
Concerning 18856
appreciate 18850
amongst 18845
ake 18842
Upon 18832
variable 18832
ha@@ 18829
ü@@ 18826
Cape 18824
Practice 18812
originating 18810
inputs 18808
Preparatory 18808
les@@ 18804
advancement 18803
lawyers 18800
famous 18800
20.@@ 18800
necessity 18787
broadcast 18784
Hel@@ 18779
fle@@ 18778
judgement 18771
qualification 18770
ministries 18765
Measurement 18765
Currently 18753
deleted 18747
Hol@@ 18742
alist 18741
earned 18730
Practices 18727
Contribution 18721
army 18718
outline 18717
arm@@ 18714
modifications 18712
Account 18708
Gallery 18699
liberty 18694
ions 18692
forestry 18690
tour 18681
Sam@@ 18681
ban@@ 18679
structured 18675
onal 18671
inspections 18669
elec@@ 18664
sugar 18663
Category 18657
NO 18653
freely 18623
ography 18618
attributed 18609
ub@@ 18603
occasions 18602
Christian 18601
tribunal 18591
ca 18591
familiar 18582
integrating 18579
Angola 18578
MENT 18558
arbitrary 18556
Facility 18555
ores 18542
pregnant 18542
variation 18541
weak 18536
ign@@ 18535
ands 18534
Por@@ 18534
piece 18532
Bel@@ 18531
stone 18521
Domestic 18521
SAR 18519
confidentiality 18518
eth@@ 18516
ums 18515
exporters 18492
ished 18491
Best 18489
talks 18481
mainstreaming 18476
influenza 18469
hosted 18465
C.2 18457
placement 18453
CE 18450
checks 18446
Martin 18445
Sec@@ 18431
disposition 18430
44@@ 18424
4.5 18422
ll@@ 18419
mineral 18418
ush 18414
WD 18414
bid 18402
berg 18402
Dem@@ 18400
tan@@ 18399
shipping 18398
erated 18395
flights 18387
liquid 18387
TING 18386
eau 18379
gen 18376
waiting 18374
Equality 18374
Gl@@ 18373
architecture 18363
ender 18357
J.@@ 18350
Palestinians 18346
Educational 18346
SI 18345
permission 18343
Violence 18343
hot 18338
identifies 18337
comprising 18337
literacy 18332
lie 18332
s. 18332
Sir 18331
teacher 18324
ple@@ 18322
electrical 18313
&apos;m 18313
ATI@@ 18309
Releases 18307
stored 18304
block 18299
outputs 18299
Jerusalem 18289
OP@@ 18286
ger 18285
cluster 18283
traditions 18270
gold 18270
Avenue 18267
pace 18264
leg@@ 18261
Understanding 18258
Credit 18246
beneficiary 18244
67@@ 18243
entrepreneurs 18233
audience 18228
ls 18227
ard@@ 18225
commodity 18224
explicitly 18221
stream 18220
sn@@ 18213
suspected 18210
expensive 18206
salmon 18205
wrong 18204
Bio@@ 18204
ids 18194
ier 18188
closure 18186
NAFTA 18183
Nepal 18180
died 18178
conviction 18173
2,000 18173
Housing 18173
constructed 18167
SU@@ 18167
Technologies 18165
suffer 18162
oned 18159
stresses 18158
tionally 18149
acknowledge 18142
wants 18128
likelihood 18125
Medicine 18123
Examples 18117
ung 18104
fell 18103
prof@@ 18102
acute 18099
Met@@ 18095
Iceland 18094
injured 18083
capture 18081
parks 18079
por@@ 18078
completing 18076
falling 18074
indirectly 18070
justify 18069
readily 18066
cast 18061
Legislation 18053
perpetrators 18046
ming 18044
comparative 18040
Lastly 18035
Map 18034
lose 18031
ads 18027
sanitation 18022
happy 18017
reaffirmed 18017
Hague 18016
landscape 18016
liber@@ 18013
Rom@@ 18008
usual 18004
Gen@@ 17995
cin@@ 17995
efficiently 17992
strictly 17991
lake 17989
Bulletin 17987
container 17979
leaves 17978
transnational 17970
frequent 17968
Appeals 17966
salaries 17965
GS 17961
feasibility 17959
Sur@@ 17958
za 17957
ulation 17947
reactions 17947
ographic 17947
Master 17947
Attorney 17944
add@@ 17943
Territorial 17936
Effects 17933
exported 17932
ace 17927
tieth 17925
cho@@ 17922
Hor@@ 17922
Wing 17921
appoint 17916
chaired 17915
a. 17913
MP 17912
ward 17901
formulated 17895
ultimate 17893
flu@@ 17888
distor@@ 17886
attitude 17881
sen 17881
Design 17879
logical 17878
Ti@@ 17877
author@@ 17866
submitting 17860
zes 17859
unemployed 17854
Doha 17850
199@@ 17842
FC 17841
curriculum 17839
precisely 17829
48@@ 17826
physician 17823
Ru@@ 17819
Valley 17818
Changes 17816
Bor@@ 17815
mediation 17812
op 17812
PI@@ 17800
threatened 17792
realized 17792
aviation 17785
assi@@ 17781
versions 17769
encountered 17768
administering 17760
parental 17759
Age 17757
TIR 17754
cable 17746
En 17744
125 17743
Ghana 17743
Real 17739
districts 17728
vel@@ 17725
ä@@ 17725
Loc@@ 17723
read@@ 17722
capit@@ 17719
Employer 17718
alists 17713
fuels 17710
hum@@ 17708
urg@@ 17705
MD 17705
arity 17704
camps 17704
Off@@ 17696
dre@@ 17691
59@@ 17690
politics 17688
Racial 17688
ki 17685
publish 17680
ö@@ 17679
biotechnology 17675
spr@@ 17674
elderly 17671
Conventions 17669
enormous 17666
ately 17643
ov@@ 17619
arrived 17614
allowances 17613
visa 17609
exhibition 17602
attending 17592
impunity 17588
Ob@@ 17586
unity 17578
criterion 17577
breeding 17574
Marie 17573
damages 17572
restore 17567
140 17565
stat@@ 17559
OHCHR 17558
ask@@ 17555
licensed 17554
Conn@@ 17554
arbitration 17550
assure 17549
tant 17544
Tanzania 17542
star 17542
passing 17535
presenting 17532
profits 17531
bargaining 17531
Licensee 17527
1.6 17515
lived 17511
phases 17508
Migration 17505
dismissed 17504
Rev.1 17498
height 17488
pressures 17485
Sixty 17480
exercised 17473
drew 17472
130 17472
contamination 17463
gases 17455
Bl@@ 17454
lock 17451
Treaties 17441
AU@@ 17438
existed 17437
ligh@@ 17436
protective 17431
creates 17430
nor@@ 17428
automatic 17425
Four 17411
interference 17407
contractor 17403
eable 17401
developmental 17393
indications 17382
delegates 17382
Armed 17375
defines 17371
travelling 17364
metals 17358
dy@@ 17357
conver@@ 17355
count 17351
Welcomes 17350
D.@@ 17350
intend 17348
branches 17346
Place 17344
speaker 17338
terrorists 17335
foundations 17335
Ibid 17335
age@@ 17332
males 17324
Early 17321
ces 17313
I.@@ 17312
quantitative 17309
Growth 17305
rendered 17304
Computer 17299
testimony 17296
em 17295
brand 17294
WP.@@ 17294
lic 17293
gro@@ 17288
port@@ 17284
differ 17279
Benefit 17279
census 17272
XX@@ 17265
Fin@@ 17264
tom@@ 17263
~ 17260
entitlement 17256
Workers 17252
humans 17251
council 17246
ases 17245
legisl@@ 17243
07@@ 17240
rou@@ 17235
Role 17228
ening 17227
theory 17218
stories 17216
symbol 17214
correction 17211
ath@@ 17205
Francophone 17203
remember 17202
Settlement 17202
ya 17200
Expenses 17200
invention 17199
supplement 17197
ching 17192
detected 17174
Does 17167
admission 17163
RA 17162
quota 17161
realize 17161
tures 17157
Les 17149
che 17135
ata 17129
Français 17123
comprises 17121
announcement 17119
symptoms 17118
intolerance 17116
bulk 17113
Amendments 17109
Leste 17108
Arabia 17102
Lebanese 17099
measurements 17099
6.2 17098
ile 17097
2.0 17097
Tobacco 17094
Decree 17094
rent 17088
bis 17084
virtue 17083
gathering 17080
debates 17074
Prior 17062
pursuing 17058
ais@@ 17054
aver@@ 17045
ko@@ 17038
ens@@ 17037
Att@@ 17037
duc@@ 17035
.... 17031
generating 17031
drivers 17022
ech@@ 17018
discipline 17011
prevented 17008
careful 17006
appropriately 16996
audio 16995
correspondence 16991
solve 16989
versus 16987
zz@@ 16976
Uruguay 16974
seniors 16970
TIONS 16953
ong 16952
equi@@ 16945
tory 16944
fashion 16943
Smith 16940
104 16939
predic@@ 16937
drafted 16936
whenever 16930
Format 16923
gradually 16922
emerged 16917
correctly 16904
Partners 16900
32@@ 16894
lakes 16893
comprised 16892
Ocean 16891
Partnerships 16884
eted 16880
expresses 16879
invites 16875
Wal@@ 16875
facilitated 16872
ref@@ 16868
highlights 16867
ws 16864
declarations 16864
IM 16857
Swedish 16852
temperatures 16850
PI 16848
Wil@@ 16845
NE@@ 16842
Cambodia 16838
SW@@ 16835
NAICS 16835
mutually 16831
FR 16830
hel@@ 16829
disclosed 16827
TE 16826
Speci@@ 16825
3. 16821
discussing 16819
ocean 16819
partially 16812
Diversity 16811
Five 16810
fleet 16807
attendance 16806
modification 16805
restriction 16804
isted 16799
ET@@ 16794
gg@@ 16791
ong@@ 16786
CRC 16786
V. 16777
Citizenship 16775
.htm 16773
Hy@@ 16772
un.org 16771
thorough 16766
ada 16765
infringement 16763
collecting 16763
ham@@ 16762
window 16762
mobilization 16759
feasible 16757
parking 16755
smoke 16755
49@@ 16755
VER@@ 16754
ok@@ 16753
Who 16751
coun@@ 16748
modalities 16741
visiting 16738
57@@ 16735
bon@@ 16735
1977 16734
unknown 16729
NPT 16722
exactly 16719
rental 16714
Farm 16712
N.@@ 16711
containers 16709
separated 16705
Kar@@ 16703
Pen@@ 16702
sequence 16700
tackle 16694
Issue 16693
ille 16692
supportive 16692
hy@@ 16690
deeply 16689
sending 16689
001 16681
Former 16677
roll 16675
ams 16668
trav@@ 16667
appearance 16657
placing 16655
hundreds 16652
pa@@ 16650
Events 16649
maternal 16647
false 16642
Biological 16633
Urban 16632
itted 16630
gathered 16625
SR@@ 16619
nationally 16616
43@@ 16614
Pat@@ 16611
4.4 16602
visibility 16600
tho@@ 16597
experimental 16595
Nos. 16594
virtually 16590
merits 16588
enhancement 16588
tracking 16587
Acts 16584
tric@@ 16577
2015 16573
tree 16564
Disease 16564
tent 16559
Photo 16556
Procedures 16553
Census 16548
pieces 16546
allegation 16535
controlling 16533
stating 16533
fu@@ 16527
mountain 16521
Strasbourg 16520
shore 16520
certainty 16518
pdf 16517
fol@@ 16516
license 16512
finished 16511
tim@@ 16507
99@@ 16496
produces 16495
0.1 16494
Mil@@ 16493
plane 16492
kes 16492
Hong 16483
Interior 16483
Institutes 16481
sustain 16477
Band 16466
issuing 16465
convicted 16461
guest 16460
français 16459
refuse 16458
publishing 16454
yield 16454
tis 16452
QU@@ 16452
ye 16447
86@@ 16444
ATE 16443
patents 16435
emphasize 16435
settings 16433
PA@@ 16432
inherent 16427
Nairobi 16424
unilateral 16421
Micro@@ 16416
CCRA 16416
coal 16415
GO@@ 16412
Is@@ 16411
10,@@ 16411
machines 16406
val 16405
Dutch 16401
constantly 16398
CFIA 16398
Economy 16395
illi@@ 16377
ensured 16376
San@@ 16374
tomorrow 16373
strike 16369
asks 16368
sem@@ 16368
foot 16356
regulate 16355
economically 16354
hazards 16353
fa@@ 16352
K. 16351
skill 16348
extradition 16344
annexed 16342
Collection 16339
ju@@ 16338
MA@@ 16334
Then 16331
pollutants 16324
AG 16324
kilometres 16320
Supplementary 16316
pol@@ 16303
Indicators 16298
fulfilled 16295
score 16294
TER 16294
EI 16288
od 16274
ACOA 16270
journalists 16268
tank 16264
formats 16263
furniture 16258
INAC 16255
targeting 16253
itting 16248
memory 16246
interactions 16243
Departments 16242
divisions 16232
catch 16227
Richard 16225
{ 16224
HA 16219
5.3 16216
Pay 16213
heavily 16208
toxicity 16206
Pas@@ 16201
08@@ 16197
England 16195
conditional 16190
2.6 16189
violated 16189
enting 16188
Kong 16186
routes 16176
akes 16175
contractors 16174
Ben@@ 16173
Conflict 16171
bel@@ 16165
rare 16158
degrees 16157
withdrawn 16150
46@@ 16142
Eritrea 16139
201 16135
clearance 16127
Oversight 16127
4th 16124
alty 16123
Facilities 16116
wait 16115
Consultations 16108
pro 16101
quick 16100
righ@@ 16092
Conduct 16092
incentive 16083
mix 16077
discovered 16075
entr@@ 16072
Bri@@ 16053
justification 16052
Corr.1 16046
Ensure 16040
deposits 16039
hem@@ 16036
nitrogen 16030
concentrated 16027
duplication 16025
aj@@ 16022
De 16021
compete 16019
Ltd. 16016
gone 16015
cos@@ 16014
love 16013
ko 16012
Waste 16010
Objective 16006
hazard 15997
chart 15990
Historic 15984
dans 15982
default 15981
doctor 15980
Details 15973
wild 15971
TA@@ 15968
progressive 15967
Volume 15966
HTML 15965
pleasure 15964
ils 15962
Mail 15958
thro@@ 15957
films 15957
men@@ 15955
officially 15949
demonstrates 15948
2013 15941
Laboratory 15940
displayed 15939
Excise 15937
valued 15936
invested 15934
clothing 15934
CTA 15929
disadvantaged 15928
eliminating 15926
evening 15925
timing 15923
artistic 15922
heating 15919
absolutely 15918
Bas@@ 15917
replies 15917
160 15916
demonstration 15913
outset 15912
proposing 15910
Sites 15904
rev@@ 15902
reas@@ 15899
min 15895
Town 15893
defend 15892
circulation 15890
Commonwealth 15890
Penal 15888
ala 15887
Guidance 15875
tail@@ 15867
jo@@ 15863
headed 15860
observe 15856
58@@ 15854
Hu@@ 15851
affordable 15850
gam@@ 15848
QC 15847
talking 15827
assumption 15825
CAN@@ 15825
Documentation 15823
} 15822
tun@@ 15821
comfort 15816
sensitivity 15814
law@@ 15810
responsive 15810
m3 15797
withdraw 15795
ingredients 15795
designs 15791
negotiate 15785
Provisional 15781
recreational 15780
fostering 15776
eye 15774
NH@@ 15772
deprived 15770
ambitious 15768
crimin@@ 15767
reserved 15763
Harbour 15760
PD@@ 15756
ium 15755
pal@@ 15753
trans 15751
Available 15747
1970 15742
gene 15738
FM 15738
Ke@@ 15727
MB 15726
Tim@@ 15724
Up 15722
detainees 15718
rats 15713
sponsor 15712
layer 15711
liaison 15709
thirds 15708
HC 15708
tissue 15707
1971 15707
va 15706
75@@ 15704
unfair 15697
therein 15697
intensity 15693
ots 15692
recalls 15689
Opening 15687
fellow 15685
vertical 15685
ailed 15684
warm 15680
wheat 15679
expiry 15671
ONAL 15666
Counter 15663
xenophobia 15660
adjacent 15657
capita 15655
begins 15655
expressly 15654
translated 15653
infections 15653
CSC 15652
1973 15638
Métis 15635
cro@@ 15633
ective 15633
Enterprise 15633
hypo@@ 15630
refund 15626
center 15621
Festival 15621
Increased 15619
rebate 15617
profiles 15607
sheets 15604
Salvador 15603
exercises 15602
holiday 15600
Cameroon 15598
Freedom 15597
reliability 15596
é@@ 15595
aw 15595
accomplishments 15594
stipulates 15593
rape 15593
hopes 15585
Wor@@ 15585
intermediate 15584
My@@ 15581
reputation 15579
Have 15574
Revised 15569
spaces 15565
ney 15563
forming 15560
Ã 15560
induced 15556
statute 15549
conc@@ 15544
dual 15544
Developed 15533
OTTAWA 15531
inhabitants 15529
ust 15525
explains 15524
pas@@ 15518
massive 15514
wave 15513
origin@@ 15509
Fer@@ 15508
occurrence 15504
EG@@ 15504
instruc@@ 15501
challenging 15500
Pre 15498
concludes 15497
games 15492
Recent 15490
handle 15484
Sources 15483
ician 15481
Reaffirming 15481
match 15480
0.0 15480
registry 15479
volunteer 15475
Vo@@ 15471
CAR@@ 15471
unlikely 15465
influenced 15461
wife 15458
C.1 15456
asts 15453
computers 15453
libraries 15449
thereto 15449
pain 15447
Recovery 15446
Whether 15445
limiting 15445
Aid 15444
Sign@@ 15440
yourself 15432
Others 15430
Surveillance 15424
C.5 15423
confusion 15418
reproduction 15417
red@@ 15416
authorised 15410
happened 15409
utility 15406
anda 15404
Take 15402
1975 15400
eve 15399
seekers 15397
Opinion 15394
ush@@ 15391
athletes 15388
eting 15386
Corrections 15384
Identification 15383
diagnosis 15368
Direct 15363
1000 15361
outlines 15359
ped 15358
ero@@ 15355
stores 15353
truth 15351
seized 15351
disclose 15349
aquaculture 15349
1976 15336
Bolivia 15334
BR@@ 15334
doors 15332
enn@@ 15329
totally 15327
CW@@ 15325
BY 15323
confirmation 15320
empowerment 15316
facilitation 15314
180 15296
Students 15293
evolving 15291
creditors 15287
autonomy 15277
References 15277
TD 15271
FA 15268
exceeded 15263
lawyer 15261
lab@@ 15255
sup@@ 15254
credible 15241
Uzbekistan 15238
enforced 15237
ip@@ 15236
download 15235
Doc@@ 15234
methodologies 15233
Fi@@ 15227
habitats 15224
inform@@ 15224
married 15224
ere 15217
Air@@ 15215
referendum 15211
ene@@ 15211
Update 15210
suggestion 15208
freight 15208
collections 15206
struggle 15202
Dialogue 15201
Primary 15201
encing 15198
Cancer 15198
ENCE 15192
sol@@ 15188
perception 15185
prohibit 15184
short@@ 15183
30.@@ 15182
TP 15180
ose 15179
delayed 15178
Instead 15173
ó@@ 15165
Online 15162
Ed@@ 15161
fold 15155
League 15153
Grant 15150
las@@ 15145
enforce 15145
pic@@ 15145
View 15145
nu@@ 15141
aggregate 15141
Windows 15140
Ur@@ 15138
constitution 15137
Don@@ 15134
Station 15134
commodities 15131
faster 15130
ony 15130
Complainant 15126
Urges 15124
baseline 15123
inv@@ 15121
Australian 15121
Just 15119
IPC 15116
venture 15115
authorize 15111
108 15108
die 15106
accomplished 15105
troop 15105
acc@@ 15103
breakfast 15103
customary 15098
notion 15098
networking 15095
ration@@ 15090
govern@@ 15090
™ 15087
Reg@@ 15076
onto 15075
Skip 15075
predictable 15070
arrive 15069
presidential 15065
cont@@ 15065
micro 15062
Water@@ 15062
calculate 15061
warrant 15060
explicit 15058
extraordinary 15058
diabetes 15058
CH 15058
unnecessary 15055
TER@@ 15049
obstacle 15048
resort 15048
Companies 15048
Telecom 15047
pine 15038
Establishment 15034
dies 15032
clarity 15032
Portuguese 15030
imperative 15029
exclude 15027
0.2 15018
ection 15015
maternity 15014
reproduced 15014
v01 15014
ARY 14987
Creek 14982
consequently 14980
anger 14980
Employee 14975
SERVICES 14974
Bou@@ 14972
Highway 14966
friend 14963
maps 14960
pupils 14956
bor@@ 14954
scenario 14949
oth 14948
rapporteurs 14945
Institution 14945
Jamaica 14942
settled 14940
115 14940
nam@@ 14940
graduates 14939
pon@@ 14936
impe@@ 14935
Wi@@ 14930
SOR 14930
disseminate 14929
tenth 14927
pers@@ 14923
RS 14919
EPA 14909
Regular 14907
individually 14892
Liechtenstein 14890
fairness 14887
56@@ 14883
purchases 14881
Don 14880
Club 14879
hr@@ 14877
Be 14877
Integration 14872
USD 14869
Presentation 14869
connections 14868
attractive 14863
volumes 14863
bands 14863
competencies 14862
Fl@@ 14861
ta@@ 14858
bases 14855
ame@@ 14854
Preliminary 14852
aux 14850
ops 14848
orial 14844
Arabic 14843
ees 14839
shi@@ 14835
102 14832
optional 14831
parliaments 14828
Equity 14828
margin 14823
sch@@ 14823
eless 14822
sts 14822
readiness 14822
mes 14820
103 14818
technique 14818
sc.gc.ca 14818
analyse 14815
County 14813
pat@@ 14807
cop@@ 14804
oxygen 14804
eri@@ 14801
determines 14798
esti@@ 14798
RI 14796
default.asp 14795
tons 14794
travellers 14794
ck 14788
Thank 14785
prime 14785
Inv@@ 14783
Joseph 14782
Bre@@ 14778
pH 14775
Op@@ 14771
continuity 14770
deduction 14768
seemed 14765
Mauritius 14762
admissibility 14760
villages 14750
Oil 14746
cc@@ 14739
21st 14734
Light 14730
CANADIAN 14723
succeed 14722
generic 14721
enacted 14720
yp@@ 14712
111 14712
Conclusions 14710
PD 14710
firmly 14709
oper@@ 14704
accelerate 14701
passport 14689
Transitional 14686
respects 14684
specialist 14679
FN@@ 14668
DC@@ 14667
Guard 14663
tanks 14661
Burkina 14661
persistent 14660
childhood 14656
utilized 14655
entrusted 14654
Uni@@ 14652
UM@@ 14648
subprogramme 14648
exc@@ 14641
unlawful 14639
engaging 14626
Cro@@ 14625
Zimbabwe 14621
imp@@ 14615
apped 14613
Gar@@ 14613
secret 14610
terminal 14610
cumulative 14604
workload 14602
ratify 14598
106 14591
underlined 14586
grew 14584
rap@@ 14580
CSIS 14579
reimbursement 14576
occupying 14572
offender 14569
mixture 14568
Faso 14566
stimulate 14564
quanti@@ 14562
GN@@ 14560
hol@@ 14559
oun@@ 14551
Book 14549
5.5 14545
appropriation 14543
Temporary 14535
apart 14530
Orders 14529
hop@@ 14529
ported 14523
tery 14521
Discussion 14521
islands 14520
TK 14517
INTER@@ 14514
War@@ 14513
Marketing 14510
noise 14497
reminded 14496
Bon@@ 14496
107 14490
purchasing 14487
isolation 14483
authorisation 14479
admitted 14475
liberalization 14474
Takes 14474
ev 14472
theatre 14471
ices 14470
accompanying 14469
Meetings 14463
spite 14462
atics 14462
underway 14452
systematically 14450
guilty 14447
Sy@@ 14445
sible 14444
synthesis 14444
don@@ 14441
Charles 14436
discover 14435
High@@ 14433
sentences 14432
modify 14429
Principal 14426
organ 14425
Tu@@ 14424
Veterans 14423
stipulated 14420
boat 14417
shipment 14416
CIS 14412
coordinator 14410
AIN@@ 14405
sm@@ 14403
glass 14403
cycles 14401
DO 14401
Welfare 14400
tured 14399
rivers 14394
S.C. 14393
declare 14392
seasonal 14385
Sup@@ 14384
Digital 14383
1980s 14382
exhibit 14379
sentenced 14378
lamp 14378
Irish 14376
reflection 14376
urgency 14374
importer 14372
aboriginal 14372
EM 14371
breakdown 14362
Intelligence 14362
wear 14360
APPLICATION 14357
ab 14355
long@@ 14350
Platform 14343
counterparts 14336
stem 14336
Ow@@ 14335
hen@@ 14333
Original 14332
routine 14331
key@@ 14328
Ram@@ 14326
Commander 14326
sort 14324
minimal 14323
updating 14322
less@@ 14315
Thomas 14313
tation 14307
charter 14306
sh 14298
Stockholm 14292
personally 14291
photo 14291
itary 14290
usage 14286
player 14284
2012 14280
Hom@@ 14280
incorporating 14279
signals 14272
TE@@ 14272
immigrant 14271
duly 14270
fulfilment 14269
accessed 14266
INFORMATION 14266
remind 14263
plate 14263
Add 14256
hence 14255
minim@@ 14252
pers 14246
pharmac@@ 14245
Floor 14245
consolidate 14243
contested 14242
mel@@ 14242
valuation 14240
installations 14237
iss@@ 14237
mag@@ 14235
pensions 14233
mechanical 14232
printing 14230
pharmaceutical 14226
ano@@ 14223
wastes 14222
subsidy 14221
Indians 14221
Old 14219
c.gc.ca 14216
Hun@@ 14212
varies 14210
guiding 14210
Ren@@ 14206
compare 14204
qualitative 14198
NS 14196
corrective 14191
summarized 14191
beach 14186
CI 14186
lending 14185
naturally 14184
iving 14183
by@@ 14178
shortly 14174
husband 14171
engines 14169
ail@@ 14165
Definition 14165
airports 14164
Like 14163
mitigate 14160
Occupational 14149
Organized 14149
77@@ 14143
resolving 14139
narrow 14139
Organizational 14139
Trafficking 14137
intake 14133
ry@@ 14132
SD@@ 14130
magnitude 14129
overseas 14125
Fees 14122
com 14121
inj@@ 14120
plain 14119
EF@@ 14118
ature 14115
ordination 14115
module 14115
upcoming 14113
iron 14110
eding 14109
fulfilling 14105
tine 14099
preference 14098
pressing 14096
Tro@@ 14092
afternoon 14090
reads 14085
Check 14085
parliament 14072
investigating 14072
endeavour 14068
Anne 14067
nation@@ 14066
Adviser 14056
ara 14054
Corporations 14053
trademark 14048
supervisory 14047
molecular 14047
Healthy 14041
lim@@ 14039
Native 14037
Berlin 14029
ize 14029
tourist 14020
Approval 14020
William 14019
debtor 14018
camp 14017
Experience 14015
convergence 14013
swe@@ 14013
BA 14013
restrict 14012
break@@ 14009
Clinical 14008
cli@@ 14005
pping 14005
consecutive 14001
astic 13992
toll 13991
GU@@ 13984
GE@@ 13976
creditor 13972
Protocols 13972
bal@@ 13971
mere 13970
sovereign 13968
councils 13968
amounted 13966
Acc@@ 13966
marketplace 13963
Mental 13963
Certificate 13959
alli@@ 13952
diet 13952
thousand 13949
Matters 13947
legitimacy 13945
acks 13942
conducive 13938
rein@@ 13937
GI@@ 13934
Low 13925
Chad 13925
reverse 13923
agg@@ 13915
tin 13914
Sw@@ 13911
museum 13904
dly 13901
7.5 13896
VIII 13894
treatments 13894
exceeds 13888
Provisions 13887
feeding 13883
rock 13883
transboundary 13876
&apos;S 13876
net@@ 13871
Event 13870
profession 13869
Supply 13867
Qatar 13864
65@@ 13863
â 13860
displacement 13855
Evidence 13855
designate 13850
server 13847
F.@@ 13840
smooth 13838
atives 13834
anding 13832
implies 13826
gift 13826
ire 13826
charity 13826
YES 13820
simultaneously 13818
aps 13816
itors 13815
Airlines 13805
tious 13804
varying 13802
enjoyed 13801
Cam@@ 13800
meters 13799
maximize 13799
ises 13796
Average 13795
Mali 13792
Making 13788
iness 13785
rationale 13785
ial 13783
Term 13779
snow 13777
nar@@ 13777
MT 13776
apo@@ 13774
participatory 13772
Americas 13772
p.@@ 13762
peak 13760
Vol 13760
locally 13758
Materials 13757
2020 13755
ballot 13753
auspices 13752
commencement 13748
Bar 13747
updates 13745
doctors 13740
shor@@ 13734
shop 13734
interface 13734
Diseases 13731
VE 13730
Greater 13728
si 13725
virtual 13723
strengths 13715
guideline 13714
Vehicle 13708
Encourages 13708
inland 13699
blue 13699
appraisal 13698
cease 13696
degrading 13696
Rate 13691
soci@@ 13687
medicines 13685
moderate 13684
towns 13680
med@@ 13680
CA@@ 13677
aggression 13673
tro 13672
runs 13667
fications 13666
confident 13664
qualifying 13664
enrolment 13664
rescue 13663
Voluntary 13654
amp@@ 13650
newspapers 13646
shelter 13646
variations 13644
younger 13641
Europeans 13640
descriptions 13639
barrier 13638
undermine 13637
lamps 13636
cher@@ 13634
ino 13633
pursuit 13631
sing@@ 13630
Single 13629
obviously 13628
counts 13625
AC.@@ 13617
123 13607
FDI 13607
Television 13592
broadly 13591
cle@@ 13589
iled 13577
URE 13577
CR 13575
Academy 13574
wrote 13573
possess 13568
seeing 13566
eries 13564
securing 13563
Criteria 13561
Leader 13560
WHEREAS 13560
Muslim 13557
poses 13554
info 13553
ennial 13552
nursing 13551
plastic 13546
orally 13541
harvest 13540
star@@ 13534
doc 13533
incorporation 13532
pan@@ 13530
reinforced 13527
epidemic 13524
formerly 13520
mas@@ 13514
OIOS 13511
Rio 13506
emergencies 13506
Phot@@ 13503
Commissioners 13501
7.2 13495
allocate 13494
novel 13494
broken 13494
ailing 13493
Payment 13489
disciplines 13485
µg 13481
onally 13479
angle 13477
failing 13476
6.3 13474
fails 13472
breast 13470
N. 13470
Vote 13466
resistant 13465
reli@@ 13461
Sen@@ 13460
oph@@ 13459
inal 13457
saving 13451
Embassy 13448
belong 13434
farms 13433
laboratories 13429
SR.@@ 13426
infectious 13424
eliminated 13423
grades 13423
licensee 13414
mL 13414
rer 13413
Glossary 13413
cuts 13412
flat 13409
loads 13408
semi 13407
plas@@ 13405
poss@@ 13402
malaria 13401
Dr@@ 13395
Bissau 13393
independently 13389
Profile 13383
Zambia 13381
turing 13375
linking 13371
Well 13371
brain 13368
ron@@ 13368
Music 13368
aus@@ 13367
und 13357
Tor@@ 13357
cleaning 13356
aking 13347
emergence 13340
pul@@ 13338
websites 13326
3.0 13324
1.7 13311
person@@ 13310
benefited 13308
sky 13307
joining 13307
Danish 13306
112 13305
forwarded 13302
lam@@ 13293
oni@@ 13293
At@@ 13292
ides 13290
electro@@ 13290
Advancement 13289
2.7 13288
ov 13286
Respondent 13286
logy 13282
tele@@ 13282
prisons 13280
attempted 13274
neutral 13271
Updated 13267
couple 13263
1974 13263
ok 13260
Ul@@ 13259
validation 13259
crow@@ 13255
municipality 13243
5.4 13243
clauses 13239
Leadership 13239
Fraser 13239
abuses 13238
Student 13237
DIS@@ 13236
Equal 13235
Physical 13231
hotels 13228
realities 13227
Combat 13225
afford 13223
IX 13222
Nature 13221
Winter 13219
eter 13217
earth 13210
wn 13210
accreditation 13208
ought 13206
Sho@@ 13204
standardized 13203
sees 13201
Cy@@ 13201
continuously 13197
AAFC 13196
ion@@ 13194
promptly 13194
Claims 13194
ease 13191
1.8 13191
inquiries 13190
IG@@ 13186
Disabilities 13186
undue 13185
Detailed 13185
formulate 13184
assumptions 13183
bird 13180
Individual 13179
Suite 13179
vice 13178
www.ec.gc.ca 13178
momentum 13176
distinguished 13173
speeches 13170
seeds 13170
cancellation 13170
CSA 13170
exit 13167
tened 13167
zer 13167
soft 13166
stand@@ 13165
Peacebuilding 13164
Gre@@ 13162
Nicaragua 13161
inning 13160
concerted 13160
ald 13154
irrespective 13146
unanimously 13145
repeat 13145
hiring 13143
Ear@@ 13136
spatial 13133
detect 13129
nurses 13126
motor@@ 13125
launching 13121
adjust 13121
Approach 13118
removing 13116
inhib@@ 13112
Municipal 13111
Consultative 13100
× 13095
Over@@ 13093
tra 13091
accessing 13083
lift 13082
opposite 13081
ceremony 13075
Lord 13072
7.1 13072
configuration 13070
handled 13065
gather 13064
BE 13064
vegetation 13063
tariffs 13062
inhuman 13062
distribute 13055
oceans 13052
contr@@ 13050
Pa@@ 13050
122 13049
porters 13047
allocations 13044
Sunday 13044
DI 13039
HS 13038
Benin 13036
Or 13034
Together 13033
insured 13031
Pri@@ 13029
fabrics 13029
mann 13028
interven@@ 13027
yer 13024
Str@@ 13022
Trial 13022
contingent 13016
8.2 13015
New@@ 13014
declining 13014
hunger 13009
deficiencies 13004
finalized 13003
cau@@ 13001
complied 12995
Exp@@ 12992
Advisor 12992
syn@@ 12990
neighbours 12988
Twenty 12987
Tools 12986
alling 12985
polling 12980
Occupied 12978
puts 12977
ared 12972
bond 12972
ama 12971
eggs 12970
separ@@ 12967
Beau@@ 12964
infant 12959
scenarios 12958
resume 12958
teri@@ 12954
acti@@ 12952
incomes 12946
disbur@@ 12946
wherever 12946
ener@@ 12945
dramatic 12939
Film 12935
decisive 12931
mic 12928
methyl 12927
myself 12923
ella 12921
Strategies 12917
quarterly 12911
ITC 12909
Atomic 12904
Agencies 12903
macroeconomic 12902
boundary 12902
run@@ 12901
prescription 12895
balances 12886
steady 12886
elaboration 12885
frozen 12884
aligned 12882
Skills 12882
bes@@ 12880
Instance 12878
segments 12878
000.00 12877
ef@@ 12876
sc 12876
complicated 12875
Generally 12874
AGE 12874
Soviet 12871
fat 12870
replacing 12870
ran@@ 12861
Korean 12858
Mining 12856
compatibility 12855
aud 12855
ero 12855
web@@ 12851
Zone 12849
oll@@ 12848
MI@@ 12848
kin@@ 12847
Ds 12845
spe@@ 12844
exact 12844
recourse 12840
carries 12840
SDS 12837
distinctive 12832
6.5 12830
Import 12828
Maintenance 12827
Additionally 12826
alignment 12822
ging 12821
dri@@ 12819
tries 12819
aci@@ 12818
09@@ 12818
UNMIK 12817
mainstream 12812
sid@@ 12809
livestock 12809
collectively 12809
feet 12808
3.6 12807
Judicial 12806
salt 12800
phot@@ 12800
Fiscal 12799
ACP 12798
Industries 12797
ear 12795
recover 12794
wo@@ 12793
Nam 12789
transmitting 12785
ination 12783
invasion 12783
GA 12782
mono@@ 12780
laying 12779
medicinal 12777
faces 12776
assured 12776
Motion 12776
Make 12776
aded 12773
Focus 12773
Challenges 12770
briefly 12768
66@@ 12767
KS 12767
revisions 12763
width 12760
inconsistent 12759
EU@@ 12759
efficacy 12755
Mark@@ 12753
proactive 12752
Amnesty 12752
Excellence 12751
AW@@ 12745
IES 12745
Chi@@ 12744
apparatus 12741
hyper@@ 12741
enshrined 12740
Comp@@ 12738
Vis@@ 12738
diesel 12736
Ju@@ 12733
Anti@@ 12733
70@@ 12730
ental 12727
204 12727
Michel 12724
Sa@@ 12718
Notwithstanding 12716
viability 12714
eyes 12711
inappropriate 12711
bank@@ 12710
ball 12706
innovations 12703
shot 12700
Mountain 12699
pandemic 12698
Invites 12697
institutes 12693
undertook 12692
SME 12686
hard@@ 12683
audiovisual 12682
firearms 12681
concentrate 12679
Rou@@ 12679
fitted 12673
sight 12665
ast@@ 12661
Win@@ 12660
RC@@ 12658
es.@@ 12656
89@@ 12655
MDGs 12655
TOTAL 12655
ARTICLE 12653
expressing 12652
pricing 12652
emphasizes 12652
NI@@ 12649
Expenditures 12644
Client 12634
wai@@ 12630
with@@ 12629
wil@@ 12628
collabor@@ 12627
nomination 12626
Copenhagen 12626
Presidents 12625
preparedness 12621
tier 12620
ologists 12618
Expected 12616
delegated 12613
promise 12609
Pic@@ 12609
OS 12606
tl@@ 12604
poorest 12602
calculations 12601
thereafter 12601
hit 12600
ix 12597
GEF 12589
tal 12588
Command 12588
lesser 12583
phrase 12582
biggest 12581
ENTS 12579
rank 12578
Least 12575
any@@ 12571
Hill 12569
fabric 12567
pun@@ 12566
Fre@@ 12565
stock@@ 12564
ani@@ 12563
bid@@ 12560
advancing 12557
Sun@@ 12555
modes 12551
touch 12547
Sections 12543
hu@@ 12537
allegedly 12537
VAT 12533
reiterates 12531
thi@@ 12530
investing 12527
appreciated 12526
Accounting 12524
² 12524
12,@@ 12524
repeatedly 12521
ss 12521
optimal 12520
Video 12518
scene 12512
fas@@ 12505
80@@ 12505
refer@@ 12504
severely 12503
Tables 12500
strain 12494
Louis 12492
ti 12491
phen@@ 12491
oxide 12490
shopping 12489
tra@@ 12489
pp@@ 12489
top@@ 12487
convening 12487
circum@@ 12487
restaurants 12485
arch@@ 12482
Read 12481
CEPA 12480
LES 12479
Fu@@ 12474
Lands 12472
diameter 12472
importation 12471
Inquiry 12471
Sound 12470
Start 12469
Rather 12467
Ham@@ 12467
AA 12467
reiterate 12466
mark@@ 12465
icity 12464
sign@@ 12464
ja 12463
consultant 12461
commissioned 12459
Corruption 12456
ado 12455
tre@@ 12452
feeling 12451
walls 12451
disorders 12448
May@@ 12447
ologically 12441
Improving 12440
Increase 12440
pertinent 12438
graph 12438
Mark 12438
ba 12434
aring 12431
Daily 12431
sli@@ 12429
characteristic 12424
portable 12420
competing 12420
idi@@ 12417
tension 12414
Amount 12411
ita 12411
Viet 12408
voters 12404
TED 12404
Ir@@ 12399
ged 12397
gan@@ 12395
Translation 12395
journal 12394
zi@@ 12392
350 12390
art@@ 12389
DG@@ 12389
PN@@ 12385
Adv@@ 12384
ts@@ 12380
Individuals 12378
PL 12377
biomass 12376
log 12376
immunization 12376
argues 12369
pays 12366
transfer@@ 12366
suicide 12365
Recital 12365
Alternative 12365
spoken 12364
premium 12356
1972 12353
electors 12351
passage 12342
Mine 12342
ageing 12340
GE 12340
mature 12337
Racism 12336
Outer 12336
AI 12328
bility 12326
AUTONUM 12323
EPP 12322
GHG 12321
wid@@ 12320
MONUC 12320
scores 12316
Sim@@ 12316
Investigation 12316
SB 12313
On@@ 12312
diagnostic 12312
politicians 12309
impartial 12309
comprise 12308
450 12307
87@@ 12306
121 12304
embargo 12302
genocide 12300
restrictive 12298
Registered 12297
forget 12295
Mozambique 12295
5th 12293
disparities 12291
Proliferation 12290
Publication 12289
timetable 12288
Shi@@ 12287
Lam@@ 12285
ordin@@ 12285
upgrade 12282
textile 12280
Nutrition 12277
tt@@ 12275
RPP 12274
twelve 12273
113 12273
robust 12269
OP 12269
Re 12267
TI 12265
hear@@ 12264
lots 12263
UNODC 12262
PO 12258
dev@@ 12254
ouring 12252
prevailing 12247
recovered 12239
deterioration 12238
Det@@ 12237
Eng@@ 12236
shipments 12235
worst 12234
agri 12233
recycling 12228
Parts 12228
elect 12221
regulating 12219
109 12219
Mel@@ 12216
ologist 12212
Structural 12209
studying 12205
Dominican 12205
fre@@ 12204
annu@@ 12202
postal 12201
conce@@ 12199
ural 12197
erosion 12197
converted 12196
thermal 12196
ck@@ 12195
dynamics 12194
viewing 12194
Forests 12194
clarified 12191
leisure 12190
rain@@ 12183
contro@@ 12182
hydrogen 12177
motivated 12176
flag 12175
igh@@ 12172
therapeutic 12171
Find 12168
immunity 12167
bonds 12162
CIC 12160
COSEWIC 12157
cruel 12155
53@@ 12151
uk 12151
urgently 12148
Syn@@ 12147
Administrator 12146
olo@@ 12145
exhaust 12143
accurately 12143
Panama 12141
corrected 12133
GH@@ 12133
ich 12129
Will 12125
experiencing 12120
Gal@@ 12120
avoided 12117
Tajikistan 12117
describing 12117
persu@@ 12114
ached 12110
IAL 12109
biennial 12108
watch 12106
arranged 12106
e.html 12102
Libyan 12101
Traditional 12100
newspaper 12095
pair 12094
135 12094
Living 12092
direc@@ 12091
Regina 12091
Seminar 12089
imply 12086
Main@@ 12085
OB@@ 12085
arr@@ 12084
executed 12082
FI 12082
hosting 12081
Clo@@ 12080
Med@@ 12079
sters 12078
Interpretation 12077
UM 12074
toler@@ 12069
investigators 12069
750 12067
tender 12064
AU 12064
lying 12063
intr@@ 12062
dead 12061
adds 12060
Saturday 12060
quarters 12059
OC@@ 12059
2.8 12049
11,@@ 12043
Ban@@ 12040
magnetic 12039
exemptions 12035
accredited 12030
vals 12030
miles 12030
Fundamental 12029
FL@@ 12029
craft 12024
welcoming 12024
sely 12024
fav@@ 12022
ith 12019
bacteria 12016
pillar 12015
knew 12012
prompt 12011
traditionally 12011
dropped 12007
set@@ 12007
apparently 12006
Elev@@ 12006
emp@@ 12002
exercising 11997
amed 11995
CEDAW 11995
bias 11992
iling 11988
Belgian 11988
democrati@@ 11985
ari 11985
modest 11984
panels 11981
inequality 11980
Prohibition 11977
facto 11974
claimants 11971
turning 11967
notices 11961
Fun@@ 11959
Université 11957
aiming 11956
Yemen 11955
convene 11952
b. 11951
electronically 11949
gear 11947
cancelled 11944
void 11942
tains 11939
Promoting 11937
Scope 11935
aqu@@ 11934
quotas 11933
eller 11933
challenged 11932
show@@ 11931
administer 11930
2.2.@@ 11928
artist 11923
Saharan 11921
96@@ 11918
dependence 11914
extends 11911
render 11909
Lieutenant 11907
TR 11907
nur@@ 11906
pard 11905
DECISION 11903
squ@@ 11900
meter 11899
testified 11898
index@@ 11898
damaged 11894
eigh@@ 11893
Microsoft 11892
briefings 11887
utmost 11882
Judge 11881
incumbent 11878
CAP 11873
NR@@ 11872
stabili@@ 11864
was@@ 11862
upgrading 11861
recruited 11861
petition 11855
Pol@@ 11852
reject 11851
explosive 11851
act@@ 11849
IH@@ 11847
Conclusion 11846
mem@@ 11845
checked 11843
Rooms 11838
416 11835
grass 11833
titles 11833
intensify 11831
Stability 11831
END@@ 11830
convenience 11828
audited 11828
esting 11823
parliamentarians 11822
sizes 11821
servicing 11818
Situation 11816
redress 11816
posting 11815
yesterday 11812
Pollution 11811
corrections 11810
Vision 11809
Various 11807
announce 11804
Honduras 11803
fr 11803
dia 11802
Prairie 11802
continental 11801
incompatible 11801
hunting 11800
asp@@ 11799
arri@@ 11798
COR@@ 11797
pm 11796
stu@@ 11795
116 11793
conform 11791
Recipient 11789
Barcelona 11783
NEPAD 11782
substitute 11781
forecasts 11777
She@@ 11777
implic@@ 11773
Trends 11764
raises 11755
constitu@@ 11755
superior 11754
Spring 11754
thanked 11753
ound 11753
radioactive 11752
regret 11748
avoiding 11747
interior 11747
grav@@ 11745
onic 11745
tribute 11743
importers 11742
Responsibility 11739
&apos;d 11739
respiratory 11737
magazine 11734
Citizens 11728
hun@@ 11727
ester 11726
Tele@@ 11722
guaranteeing 11721
abandoned 11720
Syria 11719
Chart 11713
drought 11710
highway 11709
representations 11708
Renewal 11708
Coun@@ 11707
knows 11705
Ang@@ 11704
Software 11703
tat@@ 11702
NPRI 11694
logistics 11693
intervene 11692
erian 11692
sul@@ 11690
cope 11689
Sem@@ 11685
ater 11678
demobilization 11678
weaknesses 11677
expressions 11671
pipeline 11670
Efforts 11669
Bull 11667
Democracy 11664
Provision 11664
suit 11659
scrutiny 11656
EIB 11655
expulsion 11655
solic@@ 11651
array 11648
Exc@@ 11647
plan@@ 11645
modules 11644
ik@@ 11643
Laun@@ 11642
alk@@ 11641
NRCan 11641
pillars 11639
discovery 11636
zo@@ 11636
nominated 11631
harmonized 11631
walking 11626
oy@@ 11625
Structure 11625
sil@@ 11622
appendix 11621
ez 11620
Taliban 11616
illed 11614
restraint 11613
pesticides 11611
occupations 11611
ities 11610
accumulation 11609
6.4 11609
prefer 11607
supervisor 11606
adversely 11605
tioned 11605
probability 11603
explored 11601
batt@@ 11601
LTD 11601
UE 11594
WOR@@ 11590
deciding 11589
68@@ 11589
calculating 11588
CAD 11587
chairs 11585
ny 11583
ther 11581
uring 11580
Settlements 11577
spouses 11574
prosecutors 11569
impression 11562
unprecedented 11562
reliance 11561
ger@@ 11555
MEPs 11552
Gener@@ 11552
Mandate 11552
cross@@ 11550
hired 11547
beds 11547
enemy 11540
filling 11539
projections 11538
Job 11538
accorded 11537
commercialization 11535
gri@@ 11534
graphy 11534
Amsterdam 11532
TY 11532
petroleum 11526
Plant 11525
anch@@ 11523
experiments 11520
y.@@ 11517
ails 11516
organiz@@ 11509
temporarily 11507
Items 11507
subsections 11506
contacted 11504
TH 11503
Proposals 11502
kin 11502
21.@@ 11501
Confederation 11500
prohibits 11500
Certification 11498
WE@@ 11498
aids 11496
ammunition 11495
durable 11494
bears 11493
Conferences 11490
blocks 11489
lighting 11489
.html 11488
steering 11487
agr@@ 11486
Contin@@ 11485
20th 11483
19th 11480
install 11479
varieties 11479
thereon 11477
OTHER 11476
Johannesburg 11472
burg 11469
Polish 11466
Refugee 11465
ep 11464
boo@@ 11460
systemic 11459
sixtieth 11459
develops 11457
hardware 11457
Traffic 11454
Adopted 11451
CTC 11450
competitors 11449
foreigners 11447
Governmental 11446
aise 11445
vol@@ 11438
54@@ 11438
reinforcing 11437
ells 11435
Expenditure 11435
28.@@ 11435
exploring 11432
ADR 11431
oth@@ 11429
gent 11429
indispensable 11426
ark 11426
construct 11425
battle 11425
associate 11423
sick 11421
beliefs 11420
Speech 11419
insecurity 11417
im 11415
Improvement 11414
claiming 11409
Preparation 11409
Vari@@ 11409
Ku@@ 11407
Superintendent 11407
guides 11406
neuro@@ 11404
Up@@ 11398
Rail 11397
00.00 11394
The@@ 11392
604 11391
smokers 11390
Transnational 11387
terminated 11386
Tel@@ 11386
answered 11384
performances 11384
Unless 11382
analyzed 11382
lawful 11380
asing 11379
Price 11378
Hence 11377
profound 11373
117 11373
Consensus 11372
114 11371
64@@ 11371
124 11370
Until 11370
acking 11369
Submission 11369
UNAM@@ 11367
suite 11361
vacation 11358
SK 11358
mobilize 11358
Ca@@ 11357
bol@@ 11356
club 11355
inspectors 11354
meal 11354
Schools 11354
amine 11350
P.C. 11349
journey 11346
Much 11340
conform@@ 11338
Mary 11336
lis 11335
pel@@ 11335
arian 11332
commentary 11332
musical 11330
dom@@ 11329
extremis@@ 11327
examinations 11325
lad@@ 11323
Database 11320
breaking 11316
ini 11313
Week 11313
contaminants 11312
suggesting 11311
logic 11310
sand 11310
Austrian 11307
happens 11306
conditioning 11306
Cr@@ 11304
ranges 11303
pressed 11302
Lower 11301
sin@@ 11294
West@@ 11290
connect 11289
Mot@@ 11288
Welcoming 11286
worse 11284
138 11284
cru@@ 11284
Majesty 11282
DD 11281
unfortunately 11280
abundance 11280
ray 11279
arrange 11277
MON@@ 11277
bom@@ 11276
demanding 11273
entrepreneurship 11272
instability 11271
prominent 11271
Methods 11271
combustion 11267
Multilateral 11263
atal 11261
SOC 11260
camera 11259
antly 11257
rit@@ 11256
ert 11256
Download 11254
captured 11253
GC 11252
aspirations 11251
premiums 11251
specially 11246
Cat@@ 11242
remarkable 11240
renew 11237
Blue 11237
127 11235
Moscow 11235
interviewed 11235
erc@@ 11233
0.3 11232
psych@@ 11229
heter@@ 11226
oul@@ 11224
ced 11220
essi@@ 11219
book@@ 11215
aer@@ 11209
audiences 11208
statutes 11208
openness 11205
suff@@ 11204
143 11202
UNCITRAL 11199
dioxide 11197
emotional 11195
baby 11192
Hamilton 11191
essed 11188
29.@@ 11188
dental 11186
Large 11182
&apos;a 11181
Pact 11180
Stephen 11179
distinguish 11178
furnished 11178
airspace 11175
commenced 11175
analysed 11173
Men 11172
Mongolia 11172
Smoking 11172
Associate 11172
som@@ 11171
killing 11170
Der@@ 11170
CEO 11165
Ak@@ 11164
ore@@ 11164
7.3 11164
maxim@@ 11160
outs 11160
adherence 11160
eld 11156
ral 11156
ruled 11152
mati@@ 11152
ction 11152
reb@@ 11151
Topics 11148
proc@@ 11146
san@@ 11143
illustrated 11142
Mul@@ 11139
uk@@ 11139
coalition 11138
Correctional 11138
gratitude 11136
tural 11135
buyer 11132
annexes 11131
compiled 11131
dominated 11131
Namibia 11130
MIS@@ 11129
automated 11128
combine 11124
tensions 11123
handed 11121
preserving 11119
25.@@ 11117
remainder 11114
Monterrey 11112
commended 11111
dimensional 11107
UC@@ 11106
swimming 11106
Privy 11104
flying 11103
outbreak 11103
criticism 11102
deferred 11102
pipe 11102
colleague 11101
ute 11101
1968 11099
characters 11098
pan 11096
gradual 11095
Managing 11095
13,@@ 11095
earliest 11094
Hydro@@ 11092
Broad@@ 11092
museums 11090
deterior@@ 11089
apping 11086
actor 11085
ODA 11085
ait 11083
chapters 11083
some@@ 11083
behaviours 11083
credentials 11081
promising 11079
128 11073
verified 11071
Mexican 11071
soils 11070
residual 11064
118 11063
Speaker 11060
CONF.@@ 11059
SG 11056
relocation 11054
mes@@ 11050
dal 11049
deficiency 11048
Printable 11046
rightly 11045
Balkans 11043
advocate 11042
boats 11041
Advanced 11040
RSS 11040
modelling 11039
ital 11038
Lat@@ 11037
py@@ 11036
ety 11035
threatening 11028
augh@@ 11028
Thanks 11028
copper 11027
attainment 11026
Minimum 11026
ro 11025
importantly 11024
taught 11024
cigarettes 11022
Front 11020
costly 11018
Jan@@ 11018
leaf 11017
Hal@@ 11014
murder 11012
Relief 11009
Mont@@ 11007
doesn 11007
T.@@ 11007
CAN 11007
Screening 11006
acet@@ 11005
spot 11004
births 11000
appealed 10997
girl 10995
ceiling 10994
Den@@ 10994
offshore 10994
3,000 10988
dig@@ 10987
asser@@ 10986
Managers 10985
maturity 10982
noon 10981
aining 10981
inner 10980
injection 10978
phy@@ 10975
Inland 10970
fur@@ 10968
insur@@ 10966
centred 10965
icians 10961
eness 10959
arg@@ 10958
argue 10956
ges 10954
bone 10954
disposed 10953
linear 10952
imposing 10951
69@@ 10949
adequacy 10948
None 10941
schedules 10938
stewardship 10936
Enter 10934
Wood 10933
e. 10933
NOT 10929
Sil@@ 10928
tance 10926
bills 10924
Consolidated 10924
Rev@@ 10920
ADM 10920
explanations 10917
healthcare 10916
eved 10914
sun 10914
compound 10913
reduces 10912
owed 10909
Core 10908
Specifically 10906
CPP 10906
Disability 10905
dom 10904
tled 10902
repatriation 10902
ested 10900
strive 10896
Consulting 10895
accelerated 10893
GM 10893
button 10891
reaffirm 10890
Amending 10889
atric 10889
End 10888
Coalition 10888
roughly 10886
Vol@@ 10886
aero@@ 10884
politically 10884
demonstrating 10884
132 10884
desk 10883
enter@@ 10882
Notification 10878
aforementioned 10874
cour@@ 10872
garden 10872
permanently 10871
Firstly 10869
imposition 10868
creativity 10865
lob@@ 10864
retri@@ 10863
ICC 10861
rich@@ 10859
but@@ 10858
rarely 10857
24.@@ 10857
correspond 10854
42@@ 10854
SIS 10853
globally 10852
anis@@ 10851
shareholders 10847
Jacques 10847
5.0 10847
CN.@@ 10846
monitors 10842
Course 10842
shortage 10841
accumulated 10841
elaborate 10835
symbols 10835
Contr@@ 10834
rigorous 10833
discriminate 10828
exporter 10828
Complete 10823
Monaco 10821
Rece@@ 10818
relatives 10814
specialty 10812
modernization 10811
Senator 10810
Durban 10808
Chemicals 10808
curricula 10806
employ 10805
shortcomings 10805
SUB@@ 10804
cultiv@@ 10803
privileges 10801
pling 10798
yn@@ 10794
eping 10794
strains 10793
polar 10790
here@@ 10787
lacking 10784
acknowledges 10784
Portfolio 10780
arises 10779
É@@ 10779
borrow@@ 10778
illustrate 10776
holdings 10775
aming 10772
Mt 10771
ato@@ 10770
Preparedness 10770
7th 10768
diver@@ 10766
4. 10765
Actions 10763
Card 10763
Liaison 10763
appellants 10763
vis@@ 10762
vari@@ 10759
peacebuilding 10759
sulphur 10757
selective 10756
socially 10755
bulletin 10755
vaccines 10754
productions 10754
ona 10751
deposition 10751
essing 10746
Supporting 10745
timber 10745
pil@@ 10743
delete 10743
fore@@ 10742
nucle@@ 10742
diversification 10741
objections 10741
consisted 10739
explo@@ 10737
popul@@ 10736
Refer@@ 10736
incomplete 10735
pornography 10732
asting 10731
Prof@@ 10731
FS 10729
Step 10728
observance 10725
split 10724
frames 10723
Multi 10719
nutrient 10719
Message 10719
apartment 10716
Lin@@ 10715
liver 10713
EE 10712
ham 10711
foregoing 10707
mapping 10701
lar@@ 10699
Target 10699
Very 10698
dor@@ 10698
photographs 10698
Pay@@ 10698
Lab@@ 10697
n.m. 10689
coffee 10688
affiliate 10687
worthy 10686
whilst 10683
settle 10683
promotional 10681
Saskatoon 10680
peti@@ 10672
evalu@@ 10672
ew 10671
ENT@@ 10671
align 10669
umb@@ 10665
20,000 10663
doc@@ 10662
Awareness 10662
Navy 10661
straight 10659
14,@@ 10659
spiritual 10657
Tun@@ 10656
Contacts 10651
TN@@ 10648
unchanged 10646
competitions 10646
geo@@ 10645
rain 10644
Six 10642
6th 10642
79@@ 10642
solving 10640
wireless 10639
acquiring 10638
LAC 10638
trac@@ 10637
mod@@ 10636
foreseen 10636
euro@@ 10633
Appointment 10633
legacy 10632
starts 10630
4.0 10628
trips 10625
designing 10623
Kh@@ 10623
af 10622
ayer 10621
commence 10620
holidays 10619
relied 10618
inadmissible 10617
Sports 10617
Es@@ 10610
Tal@@ 10603
uck 10603
college 10602
facilitates 10600
earn 10599
4.6 10599
refrain 10598
Van 10597
deprivation 10595
atmospheric 10595
investigative 10594
pictures 10592
arly 10591
locate 10591
reveal 10588
Slovak 10588
dam@@ 10584
1960 10583
Info 10581
California 10580
wat@@ 10576
selecting 10573
metric 10566
swi@@ 10565
indic@@ 10565
RRSP 10565
boost 10564
tric 10564
ech 10564
indi@@ 10563
fron@@ 10562
Hon@@ 10559
weigh@@ 10556
514 10554
visitor 10553
informing 10549
nes 10547
Safe 10547
reser@@ 10546
retro@@ 10543
declar@@ 10542
four@@ 10540
Content 10538
Medium 10536
infrastructures 10535
road@@ 10535
Out 10530
ceased 10530
minis@@ 10526
ken 10526
Providing 10525
recept@@ 10525
refin@@ 10522
SBSTA 10522
attain 10520
sim@@ 10520
ior 10520
basin 10520
insert 10519
anywhere 10518
15,@@ 10514
sel 10507
Gra@@ 10506
vi 10506
harbour 10505
genes 10503
confined 10501
Mounted 10501
recognise 10496
Gas@@ 10495
Significant 10495
Lib@@ 10493
ITS 10493
lows 10490
autonomous 10488
intern@@ 10486
Secondary 10486
Workplace 10484
Jamahiriya 10483
quiet 10480
Taiwan 10476
broadcasters 10474
Cur@@ 10471
Inf@@ 10471
than@@ 10470
1.9 10469
alter 10466
stret@@ 10465
meta 10464
Fuel 10462
coupled 10461
WO 10461
Design@@ 10459
ingredient 10456
Colonel 10456
arc@@ 10455
theoretical 10451
chem@@ 10451
hab@@ 10449
fitness 10449
receipts 10448
qui 10448
Jan 10445
Flight 10445
prosecutor 10442
aire 10442
beef 10441
nearby 10440
Handbook 10440
eling 10438
PB@@ 10438
domin@@ 10436
mileage 10435
Throughout 10434
tening 10431
3.7 10426
analy@@ 10424
definitely 10423
decom@@ 10421
EUROPEAN 10421
R.S.C. 10419
VA 10418
accepting 10417
smo@@ 10410
1.3.@@ 10410
Money 10408
133 10406
ND 10406
documentary 10404
bin@@ 10402
impressive 10401
entries 10401
tailored 10400
fic@@ 10399
IOC 10399
Economics 10396
sle@@ 10395
Daniel 10394
Material 10394
m2 10394
det@@ 10393
Clean 10393
twentieth 10390
EST 10390
ey@@ 10389
Reser@@ 10387
TIES 10382
groundwater 10380
refl@@ 10379
harmonisation 10378
ained 10378
Bir@@ 10378
prioriti@@ 10375
cycl@@ 10374
chose 10373
sophisticated 10373
MO 10373
ren 10373
Investig@@ 10373
dow@@ 10372
Inventory 10371
approves 10370
Pan 10369
acids 10368
Work@@ 10368
0.7 10366
celebrate 10363
questioned 10362
Reaffirms 10360
Options 10359
moves 10358
GENERAL 10356
Values 10352
subs@@ 10351
revise 10350
Enhanced 10350
stood 10348
institute 10347
ecti@@ 10344
invo@@ 10342
defenders 10341
simul@@ 10340
positively 10340
Missions 10340
Rob@@ 10339
simplified 10337
DR 10333
streets 10333
exporting 10333
onn@@ 10331
Steel 10328
efs 10328
public@@ 10325
locked 10324
tioning 10324
tox@@ 10324
Initial 10322
DFAIT 10318
Towards 10316
170 10315
altered 10314
1970s 10314
moder@@ 10312
PT 10311
attach 10310
tories 10307
substitu@@ 10306
Basel 10306
bes 10305
ous@@ 10304
119 10304
vegetables 10302
denom@@ 10301
aching 10300
Mechanism 10300
succeeded 10298
Destination 10298
commun@@ 10297
specification 10296
eradicate 10293
fires 10293
pin@@ 10292
Nice 10290
fare 10290
prop@@ 10287
129 10285
210 10285
contributor 10284
streams 10282
bi 10280
activation 10280
ALL 10279
SSHRC 10276
stig@@ 10275
pression 10274
techn@@ 10274
fly 10273
affir@@ 10272
Emissions 10272
ground@@ 10271
warranted 10268
oted 10267
W.@@ 10265
bil@@ 10264
ogen@@ 10264
Independence 10264
OM 10264
User 10264
Approximately 10262
referral 10261
Baltic 10261
Paragraphs 10260
ora 10258
mot@@ 10255
church 10254
Visit 10254
mouth 10253
opi@@ 10253
Bra@@ 10251
tendency 10247
summits 10247
á 10247
Percentage 10245
ca@@ 10244
Direc@@ 10244
presently 10243
bis@@ 10242
compilation 10233
gets 10229
insul@@ 10228
IE 10227
Recognition 10226
veness 10223
Ban 10221
Kyrgyzstan 10220
pris@@ 10218
rd 10215
chemistry 10215
ody 10214
Sahara 10213
ull 10212
141 10212
nets 10208
biom@@ 10207
dangers 10203
Improved 10198
erg@@ 10198
freshwater 10197
Ce@@ 10195
Summer 10195
Arbitration 10194
hair 10193
itable 10192
lap@@ 10191
ppm 10191
Hearing 10189
957 10189
thir@@ 10184
gh 10184
eating 10182
902 10180
tissues 10179
PP@@ 10179
rejection 10177
auc@@ 10176
comprehen@@ 10174
itate 10173
evolved 10170
IV@@ 10170
sect 10165
Aspects 10160
bec@@ 10159
cattle 10158
benchmarks 10149
ors@@ 10147
not@@ 10146
cessation 10145
hire 10144
ATED 10144
eled 10143
din@@ 10142
foli@@ 10142
racist 10141
nice 10137
headings 10136
Scott 10136
ishes 10132
dium 10130
commission@@ 10128
uli@@ 10128
preferences 10128
charitable 10124
expe@@ 10123
doses 10122
1949 10120
coll@@ 10118
ware 10118
Evalu@@ 10118
physically 10115
Multi@@ 10114
assurances 10111
intercultural 10111
Approved 10108
Brown 10107
policing 10105
Goal 10105
Outcomes 10105
succession 10103
hospitality 10103
Americans 10098
SPEC@@ 10098
Fil@@ 10097
expects 10094
purely 10092
seal 10092
tles 10092
labels 10092
deadlines 10089
PART 10089
listen 10088
govern 10087
fe 10085
ome@@ 10085
temp@@ 10079
Storage 10079
coordinators 10077
Cases 10077
transported 10072
suspect 10068
unusual 10068
herein 10067
Cuban 10065
denial 10065
inability 10061
morph@@ 10060
sediment 10059
anian 10058
Programming 10056
Campaign 10055
step@@ 10052
religions 10047
lodged 10042
archives 10041
98@@ 10041
rot@@ 10038
FOR@@ 10036
collaborate 10035
wet 10033
draws 10032
meals 10032
Example 10032
taxpayers 10030
disaggregated 10030
aying 10029
translate 10026
10th 10026
Illicit 10026
bet@@ 10023
cript 10023
beam 10022
ema 10022
ancient 10021
Cou@@ 10020
doping 10020
plasma 10020
ble@@ 10009
ECA 10007
ANT 10006
counted 10005
convey 10005
terminology 10004
63@@ 10004
tremendous 10003
Ret@@ 9996
proteins 9994
Tom@@ 9992
bat@@ 9986
RE 9983
educated 9982
happening 9980
plo@@ 9980
Mad@@ 9978
urr@@ 9977
Nov@@ 9975
convenient 9972
Topic 9972
itory 9970
unpaid 9970
nutritional 9970
condemned 9966
cons@@ 9958
muscle 9952
Devices 9952
sit 9951
Acknowledg@@ 9951
bad@@ 9949
entrance 9948
Transition 9948
intense 9947
TELUS 9946
determinants 9943
cataly@@ 9942
administrations 9940
sho@@ 9940
outdoor 9938
ker@@ 9937
filter 9936
ato 9935
90@@ 9934
decree 9933
everyday 9932
Pilot 9932
accoun@@ 9929
divide 9926
Laws 9924
Organic 9923
ranking 9922
MHz 9921
HRDC 9921
uri@@ 9920
Paraguay 9919
157 9919
TN 9919
chloro@@ 9918
Years 9913
medication 9912
Disaster 9912
Processing 9908
clean@@ 9906
182 9906
Potential 9903
Mari@@ 9902
PUBLIC 9901
Bil@@ 9900
ket 9898
1969 9896
Bearing 9895
successes 9894
vous 9893
ME 9891
riding 9888
FROM 9888
Considering 9887
Higher 9887
NA 9887
Tan@@ 9883
photos 9883
reaffirms 9882
rad@@ 9880
Short 9877
voluntarily 9874
combatants 9873
initiation 9872
fulfill 9869
Logistics 9869
odi@@ 9865
Punishment 9865
united 9863
je 9860
DB 9855
Cour@@ 9855
alongside 9853
caught 9852
220 9852
catalogue 9849
indicative 9848
backs 9845
Courts 9845
0.4 9845
prob@@ 9843
Pot@@ 9843
Hand@@ 9842
Arti@@ 9841
foremost 9837
distributors 9829
esses 9827
Kin@@ 9827
Banks 9826
assignments 9825
economics 9822
Cir@@ 9819
disman@@ 9818
Dr 9817
Applicant 9816
ades 9815
inated 9814
Emirates 9814
OC 9811
questionnaires 9809
Findings 9808
nom@@ 9806
ho 9806
endorse 9802
boxes 9802
Bahrain 9800
WEU 9799
Express 9799
elaborated 9798
sexually 9798
synergies 9796
aria 9796
sion@@ 9795
Directives 9794
REPORT 9793
Subdivision 9793
lays 9792
adher@@ 9792
particles 9791
excise 9790
Alternate 9789
MAN@@ 9787
Albert 9786
UNRWA 9785
c.@@ 9783
lit@@ 9781
winning 9779
crip@@ 9778
Gross 9778
confirms 9776
ación 9775
126 9774
enrolled 9774
ope 9773
STR@@ 9773
Statutory 9772
coin@@ 9769
stopped 9767
unreasonable 9765
predicted 9764
cultivation 9763
esa 9761
corn 9761
Chairs 9761
aug@@ 9760
000@@ 9760
reportedly 9758
ASE 9757
commented 9755
fallen 9754
donations 9754
Provinces 9754
essence 9751
assault 9750
bars 9748
.3 9748
yearly 9747
attempting 9738
loaded 9736
ón 9732
shorter 9732
innocent 9732
Iv@@ 9732
Hazardous 9732
Poly@@ 9732
Edition 9732
TB@@ 9731
eph@@ 9727
All@@ 9727
Sexual 9727
scop@@ 9721
differently 9719
immune 9719
SL@@ 9719
eco 9713
troph@@ 9712
suited 9707
Families 9706
isting 9705
ound@@ 9705
kit 9705
didn 9704
1.15 9699
defendant 9698
conceptual 9697
FF 9692
Subsequently 9691
rog@@ 9687
Far@@ 9685
esis 9685
contradic@@ 9683
vs. 9682
97@@ 9680
reat 9678
grand@@ 9677
permitting 9676
Barbados 9676
Aff@@ 9671
Career 9670
minerals 9669
emerge 9668
finances 9667
periodically 9666
Size 9666
amb@@ 9664
bing 9663
d. 9663
Plenary 9661
euros 9660
manages 9659
philosophy 9656
conferred 9655
punished 9655
Carri@@ 9654
hatred 9654
8.1 9653
Networks 9651
tum@@ 9651
shops 9649
preserved 9645
136 9644
ICTs 9644
allo@@ 9640
WG.@@ 9638
harvesting 9633
84@@ 9633
Leg@@ 9632
variability 9629
pure 9628
burn 9628
ASS@@ 9627
Freedoms 9625
optical 9624
nat@@ 9623
turnover 9623
Method 9623
synthetic 9622
50,000 9622
INTERNATIONAL 9621
Finnish 9620
surveyed 9620
Kingston 9620
platforms 9619
suspend 9619
affiliated 9618
gram 9618
scales 9617
examines 9617
.pdf 9611
assuming 9609
ord 9609
Compl@@ 9608
Upper 9607
Sou@@ 9605
torate 9602
rig@@ 9602
Existing 9602
destroy 9601
quar@@ 9600
RM@@ 9599
investor 9598
notwithstanding 9598
ROM 9597
decent 9593
Promote 9593
Gatineau 9593
detec@@ 9591
UND@@ 9591
matic 9590
jurisprudence 9587
sty@@ 9587
focussed 9586
dispos@@ 9585
residing 9584
Points 9581
nd 9580
UNIFEM 9579
prot@@ 9576
Madagascar 9576
cab@@ 9575
CONT@@ 9575
activated 9574
differential 9574
recruiting 9573
fiable 9566
lining 9565
76@@ 9563
stic 9561
wastewater 9561
intentions 9558
175 9558
inspired 9557
restored 9556
UNM@@ 9554
Nonetheless 9553
Jewish 9551
suitability 9550
interpret 9548
José 9547
consumed 9545
comparisons 9545
mo 9544
fate 9540
tragic 9540
134 9539
Commitment 9539
foot@@ 9538
Stre@@ 9534
Ann@@ 9532
flav@@ 9531
Accommodation 9530
pain@@ 9529
Stat@@ 9522
thetic 9517
alled 9515
empowered 9515
punishable 9514
Thirty 9514
Bush 9513
tuberculosis 9512
DU 9511
centuries 9510
wheelchair 9509
Francophonie 9508
dedication 9507
fragile 9506
Duration 9504
mur@@ 9503
ility 9502
Programmes 9502
ow 9502
TM@@ 9502
BP 9500
Counsellor 9499
vent 9498
legi@@ 9497
penal 9497
Fair 9495
Definitions 9494
witnessed 9493
tigh@@ 9493
SUMMARY 9493
NL 9492
Historical 9492
decreasing 9489
16,@@ 9489
enders 9488
overtime 9486
BE@@ 9482
SBI 9481
aints 9480
alien 9480
onia 9478
enters 9477
dramatically 9474
founding 9470
tours 9470
Maria 9467
jum@@ 9467
remo@@ 9466
83@@ 9465
Modern 9464
ura 9464
ais 9464
145 9464
anes 9463
cents 9463
ious 9462
transmit@@ 9462
Basin 9461
safeguarding 9460
OD 9459
EESC 9459
Pin@@ 9453
alike 9451
ries 9449
5.00 9449
cip@@ 9448
inventories 9447
dark 9446
Option 9446
wholly 9445
retailers 9441
fed 9439
Adobe 9439
dic 9437
Perhaps 9434
neg@@ 9433
Views 9433
talent 9431
entertainment 9431
UST 9427
G.@@ 9427
Medic@@ 9426
Explorer 9424
IO@@ 9422
rac@@ 9422
smuggling 9422
oma 9421
abolition 9419
institution@@ 9419
accepts 9415
kindly 9414
mill 9413
compensate 9412
Accession 9410
appearing 9409
specifies 9409
ali 9409
prospective 9404
Eco@@ 9403
attained 9403
Sar@@ 9403
need@@ 9401
chair@@ 9400
oli@@ 9399
inary 9398
Strip 9395
Cu@@ 9392
je@@ 9391
loo@@ 9390
undoubtedly 9387
RFP 9386
wal@@ 9383
Mines 9382
shell 9381
encumbered 9381
multinational 9378
tia 9377
illustrates 9373
CPC 9372
dit@@ 9371
managerial 9370
149 9368
eas@@ 9367
tively 9366
nominal 9365
tied 9363
stake 9363
clubs 9362
WITH 9359
slight 9358
formulating 9356
26.@@ 9356
Comment 9355
li 9352
CAP@@ 9351
ratios 9349
lier 9349
eco@@ 9349
buying 9348
Drive 9348
aint 9346
Liberal 9346
eat 9345
logistical 9344
intervals 9339
disrup@@ 9339
ily 9337
UNOPS 9337
entail 9335
Pers@@ 9335
Catholic 9334
steadily 9334
merger 9333
supposed 9333
HRC 9333
postpon@@ 9332
tens 9332
Fire 9330
veterinary 9328
2.9 9327
cide 9326
Complaints 9326
Associations 9325
path@@ 9325
tal@@ 9324
dance 9321
slavery 9320
clusters 9320
incremental 9320
Maximum 9319
struck 9318
Better 9318
win@@ 9318
Serious 9316
MP@@ 9316
MENTS 9316
Challenge 9314
budgeting 9313
24,@@ 9312
23.@@ 9311
Deposit 9310
constr@@ 9308
fusion 9308
cod 9308
Stresses 9308
tribunals 9307
counterfe@@ 9306
lifetime 9306
ups 9304
sensiti@@ 9303
Need 9302
rough 9302
Dam@@ 9296
auditors 9295
Sl@@ 9295
rolling 9294
biology 9292
yellow 9291
administrators 9291
Equ@@ 9289
Squadron 9287
toral 9286
Woods 9282
static 9282
HE@@ 9282
seas 9278
Solidarity 9278
NATIONAL 9278
ges@@ 9276
Pu@@ 9276
ication 9275
solar 9271
corner 9269
FP 9268
Chair@@ 9267
ef 9265
ante 9264
rej@@ 9264
Similar 9264
wan@@ 9261
axis 9258
sodium 9258
Ukrainian 9257
margins 9256
judgments 9255
Welcome 9255
ive 9254
reaches 9253
inmates 9253
consci@@ 9250
Ev@@ 9250
Rental 9249
push 9247
deletion 9244
disseminated 9243
Hungarian 9242
recruit 9239
classi@@ 9237
202 9237
assign@@ 9236
tran@@ 9235
Eligible 9232
asses 9231
refined 9229
fraction 9228
Testing 9227
rup@@ 9226
0.0@@ 9226
DU@@ 9225
151 9224
CCA 9223
safer 9222
nearest 9222
gy@@ 9222
lig@@ 9222
litigation 9221
9th 9221
pic 9219
rear 9218
Failure 9217
TM 9217
Referees 9217
dat@@ 9214
Holy 9213
charging 9212
ONS 9207
genital 9204
hostilities 9203
aks 9202
ange 9201
4.7 9200
NB 9200
fire@@ 9199
holistic 9199
proximity 9198
honourable 9197
credited 9197
zen 9196
orship 9194
commend 9193
delegate 9193
compliant 9191
bling 9190
Thirdly 9188
153 9188
exploit 9185
360 9184
ishment 9183
Star 9182
Boards 9182
ench@@ 9181
choosing 9180
inher@@ 9179
view@@ 9178
Angl@@ 9175
conciliation 9173
prec@@ 9172
perceptions 9171
ather@@ 9169
sand@@ 9169
analyze 9168
eline 9166
eland 9164
Factors 9164
Guest 9163
deny 9161
Ty@@ 9161
awa 9159
hectares 9156
3.8 9149
Cold 9149
subsistence 9146
Nation@@ 9146
Faculty 9146
ACE 9145
chamber 9144
olu@@ 9144
Go 9144
particulate 9144
unified 9143
dges 9143
portal 9143
simplify 9142
Hospitality 9142
Motor 9140
Camp@@ 9140
ights 9139
sharp 9138
ota 9136
guards 9135
ential 9134
Active 9132
escape 9131
Ongoing 9131
HQ 9131
bun@@ 9124
hist@@ 9123
OT@@ 9120
benchmark 9119
colleges 9118
FORM@@ 9118
coordinates 9117
researcher 9117
Officials 9116
inequalities 9113
slow@@ 9111
MI 9111
viol@@ 9110
migratory 9109
155 9108
ni 9108
congratul@@ 9107
radical 9103
FCCC 9103
Collective 9097
checking 9096
ania 9096
Na@@ 9095
bath@@ 9095
ement@@ 9094
ICAL 9093
Coll@@ 9089
Uses 9084
Feedback 9083
linkage 9080
Norwegian 9079
bly 9078
justi@@ 9077
random 9077
financially 9076
Mand@@ 9075
ycle 9074
01@@ 9071
aving 9069
duce 9069
icious 9068
program@@ 9066
diamonds 9064
oured 9063
adhere 9062
Genetic 9062
mini 9061
downstream 9059
Facts 9058
II.@@ 9058
142 9057
Ly@@ 9057
a.m.-1 9056
guard 9055
illing 9054
ESA 9054
seller 9053
overlap 9052
cribed 9052
deductions 9052
let@@ 9050
acquis 9049
dumped 9046
Prec@@ 9046
fertility 9046
Dangerous 9044
contributors 9044
commencing 9044
ICA 9044
int 9040
Expresses 9039
Grade 9039
materi@@ 9037
ARD 9034
Togo 9034
Soci@@ 9033
oblig@@ 9033
unclear 9033
cs 9033
Pass@@ 9032
Bridge 9029
measurable 9027
137 9025
Sym@@ 9025
ven 9024
prohibiting 9022
receivable 9022
desertification 9017
migr@@ 9017
WA 9017
threaten 9016
Accord 9014
aine 9014
McGill 9009
wonderful 9008
rh@@ 9005
supplemented 9004
Canal 9004
aly@@ 9002
Context 9002
Organ@@ 8998
NA@@ 8997
absent 8995
78@@ 8994
inserted 8993
5.6 8993
gal@@ 8990
XI 8990
Rates 8990
eval 8989
mit@@ 8989
ea 8988
aya 8988
Send 8987
tives 8986
broad@@ 8986
prolonged 8984
Nu@@ 8984
communicating 8983
ranks 8981
190 8980
165 8980
tenure 8980
306 8980
eme@@ 8979
Continue 8976
aves 8975
fluid 8974
Aligned 8973
aun@@ 8972
fish@@ 8972
CBC 8972
precipitation 8971
Stu@@ 8971
conducts 8971
theast 8970
Coordinating 8968
cotton 8966
Conver@@ 8965
Mobile 8964
0.6 8963
Which 8962
chloride 8961
herself 8959
fa 8958
harmonize 8958
surfaces 8956
eral 8955
chairman 8954
contracted 8954
TRADE 8954
traff@@ 8953
stabilization 8952
variance 8951
neighbourhood 8950
Fishing 8949
ading 8949
Il@@ 8945
clo@@ 8945
attachment 8941
ense 8938
eur 8938
CU@@ 8938
privilege 8937
Aircraft 8937
zy@@ 8936
Rescue 8935
docs 8935
derog@@ 8933
ascertain 8930
afforded 8930
denti@@ 8929
experiment 8928
compu@@ 8925
explaining 8923
mailing 8923
reat@@ 8923
well@@ 8920
donation 8920
′ 8918
Arch@@ 8917
XX 8917
reader 8916
importing 8914
attributes 8913
fers 8912
Units 8910
utilize 8909
ASEAN 8908
centr@@ 8906
planet 8906
deducted 8906
nec@@ 8906
Vit@@ 8902
abo@@ 8901
servic@@ 8901
sively 8900
Investments 8900
8th 8899
27.@@ 8899
sin 8898
factory 8898
OHIM 8896
gaining 8893
marginalized 8891
color 8890
Identify 8884
MC@@ 8883
bathroom 8877
depl@@ 8875
ght 8875
benz@@ 8875
pay@@ 8874
hepatitis 8874
Auth@@ 8874
underground 8873
1961 8873
ament 8871
CAT 8866
extraction 8865
Claude 8865
Instrument 8865
perfectly 8864
deploy 8863
marginal 8862
pairs 8862
Diversification 8858
resumption 8857
personality 8856
auditor 8856
ethanol 8856
AK@@ 8853
shaped 8852
viruses 8851
Mol@@ 8851
siding 8851
iso@@ 8848
Facilit@@ 8847
newsletter 8846
vin@@ 8845
unded 8844
tum 8843
etal 8843
ticket 8842
MR@@ 8838
erally 8837
Sheet 8837
ffs 8836
differenti@@ 8833
152 8832
oms 8832
Brazilian 8831
clearing 8830
rests 8829
cap 8829
aggrav@@ 8825
genic 8824
gravity 8823
MANAGEMENT 8823
Add.2 8823
educ@@ 8820
dging 8819
Georgian 8818
unauthorized 8816
cot@@ 8815
undergo 8814
signi@@ 8814
166 8813
manifestations 8812
Eurostat 8811
rotation 8809
ductions 8809
extrabudgetary 8809
8.5 8807
Animal 8807
wire 8804
Suppression 8803
fun 8801
Minorities 8796
advis@@ 8796
withdra@@ 8795
sibility 8794
Judges 8793
correlation 8793
drawings 8793
lum 8792
sulph@@ 8792
Pel@@ 8790
Set 8789
tak@@ 8788
Unemployment 8787
culturally 8785
mar 8785
cum@@ 8785
Theatre 8784
doctrine 8782
corresponds 8782
ax 8782
Nor 8780
SM 8780
Clearly 8779
vit@@ 8777
harmony 8777
lifestyle 8775
vir@@ 8770
COMMITTEE 8770
scre@@ 8768
Nat@@ 8768
knowing 8767
assistant 8765
severity 8765
proceeded 8765
tations 8762
alis@@ 8761
Word 8761
accomplish 8759
main@@ 8757
Less 8757
EN.doc 8755
gran@@ 8754
Draf@@ 8754
carcin@@ 8749
slowly 8748
contingency 8747
Lead 8747
lear@@ 8746
Turkmenistan 8746
multidisciplinary 8742
predict 8741
registrant 8741
inst@@ 8737
Vacc@@ 8736
initi@@ 8735
accord 8734
deser@@ 8734
131 8734
Codes 8733
Includes 8732
Plus 8731
230 8731
Again 8730
kitchen 8730
aggressive 8729
Abuse 8729
clearer 8724
computing 8724
ran 8722
cent@@ 8722
146 8720
Botswana 8719
tax@@ 8718
introductory 8718
Malawi 8718
Az@@ 8717
urs 8717
Niger 8717
Entry 8715
01.@@ 8712
rolled 8711
pride 8710
worth@@ 8707
builds 8707
eption 8707
22.@@ 8706
terminate 8705
Exercise 8705
influences 8704
Sun 8703
tain@@ 8702
tends 8700
venue 8699
oration 8698
Tab@@ 8698
directory 8692
factual 8691
P.O. 8691
LS 8686
Laurier 8686
gifts 8685
UNAIDS 8685
custom 8684
WFP 8684
Vehicles 8679
acked 8677
Lim@@ 8675
olds 8675
Compet@@ 8673
Initi@@ 8671
prey 8670
impetus 8669
Addendum 8669
tac@@ 8667
17,@@ 8667
Select 8666
Violations 8665
complying 8664
hot@@ 8661
impl@@ 8660
pick 8659
civic 8657
artificial 8653
aches 8653
139 8652
Loans 8649
sponsorship 8648
executives 8647
extr@@ 8646
interact 8645
MOU 8645
acqu@@ 8644
react 8644
nings 8644
Determin@@ 8644
ques 8643
issu@@ 8643
Victims 8640
flow@@ 8637
Prosecution 8637
H.@@ 8635
validated 8632
HP 8631
mos@@ 8630
stein 8629
Eth@@ 8628
subregion 8627
switch 8626
instrumental 8626
fibre 8626
feder@@ 8623
Enterprises 8623
Socialist 8622
colours 8622
ARE 8622
harmon@@ 8620
fault 8618
Ash@@ 8618
yields 8617
guar@@ 8616
warming 8616
ceasefire 8616
currencies 8615
educate 8615
irregular 8615
drink 8613
transformed 8612
rel 8612
stringent 8611
wash@@ 8610
226 8610
tow@@ 8610
protects 8608
accumul@@ 8608
ram@@ 8607
ranged 8605
INE 8601
Speakers 8599
ibid 8597
disappearance 8596
sided 8595
preferential 8595
survive 8595
ORS 8591
7.4 8589
autumn 8588
home@@ 8588
Weather 8584
navig@@ 8583
ady 8582
Arrangements 8582
ri 8581
conscience 8578
00,000 8577
Web@@ 8577
500,000 8576
enzyme 8575
pes 8574
executions 8572
globalisation 8571
tracks 8571
PCBs 8570
usefulness 8569
Amend 8568
transform 8566
recreation 8564
resi@@ 8564
replied 8563
transferring 8563
extensively 8563
impartiality 8562
Village 8556
GL@@ 8556
critic@@ 8554
shifts 8554
termin@@ 8553
COUN@@ 8551
Desk 8549
ira 8548
Likewise 8546
Haz@@ 8546
itor 8544
DM@@ 8544
Windsor 8543
Pap@@ 8542
eing 8542
Ki@@ 8542
UNITAR 8542
emental 8541
mice 8540
ocy@@ 8539
roll@@ 8538
explosives 8538
icide 8537
74@@ 8537
patch 8536
liberalisation 8535
storm 8534
epi@@ 8529
survi@@ 8526
packaged 8526
Termin@@ 8526
144 8524
Remo@@ 8524
Moncton 8524
ello 8522
Establish 8522
Lou@@ 8521
sustaining 8518
substanti@@ 8517
Meanwhile 8516
Fall 8514
Targ@@ 8511
doubts 8510
debts 8510
circle 8508
airline 8508
Councils 8507
tail 8507
ae@@ 8505
lo 8504
Instructions 8504
simplification 8503
expectation 8502
olog@@ 8502
scienti@@ 8501
Mauritania 8501
zations 8500
spir@@ 8499
Revenues 8499
zers 8498
grid 8497
combining 8495
Tre@@ 8495
tended 8494
que@@ 8492
fossil 8489
169 8488
ranked 8488
rap 8487
successive 8485
politan 8485
ANNEX 8484
wheel 8483
VIA 8483
losing 8481
Prize 8478
rob@@ 8477
portions 8477
cy 8475
schooling 8474
Fiji 8474
lers 8471
spare 8469
aggreg@@ 8469
Cher@@ 8466
Tower 8465
rupt 8464
prosecute 8463
Appropriations 8463
Proceedings 8460
Contracts 8460
chains 8458
shed 8457
trustee 8457
CFB 8456
gasoline 8453
absorption 8452
TU@@ 8452
insp@@ 8451
pollu@@ 8450
Forestry 8450
18,@@ 8450
circular 8447
sy 8445
NEW 8443
α 8443
fifteen 8442
operatives 8442
keys 8442
ministry 8441
alo@@ 8440
adolescent 8440
MD@@ 8439
organise 8438
spheres 8437
Puerto 8437
condi@@ 8436
Minutes 8433
IPCC 8433
videos 8433
legality 8432
cere@@ 8429
arose 8427
gi 8426
nutrients 8425
nonetheless 8424
exploited 8424
dur@@ 8420
Mackenzie 8420
Alzheimer 8418
depression 8418
Sel@@ 8417
pt 8416
opens 8413
allies 8412
Except 8411
isolates 8411
elev@@ 8410
edly 8409
COUNCIL 8408
Civilian 8407
Men@@ 8406
LY 8406
repe@@ 8404
8.3 8404
Apart 8403
prospect 8403
0.8 8403
consular 8403
meantime 8402
requisite 8402
highlighting 8402
arities 8402
DA@@ 8402
arb@@ 8401
deliberate 8399
precision 8398
inception 8398
Cash 8397
73@@ 8395
270 8393
FIN@@ 8392
235 8391
clinics 8391
mers 8391
ao 8388
Hi@@ 8386
Nar@@ 8386
caution 8385
ABLE 8384
Frequently 8383
abstentions 8381
thal@@ 8381
tickets 8380
continually 8378
uncertain 8377
mathem@@ 8373
day@@ 8373
Pop@@ 8373
Located 8372
applicability 8370
alle@@ 8369
C6 8368
fi 8367
wise 8366
connecting 8364
ethylene 8364
dar@@ 8363
precautionary 8362
high@@ 8360
fici@@ 8358
TRIPS 8357
Rad@@ 8355
ust@@ 8355
thoroughly 8353
immun@@ 8353
anne 8353
everywhere 8351
assign 8347
safely 8344
treating 8344
browser 8342
mil@@ 8340
Channel 8339
002 8338
Dispute 8338
Tou@@ 8337
methyl@@ 8336
tably 8334
arization 8334
Jac@@ 8333
glob@@ 8332
matrix 8332
BI@@ 8332
attracting 8329
allot@@ 8329
ava 8327
reveals 8324
contraven@@ 8324
retired 8324
bridges 8323
vendor 8323
reimbur@@ 8323
MH@@ 8323
truck 8322
potenti@@ 8322
disadvantage 8318
tionary 8317
PB 8317
diligence 8315
oils 8315
comparing 8314
interfere 8313
Forecast 8313
Four@@ 8312
ente 8311
Facsimile 8311
approvals 8309
infants 8307
Bad@@ 8307
corrigendum 8307
172 8306
Tam@@ 8305
alls 8304
Footnote 8304
advisers 8302
committing 8302
Being 8301
continu@@ 8300
endeavours 8298
relies 8297
Som@@ 8294
correctional 8294
93@@ 8293
hur@@ 8291
colonial 8291
landlocked 8289
CAS 8289
proponent 8287
ñ@@ 8285
thy 8284
recover@@ 8284
ign 8284
Watch 8283
eman@@ 8282
Municipality 8282
snow@@ 8280
alleviate 8278
endorsement 8277
grievance 8277
ived 8276
225 8275
Waters 8275
Encyclopedia 8274
pin 8271
resh@@ 8271
Almost 8270
fines 8269
ignored 8268
emo@@ 8267
enum@@ 8266
repairs 8265
1951 8265
invoked 8263
t. 8263
lung 8262
exhibitions 8260
AE 8260
expiration 8260
LT 8258
neglect 8254
terrace 8254
adapting 8251
instituted 8251
landing 8251
ec.gc.ca 8250
anded 8249
Contribu@@ 8249
ele 8248
Success 8247
exhibits 8246
diplom@@ 8245
announcements 8244
wars 8244
Congolese 8244
Creation 8243
ont 8242
LD 8242
diversion 8241
misleading 8240
displays 8239
sto@@ 8238
renew@@ 8236
wrong@@ 8236
lights 8233
Elec@@ 8232
problematic 8231
tend@@ 8229
engineers 8229
otes 8228
royalties 8228
CES 8226
emor@@ 8225
precedence 8223
Captain 8223
exciting 8220
rational 8220
burning 8219
shelf 8219
taste 8218
teach 8216
EB@@ 8216
ola 8214
hau@@ 8214
registr@@ 8214
Ou@@ 8213
RES 8210
moreover 8207
chro@@ 8206
regrets 8204
tru@@ 8204
cuisine 8204
disseminating 8203
calcium 8203
Representation 8203
ALS 8203
dation 8202
Researchers 8198
vacancies 8197
intra 8195
Memorial 8195
Duty 8191
poultry 8190
Respect 8189
missile 8188
apartments 8187
sted 8183
careers 8182
II@@ 8180
agu@@ 8178
Hum@@ 8178
classroom 8177
Sand@@ 8175
Membership 8175
integr@@ 8174
4.8 8174
ied 8173
windows 8172
concert 8171
prerequisite 8170
opath@@ 8169
mits 8168
Oper@@ 8168
descent 8168
upheld 8167
gic 8162
gol@@ 8162
abortion 8162
Beg@@ 8162
uranium 8161
APPENDIX 8161
generous 8160
principally 8158
Tour 8158
positioned 8158
flo@@ 8157
feels 8156
Whereas 8156
assists 8154
meth@@ 8153
240 8152
SARS 8151
Spo@@ 8149
Petroleum 8147
passes 8146
HOME 8144
EF 8143
amph@@ 8142
vacancy 8142
violate 8140
signatures 8138
pli@@ 8137
amin@@ 8136
dian 8133
pleasant 8127
■ 8127
Implementing 8126
operation@@ 8126
Signature 8124
Sc@@ 8122
pped 8120
dence 8120
oles@@ 8120
9.2 8119
403 8119
lengthy 8118
Bab@@ 8118
Perc@@ 8118
ACK@@ 8118
ining 8117
otro@@ 8116
Kur@@ 8115
SG@@ 8115
AIN 8115
hex@@ 8114
depic@@ 8113
SB@@ 8113
expired 8112
POR@@ 8112
obesity 8111
remin@@ 8110
photo@@ 8108
Determination 8107
Mid@@ 8106
Person 8106
reti@@ 8104
Breakfast 8102
dismissal 8101
95@@ 8100
practicable 8095
cri@@ 8094
954 8094
endangered 8093
Spe@@ 8089
1,0@@ 8089
timately 8088
fri@@ 8087
divorce 8086
hospit@@ 8085
Allowance 8084
marketed 8083
slip 8082
solvent 8078
py 8078
appointing 8077
infr@@ 8075
Pil@@ 8075
Harmonization 8074
CB 8073
six@@ 8072
tackling 8069
participates 8069
Leave 8069
Disposal 8066
weighted 8065
25,000 8065
EDC 8064
alis 8063
sponsoring 8062
O.@@ 8060
avo@@ 8059
finish 8059
1966 8057
Judgment 8056
readers 8056
780 8056
train@@ 8055
ambient 8055
Kir@@ 8055
template 8055
quit@@ 8054
motivation 8054
fam@@ 8054
cen@@ 8053
predominantly 8050
ologic 8049
entitlements 8047
PCB 8044
Besides 8042
4,000 8041
negatively 8040
n.f. 8040
&apos;affaires 8039
Islam 8038
HMCS 8037
Liber@@ 8036
Psych@@ 8036
courage 8035
Gold 8035
Ky@@ 8034
Debt 8033
regulators 8032
Rehabilitation 8032
collapse 8031
revi@@ 8031
156 8029
Verification 8028
Chargé 8028
eu 8027
Budapest 8026
notable 8025
9.1 8025
necess@@ 8024
bert 8023
beauty 8021
breaches 8021
Pun@@ 8021
cong@@ 8019
competences 8018
Forty 8018
phased 8017
.asp 8017
faculty 8016
outlook 8015
efully 8011
contexts 8010
506 8010
arbitral 8010
matching 8009
Biotechnology 8009
SN@@ 8009
publishers 8008
147 8005
boarding 8005
achi@@ 8004
TAR@@ 8003
entails 8001
een 8001
shower 8001
earmarked 8000
una 7999
retaining 7996
revolution 7996
etc. 7996
Kb 7996
backgrounds 7995
bud@@ 7995
Albanian 7994
successor 7994
promises 7992
Cop@@ 7992
191 7991
enth 7986
REGUL@@ 7986
fluctuations 7985
deserve 7984
coding 7984
Responsibilities 7984
ometric 7982
Component 7982
subsidiarity 7981
purchaser 7981
incorrect 7979
supra 7978
aul@@ 7977
communic@@ 7976
definitive 7973
ki@@ 7972
cellular 7971
seconds 7970
plur@@ 7969
grass@@ 7967
Figures 7967
supervisors 7966
dairy 7964
laun@@ 7964
concentr@@ 7963
Principle 7963
PSEA 7963
rice 7961
interpreters 7960
clim@@ 7960
19,@@ 7960
UNI@@ 7959
ﬂ@@ 7959
methodological 7958
Bat@@ 7958
Falls 7958
asive 7957
Mir@@ 7957
interpretations 7956
Marshall 7956
tot@@ 7954
CM 7953
aut@@ 7952
Fac@@ 7951
symp@@ 7951
cotics 7949
www.idrc.ca 7949
pledged 7948
recommending 7947
Needs 7946
prevents 7945
OL 7945
888 7943
Johnson 7942
roc@@ 7941
debris 7941
Investigations 7941
enjoys 7938
trademarks 7938
Ensuring 7937
mountains 7933
alter@@ 7933
alise 7932
brake 7932
buyers 7932
pack@@ 7932
trains 7932
quoted 7930
Christ 7930
disorder 7929
genetically 7928
bene@@ 7927
jeopardi@@ 7925
unlike 7924
econom@@ 7923
qualities 7923
pilots 7923
Satellite 7923
Spectrum 7922
Eigh@@ 7921
fertili@@ 7921
onate 7920
complainants 7920
benefiting 7919
contest 7918
Djibouti 7917
architectural 7917
Resident 7917
tropical 7916
Proc@@ 7911
liberal 7909
outlining 7908
205 7908
mile 7907
band@@ 7907
admissible 7906
Marc 7906
Little 7905
mentally 7905
Alexander 7904
tling 7903
behavioural 7902
1958 7901
Dar@@ 7900
Endangered 7899
Fal@@ 7898
terrestrial 7896
arriving 7895
consuming 7894
Annexes 7892
cam@@ 7892
behavior 7891
DING 7891
Palais 7890
feelings 7889
estimation 7887
248 7886
Comparison 7885
Exclu@@ 7884
geared 7883
mise 7882
grouped 7882
suppression 7878
chron@@ 7878
FN 7876
PROCE@@ 7876
Clerk 7875
Christmas 7874
Aquaculture 7874
certi@@ 7874
Narcotic 7874
Trinidad 7873
Host 7873
Century 7872
tis@@ 7872
evolve 7871
sses 7870
Unity 7870
yn 7869
Jim 7869
Past 7867
freeze 7866
inviting 7865
unanimous 7862
mills 7862
ingual 7862
volunte@@ 7861
reorganization 7861
tape 7860
avec 7860
auditing 7859
CRP.@@ 7858
Restaurant 7854
Lar@@ 7853
20,@@ 7853
oes 7852
aster 7850
batteries 7849
elementary 7848
Revision 7848
Disabled 7847
trad@@ 7847
tech 7845
acceded 7845
BU@@ 7845
fibres 7844
battery 7844
ilization 7844
Powers 7843
Partner 7843
tourists 7842
impaired 7841
ek@@ 7841
Douglas 7839
sanitary 7838
Bruce 7837
fix 7836
accompany 7832
POS@@ 7832
technically 7831
striking 7831
predecessor 7828
Pack@@ 7828
cancel 7828
pione@@ 7824
charts 7823
ect@@ 7822
amounting 7820
innov@@ 7820
veri@@ 7818
Solutions 7818
deceased 7818
mad 7817
Vietnam 7817
Comman@@ 7816
RIGHTS 7816
LIS@@ 7815
FINTRAC 7815
instalment 7814
Ah@@ 7813
Schengen 7812
lifting 7812
attracted 7811
cheque 7809
ree 7809
Os 7808
famili@@ 7808
incorporates 7808
appl@@ 7807
ago@@ 7807
DPR 7806
sincere 7805
promised 7804
Parli@@ 7803
phenomena 7802
18th 7802
categori@@ 7802
devote 7801
ere@@ 7801
Equi@@ 7801
survivors 7801
fishermen 7799
ardi@@ 7799
surgery 7797
administrator 7796
decreases 7796
movable 7796
ession 7794
editorial 7794
guardi@@ 7793
destinations 7792
aluminum 7791
olutionary 7790
mi 7787
freezing 7786
password 7786
Applicants 7785
searches 7784
norm 7783
var@@ 7783
Roman 7782
Clear@@ 7782
theft 7781
ratifying 7780
baggage 7779
dilu@@ 7778
invent@@ 7778
origins 7777
visas 7776
Shared 7776
essors 7775
neighb@@ 7775
bac@@ 7773
differing 7772
Depending 7772
Blood 7772
162 7771
terror 7770
sequences 7770
Ten 7769
SON 7767
Caucasus 7766
insight 7766
Firearms 7764
bery 7763
RO 7762
MR 7762
decentralization 7762
professions 7760
conserv@@ 7760
Teachers 7752
ears 7751
bio 7748
Ran@@ 7748
hardly 7745
Examination 7745
Q. 7744
Dou@@ 7742
Barri@@ 7740
invoice 7739
privileged 7738
helicopter 7738
alliances 7737
vaccination 7736
teen@@ 7733
industrialized 7733
aked 7731
vers@@ 7729
sian 7729
Lum@@ 7729
bers 7728
LI 7728
caregivers 7726
devi@@ 7725
Autom@@ 7725
streamline 7723
fran@@ 7721
achment 7720
analysing 7718
251 7716
Fron@@ 7716
dition 7716
242 7710
prevail 7709
emia 7708
ATIVE 7708
Direction 7706
consolidating 7705
ean 7705
ci 7704
failures 7703
ags 7703
Glob@@ 7703
firstly 7702
merg@@ 7701
seizure 7701
Link 7699
elessness 7697
U.@@ 7697
OUR 7697
illegally 7696
wa 7696
AST 7696
diamond 7695
extract 7694
Get 7694
CFI 7692
uptake 7692
reside 7691
mixtures 7691
encouragement 7690
tag@@ 7686
opt 7684
3.9 7684
searching 7683
rece@@ 7683
tongue 7681
dating 7681
161 7681
belt 7678
EUROPA 7677
ority 7675
rep@@ 7674
leverage 7672
misconduct 7672
ancies 7670
sym@@ 7669
Prepar@@ 7668
Black@@ 7666
defects 7662
FF@@ 7662
definite 7661
fer 7661
Care@@ 7661
egg 7661
EIA 7661
discount 7661
educators 7660
ENTI@@ 7658
alert 7657
dismis@@ 7657
trail 7656
Concern 7656
Gri@@ 7655
loy@@ 7653
dust 7653
Savings 7653
Nin@@ 7650
a.i. 7648
similarly 7645
totalling 7644
ouse 7644
quest 7643
Passport 7643
TRAN@@ 7643
she@@ 7640
warnings 7639
lif@@ 7639
15th 7637
luc@@ 7634
Radi@@ 7634
ESCAP 7634
itu@@ 7633
Published 7633
Brian 7632
sements 7630
Secure 7630
poli@@ 7628
atin@@ 7628
crude 7627
dential 7627
electron 7627
Depos@@ 7626
approving 7625
atom@@ 7625
offs 7624
favoured 7623
escor@@ 7622
189 7619
rs 7618
Committed 7617
median 7617
sting 7613
affirmed 7612
PAC 7612
Diplomatic 7610
deduct 7610
Long@@ 7610
Six@@ 7608
Negoti@@ 7608
confirming 7606
camp@@ 7606
Banff 7606
Dor@@ 7604
ART 7604
.gc.ca. 7603
Appl@@ 7602
MSC 7600
avian 7599
Tru@@ 7598
bought 7595
Negotiations 7595
rous 7594
verbale 7593
interoperability 7592
Corps 7591
ayed 7590
tabling 7590
chairmanship 7588
additions 7588
SIMA 7588
Immunization 7586
ager 7585
centers 7585
FA@@ 7585
beli@@ 7584
Volunteers 7581
eving 7580
subheading 7579
exhaustive 7577
chances 7576
fel@@ 7576
specialised 7574
magazines 7572
spar@@ 7571
ECU 7571
expectancy 7571
employing 7571
Christi@@ 7570
COMM@@ 7570
bomb@@ 7569
Sev@@ 7568
vitamin 7568
EPO 7568
ageous 7567
Laval 7567
tract 7566
tants 7566
tube 7565
Adjustment 7564
Debian 7564
Cypriot 7563
halt 7562
orph@@ 7562
Tobago 7562
cooperating 7561
sers 7560
ECOWAS 7560
admi@@ 7558
dividends 7558
celebr@@ 7557
Lor@@ 7557
underlines 7557
Improve 7557
Oc@@ 7555
www.hc 7555
enda 7553
vitro 7552
Assets 7551
β 7550
foreseeable 7547
kil@@ 7543
deeper 7543
Romanian 7543
CFSP 7543
pig@@ 7542
derogation 7541
enz@@ 7539
Identity 7539
ller 7538
hardship 7537
Unlike 7536
check@@ 7536
NW@@ 7536
forestation 7535
belongs 7535
jurisdictional 7535
plu@@ 7534
Han@@ 7533
4.9 7533
mounted 7530
Books 7529
awaiting 7528
stars 7527
Mount 7527
charities 7527
predat@@ 7526
Tier 7526
broaden 7525
abstract 7525
Breton 7524
oly@@ 7524
colon@@ 7524
nest 7523
proportions 7521
aliens 7519
vic 7519
cooling 7518
repealed 7517
Intro@@ 7517
efficiencies 7517
WP.30 7517
000,000 7516
fruits 7515
Smo@@ 7513
alising 7512
regi@@ 7512
Selected 7511
indoor 7510
6,000 7510
SF 7509
repayment 7508
fired 7508
poorly 7507
progressively 7506
seals 7506
Immun@@ 7505
tonne 7504
185 7504
AA@@ 7504
ause 7503
Foods 7502
idrc.ca 7502
Ol@@ 7501
rat 7501
gang 7501
Associated 7501
dn 7501
envis@@ 7500
ga@@ 7499
mort@@ 7498
arrears 7497
inity 7496
ferred 7495
94@@ 7494
ousness 7492
URES 7492
Wo@@ 7489
11th 7489
ashes 7488
encounter 7488
Deb@@ 7483
vert 7482
span 7481
yers 7481
Contractor 7480
Range 7479
WC 7478
detrimental 7476
uphold 7476
SUR@@ 7474
6.0 7471
192 7470
Publishing 7470
volatile 7466
Ay@@ 7465
Miss@@ 7464
terr@@ 7463
clin@@ 7461
resp@@ 7459
reimbursed 7458
sit@@ 7457
Os@@ 7457
ves@@ 7456
COMMISSION 7454
insofar 7453
Beyond 7452
fur 7451
conscious 7450
packing 7450
aces 7449
ditions 7449
Has 7447
doubled 7445
SION 7445
dictat@@ 7442
misuse 7442
approached 7440
chlor@@ 7440
CRE@@ 7440
DN@@ 7436
Fee 7436
177 7435
Show 7435
rocks 7434
adap@@ 7432
competency 7430
Reserves 7430
residues 7429
Shar@@ 7429
accede 7429
NR 7429
asserted 7428
disruption 7427
IRB 7427
Substantive 7427
till@@ 7426
Allow 7425
itative 7425
Advice 7424
USE 7423
Commun@@ 7422
memor@@ 7421
postponed 7421
Held 7421
demonstrations 7420
sewage 7420
Taylor 7420
164 7419
NTA 7419
disappeared 7418
hygiene 7417
ico 7417
writers 7415
alties 7415
complies 7414
con 7413
signatory 7412
Markets 7412
ind 7411
tivity 7410
uncertainties 7410
ires 7410
Bretton 7407
commemor@@ 7405
Jud@@ 7404
fir@@ 7404
Que@@ 7403
practic@@ 7402
Extension 7402
Critical 7397
advocates 7396
prosecuted 7396
transl@@ 7396
whatsoever 7394
wake 7394
dinner 7394
Rock 7393
5.7 7392
where@@ 7391
expedi@@ 7391
ote 7391
ress@@ 7391
Mas@@ 7391
oner 7389
encompasses 7389
6.6 7388
trout 7387
gate 7387
emi@@ 7386
otyp@@ 7386
Corporal 7386
civili@@ 7386
SA@@ 7383
148 7382
Infectious 7381
kits 7381
Cree 7380
trace 7379
sper@@ 7379
timeliness 7377
wondered 7376
membrane 7376
airlines 7375
Nisga 7375
millennium 7373
shipped 7373
Olymp@@ 7373
preclude 7372
waves 7372
optimi@@ 7372
ll 7370
voter 7369
ć 7369
orded 7368
strat@@ 7367
deficits 7367
oversee 7367
onset 7367
societal 7366
preclu@@ 7366
guardian 7365
Modified 7365
lun@@ 7365
lunch 7364
Pos@@ 7364
Alg@@ 7363
investigator 7363
Cell 7362
Belgrade 7360
DVD 7359
blind 7358
shortages 7358
Kam@@ 7358
PhD 7357
enactment 7355
sman 7355
TABLE 7355
Designated 7354
enlarged 7352
remediation 7352
163 7350
warehouse 7349
calm 7348
Architecture 7348
Democrats 7347
likewise 7347
controversial 7346
explanatory 7346
ONE 7346
260 7345
viewers 7344
celebration 7343
amino 7343
SCO@@ 7343
crossings 7342
intensified 7342
158 7341
CLO@@ 7339
dra@@ 7336
eves 7336
stic@@ 7334
1945 7334
summari@@ 7334
Asked 7333
DIAND 7333
flood 7332
recordings 7331
backed 7330
pot 7330
ston 7330
von 7327
susceptible 7327
Manufac@@ 7327
interpreting 7326
Marks 7326
voices 7324
ives 7324
incre@@ 7324
NE 7322
Sti@@ 7321
lia 7320
Net@@ 7320
itant 7319
Granting 7317
Sydney 7316
federally 7314
derivatives 7313
substantiated 7312
dial 7311
munitions 7311
judged 7310
convert 7310
n.@@ 7310
Minority 7309
Sever@@ 7309
Elizabeth 7306
invoices 7305
summaries 7305
enro@@ 7305
malnutrition 7303
grams 7302
TRE@@ 7302
Nothing 7301
Navigation 7299
empty 7298
.m@@ 7298
Bangkok 7296
sac@@ 7296
tips 7296
ric 7295
203 7295
Bec@@ 7295
vicinity 7293
fulf@@ 7290
Sco@@ 7289
metre 7288
Kuwaiti 7287
bids 7286
208 7285
Neither 7284
Dun@@ 7284
listening 7281
cripts 7281
EV@@ 7281
Campbell 7280
Spon@@ 7277
sct.gc.ca 7277
echo@@ 7276
lawfully 7273
marital 7273
Vincent 7272
hes@@ 7270
Bern@@ 7270
normative 7270
labelled 7269
exhausted 7269
trucks 7269
illnesses 7268
senators 7267
aki 7267
1963 7266
Arab@@ 7264
NOx 7263
Mah@@ 7263
restoring 7261
bow 7261
sens@@ 7259
surprising 7258
HUMAN 7257
undergoing 7256
Plaza 7256
lesson 7255
Highlights 7255
prize 7254
GRE 7252
ghts 7249
yle 7249
ocation 7248
Bhutan 7247
basically 7246
FAC@@ 7244
legislature 7243
industri@@ 7243
braking 7243
brow@@ 7243
Cul@@ 7242
183 7240
sake 7239
MM 7239
envelope 7238
Hudson 7238
Helsinki 7234
Fir@@ 7231
ALL@@ 7231
travelled 7229
ix@@ 7228
asters 7227
commercially 7226
Cities 7226
Respondents 7226
accrued 7225
1A 7224
Explanatory 7224
5. 7222
NSERC 7222
omics 7219
SL 7219
performers 7218
after@@ 7217
mistake 7215
advisors 7213
play@@ 7213
festival 7213
verse 7212
aka 7212
cel@@ 7211
agers 7207
invasive 7207
Assurance 7205
mate 7205
drainage 7204
itated 7203
Alaska 7203
overwhelming 7201
devastating 7200
š@@ 7200
complemented 7199
Presidential 7198
tragedy 7196
bic@@ 7196
Techn@@ 7195
secondly 7194
inging 7194
spac@@ 7194
168 7193
passive 7193
Golan 7192
Guyana 7192
pp 7191
ject 7190
Staffing 7190
risen 7189
Gordon 7188
30,000 7187
SECTION 7187
ept 7186
Written 7186
Ple@@ 7186
Consular 7185
confron@@ 7184
trailer 7184
interdependence 7182
Eurosystem 7182
VIS@@ 7182
1950 7181
AO 7181
mol@@ 7179
surrounded 7178
CJ@@ 7178
na@@ 7177
Lang@@ 7176
culmin@@ 7176
deck 7176
plates 7174
ratings 7173
Lack 7171
GRE@@ 7169
Marg@@ 7167
Transit 7164
Jer@@ 7163
NOTE 7161
Recruitment 7160
initiating 7160
liquidity 7160
neys 7159
ag 7159
asion 7158
arbitr@@ 7158
8.4 7158
trainees 7156
human@@ 7154
Integr@@ 7154
Trans 7150
Scale 7150
layers 7148
Supervisory 7148
Superior 7148
BSE 7147
Ozone 7147
resses 7146
Consistent 7145
aled 7144
acceding 7141
Mur@@ 7141
inger 7141
requ@@ 7140
Blo@@ 7140
opo@@ 7140
wetlands 7139
XV 7139
blo@@ 7138
Law@@ 7138
CIS@@ 7137
Andorra 7136
Envoy 7135
delighted 7134
Tax@@ 7134
abolished 7133
yan 7133
Associates 7133
ij@@ 7132
Thompson 7131
Safe@@ 7130
saved 7129
HER@@ 7129
KO@@ 7129
Discussions 7127
permissible 7126
functionality 7126
Rideau 7126
1.4.@@ 7126
173 7125
differentiated 7124
hydr@@ 7124
90.@@ 7124
arily 7123
Grain 7123
ander 7121
pou@@ 7121
hall 7121
derive 7120
thresholds 7120
Establishing 7119
upstream 7119
surrender 7119
embry@@ 7118
dilution 7116
daughter 7115
prevent@@ 7115
turns 7114
declines 7114
writer 7113
interval 7113
418 7113
albeit 7111
CP.@@ 7111
inflic@@ 7110
attractions 7110
Chem@@ 7108
mont 7106
persistence 7102
elevated 7102
timate 7100
0.9 7100
informants 7100
Lau@@ 7099
wel@@ 7098
154 7094
impairment 7094
gas@@ 7093
Recently 7092
consign@@ 7092
specimens 7092
ITA 7090
Symposium 7087
Respon@@ 7085
Clause 7084
inc 7084
CER@@ 7083
Sab@@ 7083
Though 7080
Increasing 7080
RR@@ 7080
Booking.com 7078
Consider 7077
literary 7076
francs 7076
Seven 7075
Friends 7075
O. 7073
Looking 7071
effected 7071
trics 7071
CY 7071
Muslims 7070
pole 7069
uti@@ 7068
Andrew 7068
segregation 7066
Technological 7066
Rest@@ 7063
LL@@ 7061
solved 7058
Mit@@ 7057
grap@@ 7057
Allow@@ 7057
recalling 7056
207 7055
Did 7055
resili@@ 7054
171 7054
Consultants 7054
Steps 7052
diplomacy 7051
turn@@ 7049
André 7049
practitioner 7049
olution 7048
Charges 7046
dus 7045
couples 7043
luxury 7042
weekend 7040
ole 7039
sediments 7039
................@@ 7038
Close 7037
GO 7034
bath 7033
tiers 7032
trades 7032
lieu 7032
oppose 7031
Relevant 7030
1960s 7030
livelihoods 7029
Fol@@ 7029
9.5 7028
Lines 7028
941 7028
tie 7027
multimedia 7027
ggage 7026
dispose 7022
moisture 7022
hi 7021
Mod@@ 7020
Ken@@ 7020
renovation 7019
dependency 7019
aga 7017
EW@@ 7015
healing 7014
Sometimes 7012
dog 7012
erson 7012
tu 7012
intensi@@ 7011
pock@@ 7011
payroll 7011
ECR 7011
distances 7007
thers 7006
ity@@ 7006
ESS 7006
summarizes 7006
Lac 7005
bit@@ 7004
underline 7004
notifications 7003
asu@@ 7002
pec@@ 7001
Clu@@ 7000
0.05 7000
revit@@ 6999
Efficiency 6999
demanded 6999
onau@@ 6999
academics 6997
anth@@ 6995
patent@@ 6994
Pages 6992
Fact 6992
pas 6991
Prevent 6989
Société 6989
formul@@ 6988
convictions 6988
ser 6988
tise 6986
Colonial 6985
occupy 6984
annot@@ 6984
delivers 6983
Expl@@ 6983
one@@ 6980
Effectiveness 6980
Est@@ 6979
instructed 6979
DM 6979
interdepartmental 6979
IMO 6978
glucose 6978
eric 6977
Non@@ 6977
5.8 6976
bankruptcy 6976
occasionally 6974
beaches 6974
Way 6974
Concer@@ 6974
mortgage 6974
conduc@@ 6974
automotive 6973
Lun@@ 6973
warm@@ 6972
178 6972
Adult 6972
whichever 6971
hib@@ 6971
Guests 6971
responds 6969
Sin@@ 6969
LC 6969
lumber 6969
Problems 6967
CPR 6967
ounce 6965
alistic 6964
Estimated 6963
calibration 6963
veterans 6962
ATR 6962
stere@@ 6961
medic@@ 6961
multicultural 6960
performs 6960
pile 6958
phones 6957
elo@@ 6957
c. 6953
Elements 6952
iver 6951
scat@@ 6950
publicity 6949
borrowing 6947
TIVE 6947
pursu@@ 6946
fal@@ 6946
Tokyo 6946
rememb@@ 6945
professionalism 6943
criminals 6942
prescrib@@ 6941
nit@@ 6940
NWT 6940
Balance 6939
equation 6938
Airways 6938
archaeological 6937
Near 6937
6.7 6937
179 6936
Postal 6936
contended 6936
urb@@ 6935
Customer 6935
ellular 6935
anticipate 6934
balancing 6934
Letters 6934
rows 6934
Degrading 6933
doctoral 6933
POPs 6932
Hav@@ 6930
zy 6930
Neuro@@ 6930
nominations 6929
Conventional 6929
TF 6928
ride 6927
tex 6927
ancing 6926
bacterial 6926
Abstract 6926
deems 6925
Inhuman 6925
Je@@ 6923
ols 6922
lifelong 6922
es. 6922
abide 6921
17th 6921
authorizing 6921
MIN@@ 6921
Reconstruction 6920
ic.gc.ca 6919
harmonised 6918
ardo 6918
Adoles@@ 6918
PG 6917
articulated 6916
advocated 6915
Strong 6915
beverages 6913
Oral 6913
even@@ 6912
simulation 6912
gal 6911
planes 6911
fin 6909
alliance 6909
counting 6908
Explo@@ 6907
design@@ 6906
Newsletter 6906
regret@@ 6904
traits 6904
assumes 6901
Cri@@ 6901
overhead 6901
episo@@ 6900
bags 6900
screened 6900
TT 6899
Advertising 6899
ington 6897
eman 6897
1965 6897
Learn 6897
further@@ 6896
piracy 6896
abundant 6896
arctic 6896
aliz@@ 6896
1948 6895
dish 6895
paramount 6895
technicians 6895
addi@@ 6893
regul@@ 6893
0s 6893
GATS 6893
preferably 6892
undertakes 6892
sav@@ 6891
rounds 6891
SARA 6891
disturbance 6890
naval 6889
tenders 6887
Bird 6887
dem 6886
argu@@ 6886
16th 6886
commander 6884
accessories 6882
213 6882
advisor 6881
english 6881
spin 6880
busy 6879
Anderson 6879
trainers 6878
D.C. 6878
signatories 6876
Louise 6875
Advance 6875
Frank 6874
lump 6871
liter@@ 6870
quit 6870
Multiple 6870
onian 6868
Licensing 6864
Offer 6864
Corp. 6864
Spr@@ 6863
Continued 6862
advising 6861
zip 6860
html 6860
pack 6859
ario 6859
Juli@@ 6859
Producers 6858
compos@@ 6858
stones 6857
Iranian 6857
866 6856
Civilization 6856
Copy 6855
OSFI 6855
pa 6854
ignore 6852
burdens 6852
Universities 6852
ethnicity 6851
weights 6850
Pul@@ 6850
Guideline 6850
о@@ 6850
intimidation 6849
Uti@@ 6848
condemn 6847
eventual 6847
Lis@@ 6846
kill 6846
wrongful 6846
quo 6845
dead@@ 6845
van@@ 6845
ct 6845
premature 6844
volving 6844
Mess@@ 6842
ony@@ 6842
SF@@ 6842
cyto@@ 6840
mol 6840
registers 6839
fit@@ 6839
wer 6839
RAD@@ 6839
stimulating 6833
agendas 6832
ticul@@ 6831
rubber 6831
empirical 6831
child@@ 6830
evic@@ 6830
apportionment 6829
nt 6828
Acquisition 6828
Nordic 6826
dged 6826
Jones 6826
icular 6826
ounding 6825
emphasise 6824
200,000 6824
profitable 6823
stems 6823
GROUP 6823
nomin@@ 6822
catalyst 6822
appliances 6822
Bour@@ 6821
moratorium 6821
Wit@@ 6821
VIEW 6821
e.asp 6820
wich 6819
159 6817
satellites 6817
Inspector 6817
Turning 6815
217 6814
Virtual 6814
Pit@@ 6814
disproportionate 6813
Wilson 6813
round@@ 6811
187 6811
caring 6809
cardiovascular 6809
Eradication 6809
illa 6808
oxy@@ 6808
Exploration 6807
Fern@@ 6806
Hou@@ 6806
implied 6803
noti@@ 6803
rey 6802
lowing 6802
ér@@ 6802
Times 6802
outbreaks 6800
Stock@@ 6798
Kal@@ 6797
211 6797
ison 6794
movie 6794
bo 6793
Man 6791
adopts 6788
streamlining 6787
Enti@@ 6787
random@@ 6786
simultaneous 6786
spawning 6785
Poli@@ 6783
Fran@@ 6782
proprietary 6782
Dep@@ 6781
avi@@ 6781
ogenic 6780
habits 6779
assembled 6779
tight 6778
Incre@@ 6778
minus 6777
mobilizing 6776
Particip@@ 6776
organism 6775
221 6774
Desertification 6774
enic 6773
attaches 6772
Consumers 6771
enforcing 6769
LAND 6765
sequ@@ 6764
tori@@ 6762
hr 6762
Regul@@ 6762
Produc@@ 6762
15,000 6761
G8 6760
ABC 6758
weakness 6757
emphasizing 6757
sums 6756
supervised 6756
pointing 6755
cra@@ 6755
ule 6755
eleventh 6754
solicitation 6754
Tra@@ 6753
visu@@ 6751
FM@@ 6750
proportional 6749
distress 6748
Across 6748
bold 6744
domains 6744
Linux 6743
Miscellaneous 6743
Ful@@ 6742
archit@@ 6739
Wide 6738
batch 6738
Tak@@ 6737
ISBN 6737
stro@@ 6736
brother 6734
progress@@ 6734
Stewardship 6734
Lan@@ 6733
prompted 6732
logging 6732
INF.@@ 6732
resettlement 6730
Chronic 6730
bag 6729
specifying 6728
1,500 6728
DF@@ 6728
soldier 6727
oric 6726
Lao 6725
pl 6725
Recognizes 6725
raft 6723
SER@@ 6723
banned 6722
shock 6722
Kan@@ 6722
roof 6721
honoured 6720
neighbour@@ 6719
booking 6719
draw@@ 6718
PK@@ 6717
marriages 6717
Deadline 6717
dit 6715
Sum@@ 6714
Tribunals 6714
00.@@ 6714
antibio@@ 6712
DEVELOPMENT 6712
watershed 6711
222 6711
ão 6711
constituent 6710
infring@@ 6710
childcare 6710
206 6709
ationary 6709
Sli@@ 6709
journals 6707
finalize 6707
discusses 6705
fora 6703
Bul@@ 6703
Exports 6699
Leaders 6698
psychiatric 6697
mechan@@ 6696
AMEND@@ 6695
wines 6694
167 6692
itr@@ 6692
conflicting 6692
avoidance 6692
REL@@ 6692
Hem@@ 6691
furthermore 6689
Alcohol 6688
Charge 6688
brackets 6687
evidenced 6685
Bot@@ 6685
oride 6684
Ladies 6683
eng 6683
eff@@ 6681
yard 6681
Multiculturalism 6681
ption 6680
pledges 6680
insights 6679
Particul@@ 6677
Franc@@ 6677
vation 6676
circuit 6676
mic@@ 6676
Sample 6676
obj@@ 6673
distributing 6672
matched 6671
obstruc@@ 6671
precious 6671
atten@@ 6669
stru@@ 6669
Specialist 6669
pronounced 6668
rooted 6668
differs 6666
Relationship 6666
trigger 6665
there@@ 6665
Measuring 6665
EEA 6662
Py@@ 6662
discretionary 6661
search@@ 6661
C.4 6661
encompass 6659
fan 6659
tary 6658
ère 6658
Cohesion 6657
Manufacturers 6657
longitudinal 6657
enrichment 6656
restricting 6656
uation 6656
opposing 6655
mercen@@ 6654
deter@@ 6652
Sugges@@ 6652
Cer@@ 6650
Santa 6649
placements 6649
metro@@ 6649
XML 6647
allowable 6646
Sale 6646
News@@ 6644
21@@ 6644
introduces 6643
hybrid 6642
WADA 6642
SK@@ 6642
OH@@ 6642
ond@@ 6641
etric 6639
metry 6639
ISA 6638
junior 6638
Harmonized 6638
son@@ 6637
kh@@ 6633
gun 6632
fort 6632
196 6630
Merc@@ 6629
1540 6628
SAP 6628
pler 6627
promot@@ 6626
juveniles 6626
Gabon 6626
Pharmac@@ 6626
policy@@ 6624
proclaimed 6623
Effect 6623
Submissions 6622
lacks 6620
authentic 6619
parole 6619
Eu@@ 6618
Chambers 6615
Agent 6614
Therap@@ 6614
UNO@@ 6614
Would 6613
Enhancing 6613
dietary 6613
Trav@@ 6613
ration 6612
fitting 6612
atories 6612
Eight 6612
Cl 6612
Dum@@ 6611
macro@@ 6610
stereotypes 6610
academia 6610
radar 6609
Harper 6607
Share 6606
diffusion 6605
bin 6605
manuals 6603
Rh@@ 6602
monopoly 6601
7.6 6601
TUR@@ 6601
surprise 6600
pulp 6600
Green@@ 6600
silver 6599
imagine 6598
combinations 6598
Cru@@ 6595
allocating 6595
Reconciliation 6595
shelters 6595
ectivity 6594
ords 6593
cornerstone 6593
fores@@ 6593
Cross@@ 6593
sleep 6591
prosperous 6590
199 6590
Deleg@@ 6590
irregularities 6589
exchanged 6588
č@@ 6588
unexpected 6587
pump 6587
Governors 6586
UND 6584
replic@@ 6582
Umpire 6582
modern@@ 6581
duced 6581
ATORY 6581
endable 6580
.html. 6580
oni 6579
worn 6579
seriousness 6579
Newspap@@ 6578
Scotland 6577
xy@@ 6576
Confi@@ 6575
frequencies 6575
cohort 6575
François 6574
181 6574
Dur@@ 6574
IGC 6573
shel@@ 6573
ori 6573
oria 6573
dispar@@ 6572
railways 6571
aments 6571
remedial 6570
practically 6569
bian 6568
sm 6566
uniform@@ 6563
inge 6563
Monitor 6563
ods 6562
Bonn 6561
Dre@@ 6561
Possible 6560
996 6558
Recalls 6558
Poor 6556
recti@@ 6555
Discipl@@ 6554
supporters 6554
Genocide 6553
icing 6552
outlets 6552
Stage 6552
Cad@@ 6551
taining 6551
hidden 6550
contravention 6549
hesive 6549
patho@@ 6549
NOC 6549
furn@@ 6548
sam@@ 6547
9.3 6547
isol@@ 6546
Globalization 6546
drilling 6544
optimum 6543
severance 6543
ba@@ 6542
compensatory 6542
338 6542
shaping 6541
dh@@ 6541
profitability 6541
237 6541
174 6540
cir@@ 6540
supplying 6540
vested 6539
Fredericton 6539
deserves 6538
layout 6538
Liability 6538
inventions 6537
learners 6537
confiscation 6535
dream 6534
multilingu@@ 6533
Calcul@@ 6533
confer@@ 6532
Mass 6532
SEC 6529
diagnosed 6529
iner 6529
spectro@@ 6529
thoughts 6528
tial 6528
Sm@@ 6525
clarifying 6524
pren@@ 6524
complications 6523
ench 6523
get@@ 6522
pop@@ 6521
Agre@@ 6521
noticed 6520
positioning 6520
vegetable 6520
numerical 6520
hypothesis 6517
Quali@@ 6517
280 6516
commits 6516
moderni@@ 6516
corporal 6515
241 6515
distant 6514
may@@ 6514
prim@@ 6513
ld@@ 6513
Sub.2 6512
Hydro 6511
PCH 6510
TL@@ 6509
CATSA 6509
valley 6508
Cont@@ 6508
embodied 6505
NCE 6505
breaks 6504
mous 6504
drinks 6503
impede 6502
Samoa 6502
Quanti@@ 6501
Emission 6500
Impacts 6500
3.2.@@ 6500
admit 6499
EI@@ 6497
tracted 6495
rub@@ 6495
Aging 6495
counsel@@ 6494
rehabil@@ 6493
Appropriate 6492
enty 6491
Positive 6489
Rogers 6489
PROGRAM 6489
rigid 6488
Inspectorate 6488
illary 6486
thin 6486
Jun@@ 6486
max 6486
glu@@ 6486
influencing 6484
tian 6484
jun@@ 6484
Chairmen 6483
μ@@ 6483
edited 6482
aquifer 6482
Gam@@ 6481
7.0 6481
ording 6480
resour@@ 6480
Post@@ 6480
Resolutions 6479
etic 6479
licenses 6479
02.@@ 6479
Messages 6478
Poll@@ 6477
probable 6476
Bet@@ 6475
fulness 6474
ink@@ 6474
aerospace 6473
motiv@@ 6472
orian 6471
Art. 6471
12th 6470
Metal 6470
underscored 6469
painting 6468
aten 6468
seam@@ 6467
Compu@@ 6467
subsidiaries 6467
Camp 6465
atures 6464
landmines 6463
Protected 6462
003 6462
killings 6460
HEALTH 6460
ascertain@@ 6459
circul@@ 6459
honest 6459
1964 6458
Dri@@ 6458
Intern@@ 6458
suspects 6457
Ministries 6457
missiles 6455
Williams 6455
metic 6454
stressing 6453
Ant@@ 6452
FDA 6450
¶ 6450
tration 6448
195 6448
sson 6448
destined 6448
TC@@ 6447
tol@@ 6447
Navig@@ 6446
Incid@@ 6445
streamlined 6444
ú@@ 6444
sexes 6444
construed 6444
vian 6444
Create 6444
hosts 6443
globe 6442
protest 6442
Applied 6442
spreading 6441
kidn@@ 6441
ible 6441
Modify 6441
remit 6439
sporting 6439
saturated 6439
Defense 6439
Collaborative 6439
Marino 6436
Outreach 6436
discre@@ 6435
OPER@@ 6435
centralized 6434
understands 6433
nurse 6433
plac@@ 6432
brochure 6432
KING 6432
historically 6431
pesticide 6431
mammals 6429
arial 6429
Dublin 6428
synergy 6426
refusing 6425
exposures 6425
Kr@@ 6424
BT 6424
cit@@ 6423
floods 6421
Indic@@ 6421
Oman 6419
clinic 6417
indeb@@ 6416
theses 6416
paint 6415
ESC@@ 6415
vailing 6415
pot@@ 6414
cham@@ 6413
seating 6411
IRAP 6411
RF@@ 6410
unequi@@ 6409
Â 6409
div@@ 6408
Che@@ 6408
identi@@ 6408
Bac@@ 6406
TIC 6406
concessions 6404
abandonment 6402
ue@@ 6402
pedestri@@ 6402
Not@@ 6401
scholarships 6400
Fore@@ 6400
revocation 6399
exempted 6398
anim@@ 6398
colonies 6398
Collaboration 6398
Athle@@ 6398
Mutual 6397
anten@@ 6396
6.8 6395
composite 6392
ø@@ 6391
normal@@ 6391
observ@@ 6391
Papua 6391
mon 6390
Laurent 6390
Otherwise 6389
OIC 6389
Lessons 6388
experim@@ 6387
Premier 6386
Degree 6386
cad@@ 6384
relax 6384
DS@@ 6384
Ide@@ 6383
imposes 6382
RP 6382
respon@@ 6380
283 6380
lab 6380
Conseil 6380
atro@@ 6379
methane 6379
dered 6378
slu@@ 6378
hole 6377
236 6377
attacked 6376
cides 6375
subsidi@@ 6374
Bolivarian 6374
cigarette 6373
ograp@@ 6372
Big 6372
narrow@@ 6372
A1 6372
ounded 6371
french 6371
234 6370
classifications 6369
ounds 6369
hin@@ 6368
frontier 6368
rier 6368
ologies 6368
Seniors 6367
quasi 6366
moun@@ 6365
Bernard 6364
acle 6363
APEC 6363
debated 6362
Currency 6362
auction 6362
aft 6362
905 6362
21,@@ 6362
PSE 6361
Niagara 6361
entirety 6359
rulings 6359
precursors 6359
dd@@ 6358
alteration 6358
han 6357
AZ@@ 6357
preceded 6356
SAR@@ 6355
waterways 6354
arming 6354
Ha@@ 6354
Everyone 6353
distributor 6353
urity 6352
oline 6351
wholesale 6350
227 6350
them@@ 6349
preferable 6349
Ric@@ 6349
Whole 6349
venues 6348
.net 6348
undergone 6346
Eligibility 6346
Rs 6345
TPD 6345
missed 6344
Outlook 6344
CAS@@ 6342
shipper 6342
analog@@ 6341
stick 6340
cia 6339
Thousands 6339
casualties 6339
Chil@@ 6338
effluent 6338
labor 6338
Doc 6337
supplements 6336
MAT@@ 6336
ple 6335
Scheme 6334
Bol@@ 6333
characterised 6332
enquiries 6332
ECO@@ 6332
suspicious 6332
1,5@@ 6331
COD 6330
Atlas 6330
ACH@@ 6328
Superannuation 6328
everybody 6327
unused 6326
los 6326
footing 6325
GRTKF 6325
SEC@@ 6324
Lee 6323
decolonization 6323
featured 6321
breath@@ 6321
overarching 6320
expire 6319
terrain 6319
215 6319
alizes 6319
Rail@@ 6318
lateral 6318
tus 6318
inevitably 6317
motions 6317
classical 6317
Claim 6317
tsunami 6317
glo@@ 6316
ICH 6315
stance 6314
coefficient 6314
zinc 6313
ased 6312
dissolved 6311
MOs 6311
............@@ 6311
overcoming 6310
TURE 6310
ques@@ 6310
CV@@ 6310
indices 6310
xx@@ 6309
Annan 6308
Users 6308
Loan 6307
GI 6307
Brow@@ 6307
Cham@@ 6306
telling 6305
wells 6305
Roy 6305
SH 6304
dol@@ 6303
identifiable 6303
minds 6302
aval@@ 6301
Euratom 6301
haul 6300
Verde 6300
amalgam@@ 6299
Residential 6299
Conservative 6297
ition 6297
punish 6297
Reiterates 6297
tiz@@ 6297
preamble 6296
232 6296
correlated 6296
entrepreneurial 6293
cooking 6293
Murray 6291
cryst@@ 6290
arry 6290
pools 6290
261 6290
good@@ 6289
REGI@@ 6289
Wales 6288
downward 6288
improper 6287
Appellant 6287
amic 6286
parti@@ 6285
Pro 6285
perpetrated 6283
ﬁr@@ 6281
Combating 6279
broadband 6278
Mun@@ 6278
actu@@ 6278
IF 6278
MEDIA 6276
thickness 6276
publici@@ 6276
pav@@ 6275
reunification 6274
Destruction 6274
Ont 6274
extrajudicial 6273
Advocate 6273
Wood@@ 6272
onom@@ 6270
Patrick 6270
fundamentally 6269
dynam@@ 6269
aur@@ 6268
prints 6268
elegant 6268
Geo@@ 6268
Af@@ 6267
North@@ 6267
posi@@ 6266
embedded 6266
Delta 6265
wit@@ 6264
£ 6263
jur@@ 6261
enclosed 6261
tful 6260
holes 6260
golf 6260
Square 6260
TERS 6260
bright 6259
952 6259
Distribu@@ 6258
validate 6257
aker 6256
sa@@ 6254
eda 6254
columns 6254
bilities 6253
merchandise 6253
oling 6252
LDCT 6252
Transparency 6251
subscribe 6249
Lind@@ 6249
oldest 6249
constituting 6248
VE@@ 6248
lend 6246
flowers 6246
Charlottetown 6246
addiction 6245
Establishments 6245
Star@@ 6244
subsidized 6244
www.p@@ 6244
p. 6242
scar@@ 6241
tar@@ 6239
Southeast 6239
.htm. 6238
Dim@@ 6237
fishers 6237
14th 6235
Eg@@ 6235
horse 6234
Avi@@ 6233
LT@@ 6232
endeav@@ 6231
precedent 6231
thesis 6230
Salmon 6230
restruc@@ 6229
WORK 6229
discharged 6228
combines 6228
editor 6226
SOs 6225
gorously 6223
twelfth 6223
atings 6222
FTEs 6222
pest 6221
IO 6221
icked 6220
Authorization 6219
enforceable 6218
ille@@ 6217
Ther@@ 6217
wonder 6216
func@@ 6216
alarm 6216
DATE 6216
acqui@@ 6215
Meteorological 6215
substitution 6214
REGULATIONS 6214
ellers 6213
victory 6213
presumed 6210
leng@@ 6210
maker 6210
TON 6210
quote 6209
Environ@@ 6209
Coverage 6209
keeps 6208
gov 6208
construc@@ 6207
improves 6207
nickel 6207
persist 6205
logo 6205
UNIFIL 6205
ordinated 6204
medications 6204
cleaner 6203
DCP 6202
és 6201
Sharing 6201
swit@@ 6200
iced 6197
Typ@@ 6197
Continental 6196
alive 6196
classic 6195
articul@@ 6195
fits 6193
Therapeutic 6193
Somali 6193
ICE 6192
fears 6191
seafood 6191
gnee 6190
recession 6189
Ra@@ 6189
GRO@@ 6189
UV 6188
ceases 6187
Beach 6187
gly@@ 6187
expedite 6185
see@@ 6185
ache 6184
Guy 6184
irrigation 6183
prev@@ 6182
fic 6182
observes 6180
ephal@@ 6179
stroke 6178
Simon 6178
Reasons 6178
Collections 6178
damaging 6176
deportation 6176
entia 6176
portr@@ 6175
trouble 6175
Tw@@ 6174
rance 6173
churches 6173
fatty 6170
ulated 6169
ext 6169
volcan@@ 6168
advises 6166
Briefing 6165
developers 6164
elector 6164
hoods 6163
NG 6163
NFB 6162
Hard 6161
Actu@@ 6160
acles 6160
Francophones 6159
ole@@ 6157
tribal 6157
ASD 6157
question@@ 6156
thly 6156
utilities 6156
descriptive 6155
atch@@ 6155
vide@@ 6155
Taxation 6154
zo 6153
PEI 6151
inqu@@ 6150
livelihood 6149
emphasised 6146
DEL@@ 6146
Canada@@ 6146
Rap@@ 6145
aa 6144
doub@@ 6143
acu@@ 6143
ave@@ 6142
Pris@@ 6142
Scre@@ 6142
ided 6141
Bahamas 6141
hybri@@ 6141
auto@@ 6140
prevalent 6139
Exposure 6139
fait 6138
005 6138
320 6138
gly 6137
Modernization 6137
án 6136
hop 6136
curve 6136
Super@@ 6136
suppl@@ 6136
PRESIDENT 6136
undermined 6135
iller 6135
symposium 6135
bra@@ 6134
compelling 6134
Quick 6134
decentralized 6134
grow@@ 6133
issi@@ 6133
sement 6132
proportionality 6132
correc@@ 6131
syndrome 6130
Mill@@ 6129
incoming 6128
lay@@ 6127
winner 6127
Names 6127
Budgets 6126
Labelling 6126
aes@@ 6124
thwestern 6124
953 6124
Column 6124
Nursing 6124
Death 6123
Used 6123
GT 6123
Cab@@ 6122
ineffective 6120
inspected 6120
dam 6120
Marri@@ 6120
briefed 6120
NP 6120
equilibrium 6119
confronted 6119
agging 6118
supplementing 6118
sufficiency 6115
sibly 6112
defer@@ 6112
iss 6112
deliver@@ 6112
Arthur 6112
Specialized 6112
metadata 6112
Sher@@ 6111
staining 6109
relaxation 6109
depend@@ 6109
Celebr@@ 6108
part@@ 6107
M1 6107
Types 6106
dried 6105
Combined 6103
forefront 6102
staying 6101
Strengthen 6101
resear@@ 6100
spacious 6099
proportionate 6098
mouse 6097
geography 6096
professor 6096
EMEP 6095
Demon@@ 6094
acknowledging 6094
tral 6093
Often 6090
Cairo 6090
patrol 6090
irs 6089
intentional 6088
Kon@@ 6087
GEN@@ 6087
TOPIC.html 6087
RESOURCES 6086
imminent 6085
.c@@ 6085
Consultant 6083
DF 6082
176 6082
tunnel 6081
rin@@ 6079
Experi@@ 6079
kids 6078
encryp@@ 6077
400@@ 6077
directing 6076
renovated 6076
class@@ 6074
Vir@@ 6074
voltage 6074
FY 6074
contemplated 6073
abol@@ 6072
ister 6072
Look 6072
Considerations 6072
Transboundary 6072
Col 6072
Aerospace 6072
.cfm 6072
Mayor 6070
relying 6069
prudent 6069
STATEMENT 6069
scourge 6068
sounds 6068
staffed 6068
imaging 6068
inevitable 6067
piles 6067
stor@@ 6067
eta 6067
theastern 6067
Egyptian 6065
Specified 6065
AY@@ 6065
PORT 6064
Controlled 6062
conceived 6061
annum 6061
buil@@ 6061
1957 6060
ggling 6060
routinely 6060
188 6060
vocal 6059
rid 6058
disk 6058
violating 6058
4.1.@@ 6058
HI 6057
imbalances 6056
promotions 6056
endants 6055
Perform@@ 6054
Prepared 6054
milit@@ 6053
vibrant 6053
appre@@ 6052
unsuccessful 6052
impacted 6052
INF 6052
shareholder 6051
defending 6050
paths 6050
Different 6050
genuinely 6049
ICRC 6049
hate 6049
214 6048
sympath@@ 6047
flooding 6047
plen@@ 6047
Character@@ 6047
255 6046
tea 6046
Cruel 6046
commensurate 6045
edy 6045
reconcile 6045
rements 6045
Spirit 6045
Still 6044
Banking 6044
adop@@ 6041
comm 6041
198@@ 6041
Editor 6039
isation 6038
esh 6038
repercussions 6037
invaluable 6037
Wol@@ 6036
dited 6035
cool 6035
fares 6035
penetr@@ 6034
Henry 6034
posters 6034
OAS 6034
tless 6033
Opportunity 6033
waiver 6032
decisi@@ 6031
simpli@@ 6031
ians 6031
Counter@@ 6031
realizing 6031
PU@@ 6030
spi@@ 6029
pregn@@ 6029
Securities 6029
enh@@ 6028
settlers 6028
Shel@@ 6028
civilizations 6028
disadvantages 6026
Fro@@ 6026
Patents 6024
vacant 6024
Greenland 6023
GHS 6023
Metro@@ 6019
Substance 6019
cannabis 6018
Astr@@ 6018
weigh 6017
statistically 6017
trical 6017
edical 6016
Heart 6016
DRAFT 6016
interrupted 6015
azi 6015
Sus@@ 6015
Alber@@ 6014
03.@@ 6014
fragmentation 6012
Along 6012
www.tbs 6012
Bow@@ 6011
SEA 6011
Particular 6010
insist 6010
fellow@@ 6010
arium 6010
approaching 6009
IU@@ 6008
WG@@ 6007
chin@@ 6006
Ali@@ 6006
impres@@ 6005
13th 6005
Levels 6005
Graham 6004
Completion 6003
rss 6001
album 6000
referenced 5999
MAC 5999
abor@@ 5997
IG 5997
offensive 5996
Om@@ 5996
accept@@ 5995
194 5995
races 5995
blue@@ 5993
confi@@ 5993
t.@@ 5993
sis@@ 5991
nationwide 5991
airs 5991
backlog 5990
indeterminate 5989
partment 5989
Metals 5989
BB@@ 5989
nights 5988
promulgated 5986
Origin 5985
Rol@@ 5985
reasoning 5984
excludes 5984
dogs 5983
facilitator 5982
bec 5982
SCT 5981
Pau@@ 5980
Guarantee 5979
VC 5979
apprais@@ 5978
Strait 5978
Laundering 5977
umbrella 5976
beer 5975
standardization 5974
reconc@@ 5973
biased 5973
registrations 5973
Employers 5972
sch 5970
incid@@ 5970
organ@@ 5970
oks 5970
biofuels 5970
silence 5969
sey 5969
Methodology 5969
reciproc@@ 5968
til@@ 5968
Toll 5967
wounded 5966
sco@@ 5965
tone 5965
233 5965
atical 5964
approximate 5964
attr@@ 5964
10.1 5964
orch@@ 5963
strikes 5963
digit 5963
2,500 5962
lit 5961
proficiency 5961
overnight 5959
lion 5958
Tokelau 5958
ensive 5957
kins 5957
Lic@@ 5957
foodstuffs 5952
revitalization 5952
parameter 5951
Insufficient 5951
sol 5951
sensing 5950
VAC 5950
earning 5949
DOC 5949
graduation 5947
achelor 5947
competi@@ 5946
birth@@ 5946
testi@@ 5945
mutilation 5945
Plac@@ 5944
energies 5943
block@@ 5943
Creating 5942
fluoro@@ 5942
modal 5942
atus 5942
logs 5941
bureau 5941
330 5940
Acrobat 5940
compress@@ 5939
glad 5937
Provided 5937
ft@@ 5937
SPs 5937
hc 5937
attach@@ 5936
sickness 5936
Situ@@ 5936
Alleg@@ 5935
4A 5935
disputed 5934
clock 5933
ami 5933
Nag@@ 5931
announces 5931
deliberately 5930
renowned 5930
subscription 5930
sp 5929
rors 5928
lt 5928
sessional 5927
Executives 5924
folklore 5923
uro@@ 5923
Demand 5923
EPC 5923
critici@@ 5922
utilizing 5922
Imports 5921
unaccompanied 5921
phon@@ 5920
coli 5920
develop@@ 5920
ron 5920
leasing 5920
receptor 5920
situ 5919
miss 5918
brown 5918
186 5918
subparagraphs 5918
MINIS@@ 5918
bureaucratic 5915
earthquake 5915
EMPLOY@@ 5914
dinal 5913
Meals 5913
Tribal 5913
reciprocal 5912
Juvenile 5912
wind@@ 5911
Module 5911
inters 5909
humane 5908
celebrated 5907
Def@@ 5907
mankind 5906
viral 5905
ICP 5905
aerial 5904
chers 5903
liation 5902
asted 5901
vendors 5901
esp@@ 5901
enses 5901
cus@@ 5898
football 5897
differentiation 5896
secretariats 5895
vised 5894
Dal@@ 5893
Surveys 5893
materiel 5893
persecution 5892
flam@@ 5892
epidemi@@ 5892
Av@@ 5891
Peer 5891
Investigator 5891
regulates 5889
Jam@@ 5889
709 5889
fiers 5888
31.@@ 5888
Europol 5887
ros 5887
decentr@@ 5886
implements 5886
WW@@ 5886
slope 5886
ickers 5885
Adop@@ 5885
compensated 5884
strongest 5884
archive 5884
appropriateness 5883
ponents 5883
Crisis 5883
Responses 5882
universality 5881
dependant 5881
Wheat 5880
gli@@ 5879
featuring 5878
gall@@ 5878
mable 5877
mentoring 5877
aler@@ 5875
Sudanese 5875
stipul@@ 5874
256 5872
vacuum 5871
reinforcement 5871
Car 5871
journ@@ 5871
ambiguous 5870
uttle 5870
Mike 5870
oming 5869
NOR@@ 5869
www.un@@ 5868
clu@@ 5867
tina 5867
entals 5867
nin@@ 5866
CAT@@ 5865
omission 5864
dividend 5864
barley 5864
Wireless 5864
Commissions 5863
NIHB 5863
Desjardins 5859
INTRODUCTION 5859
incitement 5858
modernize 5858
tiv@@ 5857
Instruments 5857
2.00 5856
FTA 5856
Observations 5856
particulars 5854
desktop 5854
8,000 5853
hat@@ 5852
song 5852
ftwood 5852
weighing 5851
243 5851
LAN@@ 5850
employs 5849
1,4@@ 5849
fathers 5848
Ali 5848
otage 5847
pathogens 5845
275 5844
Rwandan 5844
RB@@ 5844
perpetrator 5843
butt@@ 5843
abduction 5843
Venice 5843
beg@@ 5842
lac@@ 5842
processors 5842
Encourage 5842
Diabetes 5842
compromised 5841
Sul@@ 5841
ost@@ 5840
ambigu@@ 5839
Arrangement 5839
23,@@ 5839
ordering 5838
repos@@ 5837
ESDP 5837
Villa 5837
rebuilding 5836
forecasting 5836
isphere 5836
exam 5836
mistakes 5835
Peaceful 5835
1,6@@ 5834
184 5833
OFFICE 5832
Ts 5831
journalist 5830
stopping 5830
align@@ 5830
distributions 5830
FE@@ 5829
Assessments 5829
immuno@@ 5829
SO2 5828
abandon 5824
LIN@@ 5824
enburg 5823
complic@@ 5820
scen@@ 5820
CEB 5820
wisdom 5819
piling 5818
speaks 5817
Compar@@ 5817
listic 5816
Feder@@ 5815
Medal 5815
conservative 5814
leg 5814
quin@@ 5814
Features 5814
spl@@ 5813
panel@@ 5813
markers 5812
Result 5811
aldehyde 5811
rati@@ 5810
interdisciplinary 5810
Down@@ 5810
hep@@ 5809
illustr@@ 5808
radio@@ 5808
Prison 5806
orderly 5805
CAM@@ 5805
analyzing 5805
RNA 5804
itably 5803
mises 5803
shocks 5803
incin@@ 5801
ERE 5801
Image 5798
OCI 5798
pounds 5797
tability 5797
Buildings 5797
AIR 5797
transi@@ 5796
consortium 5796
lever@@ 5796
sexu@@ 5795
grey 5793
prepares 5793
ei 5793
Recommended 5793
negotiable 5792
1a 5792
you@@ 5792
Stabilization 5792
uly 5791
Ari@@ 5791
N1 5791
poster 5791
Denis 5790
optimize 5790
198 5789
SERVICE 5789
seize 5788
reaffir@@ 5787
passports 5787
Travellers 5787
Qualifications 5787
Log@@ 5786
Intolerance 5786
Dom@@ 5786
UR 5786
otherap@@ 5785
Fair@@ 5785
Injury 5785
forcing 5784
assed 5784
similarity 5784
ret 5784
Electricity 5783
Bs 5783
percentages 5781
228 5781
ett 5781
RIF 5781
deploy@@ 5780
hero@@ 5780
phenyl 5780
Speaking 5779
porting 5779
Davis 5779
surely 5778
ventures 5777
5.9 5775
997 5775
regression 5774
inqui@@ 5774
JU@@ 5774
TEN@@ 5773
bw 5773
registering 5772
nul@@ 5772
Communic@@ 5772
ODS 5772
patented 5771
Cust@@ 5770
Every@@ 5769
Cel@@ 5769
FP@@ 5768
dishes 5768
Pav@@ 5768
supervise 5767
compile 5767
Female 5767
Mills 5767
Ka@@ 5765
Guiding 5765
fix@@ 5764
Analy@@ 5764
ammonia 5763
Whit@@ 5763
policymakers 5763
asthma 5763
commends 5762
Serbian 5760
Abroad 5760
iro 5758
Fif@@ 5757
eder 5757
Eff@@ 5757
Innovative 5757
ulative 5755
keen 5754
ria 5753
tactical 5752
pel 5752
embar@@ 5752
1962 5752
SCIT 5752
poll 5751
550 5751
Gambia 5751
salts 5750
Plants 5749
confront 5748
499 5747
haven 5746
wood@@ 5746
Integrity 5746
rab@@ 5745
DES 5745
tou@@ 5744
entially 5743
compo@@ 5743
mul@@ 5743
az 5743
2.1.@@ 5743
arena 5742
precautions 5741
ESC 5741
MG 5741
cheap 5740
lon@@ 5740
groupings 5740
estimating 5740
Ross 5740
engineer 5739
faith@@ 5739
discontinued 5737
peace@@ 5737
abused 5735
Crimes 5735
fide 5735
activists 5734
Directory 5733
Reclassi@@ 5733
Decolonization 5733
kno@@ 5731
Controls 5731
CSR 5731
Geographic 5731
Lev@@ 5730
manus@@ 5730
Remarks 5730
privatization 5730
Nig@@ 5729
Es 5729
Live 5729
ence@@ 5728
Bundes@@ 5728
∗ 5728
22,@@ 5726
209 5725
Overseas 5724
CHAPTER 5724
fif@@ 5723
vig@@ 5723
news@@ 5723
songs 5723
frustr@@ 5722
spots 5722
trim@@ 5722
GP 5722
presumption 5721
absorbed 5720
Sustainability 5720
CMC 5720
193 5719
ml 5719
Lem@@ 5719
aus 5718
Submitted 5718
Subs@@ 5717
Salary 5717
Sloven@@ 5716
lacked 5715
Cot@@ 5715
gon@@ 5715
Hour 5715
pet 5714
observing 5713
domestically 5713
tasked 5713
appe@@ 5711
forgotten 5711
esian 5711
instant 5711
Cable 5711
Veterinary 5710
Migrant 5710
essor 5710
Emerging 5710
preambular 5710
tionality 5709
ometer 5709
constituents 5708
519 5708
quad@@ 5708
Maj@@ 5708
OLAF 5707
chlorine 5706
enjoying 5705
Xenophobia 5704
Per 5704
cheques 5704
jew@@ 5702
Summaries 5701
berry 5700
Days 5700
revising 5699
Tit@@ 5699
helicopters 5699
Keep 5698
escal@@ 5698
Off 5698
shar@@ 5697
diploma 5697
VAL@@ 5697
arious 5696
county 5696
alers 5696
265 5696
Roundtable 5695
invalid 5694
militia 5693
Ker@@ 5693
gies 5692
ao@@ 5692
ATES 5692
267 5692
therapies 5692
Nom@@ 5692
INDUSTR@@ 5691
owns 5689
spontan@@ 5688
fissile 5688
ylene 5688
administers 5687
Accoun@@ 5687
Phy@@ 5686
Stewart 5684
pension@@ 5684
depositary 5684
Good@@ 5683
Supervisor 5683
7.7 5683
wheel@@ 5682
BOARD 5682
ague 5681
vec@@ 5681
tainable 5681
analysts 5681
surprised 5680
ique 5680
FED@@ 5680
Chris 5679
INI 5679
adjudic@@ 5679
adjournment 5679
Battle 5679
drama 5678
authentic@@ 5678
Pet@@ 5678
sister 5677
costing 5677
wol@@ 5677
exer@@ 5676
provo@@ 5675
tern@@ 5674
Neu@@ 5674
fruitful 5674
FRE@@ 5671
stric@@ 5670
tetr@@ 5670
SERV@@ 5669
answ@@ 5668
Info@@ 5668
prestigious 5666
nesses 5666
anus 5666
enced 5665
sharply 5665
................................@@ 5665
immunities 5664
Gran@@ 5662
tre 5662
generates 5661
CAC 5660
blan@@ 5660
thes@@ 5660
agged 5659
predictability 5659
surgical 5659
shifting 5658
negoti@@ 5658
broadcasts 5658
ticeship 5658
Continuing 5658
accelerating 5657
altern@@ 5656
cles 5656
izes 5656
illumin@@ 5655
arest 5655
projection 5655
character@@ 5653
tubes 5653
Quartet 5653
climatic 5652
opsis 5652
Ordinance 5652
thwest 5650
Dental 5650
tag 5649
pubs 5649
Proce@@ 5649
Consul@@ 5649
manifest 5648
regrettable 5648
widening 5648
compens@@ 5648
XII 5648
rounded 5648
oxid@@ 5648
GATT 5646
secretary 5646
dealers 5645
deplo@@ 5645
arians 5642
knowledgeable 5642
995 5642
Hull 5642
Ice 5641
sor 5640
ARC 5640
grantor 5640
topo@@ 5639
affiliates 5639
Solicitor 5638
tyre 5636
Fa@@ 5635
cid@@ 5634
Cooperative 5634
Lesotho 5632
strip 5632
Retail 5632
FO 5632
abolic 5631
mail@@ 5630
CNSC 5629
endemic 5628
Thunder 5628
hood 5627
diversified 5627
Mountains 5627
GIS 5626
enthusiasm 5623
Reducing 5623
repai@@ 5622
mir@@ 5622
vii 5622
duplicate 5621
xes 5621
ICS 5621
embarked 5620
A4 5620
Prague 5620
entary 5620
Cycle 5620
SN 5619
translat@@ 5619
enhances 5619
diminished 5618
acquisitions 5618
usable 5618
Suppli@@ 5618
SAT 5618
affirmative 5617
cler@@ 5617
BER@@ 5617
dering 5616
Kno@@ 5616
500@@ 5616
ference 5615
Ageing 5615
Advisories 5615
objecti@@ 5614
flowing 5614
prosecutions 5614
enni@@ 5613
Tom 5611
C.6 5611
colony 5610
spruce 5609
veto 5608
imbalance 5607
Alternatively 5606
attaining 5606
VISION 5606
upward 5605
seasons 5605
characterization 5605
Restric@@ 5604
advisable 5603
compil@@ 5603
Belize 5603
Docs 5603
worsen@@ 5601
Vendor 5601
exo@@ 5599
fund@@ 5599
Tony 5599
otox@@ 5599
Wel@@ 5598
smart 5598
Cum@@ 5598
SC.3 5598
nas@@ 5597
astes 5597
UNAMSIL 5597
pollutant 5596
Reader 5596
judgements 5595
hill 5595
LA@@ 5595
chromosome 5594
extern@@ 5593
EG 5592
plea 5591
Limits 5591
RID 5591
Twel@@ 5590
By@@ 5590
refrig@@ 5590
icon 5590
Stakeholders 5590
TOR@@ 5590
Deliver@@ 5589
scarce 5587
Bilateral 5587
cheese 5587
beans 5585
ailer 5585
soy@@ 5585
Istanbul 5584
defer 5584
connectivity 5584
agreeing 5583
aver 5583
dependants 5582
dep@@ 5582
aughter 5581
bic 5581
inalienable 5581
Swaziland 5581
thr@@ 5580
tern 5578
Phys@@ 5577
subordinate 5576
gauge 5576
custodi@@ 5576
9.4 5576
[...]
